unsigned char g_model[] = {
  0x1c, 0x00, 0x00, 0x00, 0x54, 0x46, 0x4c, 0x33, 0x14, 0x00, 0x20, 0x00,
  0x1c, 0x00, 0x18, 0x00, 0x14, 0x00, 0x10, 0x00, 0x0c, 0x00, 0x00, 0x00,
  0x08, 0x00, 0x04, 0x00, 0x14, 0x00, 0x00, 0x00, 0x1c, 0x00, 0x00, 0x00,
  0x1c, 0x00, 0x00, 0x00, 0x4c, 0x00, 0x00, 0x00, 0xe0, 0x06, 0x00, 0x00,
  0xf0, 0x06, 0x00, 0x00, 0xb0, 0x15, 0x00, 0x00, 0x03, 0x00, 0x00, 0x00,
  0x00, 0x00, 0x00, 0x00, 0x01, 0x00, 0x00, 0x00, 0x0c, 0x00, 0x00, 0x00,
  0x08, 0x00, 0x0c, 0x00, 0x08, 0x00, 0x04, 0x00, 0x08, 0x00, 0x00, 0x00,
  0x13, 0x00, 0x00, 0x00, 0x04, 0x00, 0x00, 0x00, 0x13, 0x00, 0x00, 0x00,
  0x6d, 0x69, 0x6e, 0x5f, 0x72, 0x75, 0x6e, 0x74, 0x69, 0x6d, 0x65, 0x5f,
  0x76, 0x65, 0x72, 0x73, 0x69, 0x6f, 0x6e, 0x00, 0x14, 0x00, 0x00, 0x00,
  0x90, 0x06, 0x00, 0x00, 0x88, 0x06, 0x00, 0x00, 0x70, 0x06, 0x00, 0x00,
  0x00, 0x06, 0x00, 0x00, 0xd0, 0x05, 0x00, 0x00, 0xc0, 0x03, 0x00, 0x00,
  0x70, 0x03, 0x00, 0x00, 0x60, 0x01, 0x00, 0x00, 0x10, 0x01, 0x00, 0x00,
  0x90, 0x00, 0x00, 0x00, 0x64, 0x00, 0x00, 0x00, 0x5c, 0x00, 0x00, 0x00,
  0x54, 0x00, 0x00, 0x00, 0x4c, 0x00, 0x00, 0x00, 0x44, 0x00, 0x00, 0x00,
  0x3c, 0x00, 0x00, 0x00, 0x34, 0x00, 0x00, 0x00, 0x2c, 0x00, 0x00, 0x00,
  0x24, 0x00, 0x00, 0x00, 0x04, 0x00, 0x00, 0x00, 0x2e, 0xf9, 0xff, 0xff,
  0x04, 0x00, 0x00, 0x00, 0x10, 0x00, 0x00, 0x00, 0x31, 0x2e, 0x31, 0x34,
  0x2e, 0x30, 0x00, 0x00, 0x00, 0x00, 0x00, 0x00, 0x00, 0x00, 0x00, 0x00,
  0xd0, 0xeb, 0xff, 0xff, 0xd4, 0xeb, 0xff, 0xff, 0xd8, 0xeb, 0xff, 0xff,
  0xdc, 0xeb, 0xff, 0xff, 0xe0, 0xeb, 0xff, 0xff, 0xe4, 0xeb, 0xff, 0xff,
  0xe8, 0xeb, 0xff, 0xff, 0xec, 0xeb, 0xff, 0xff, 0x6a, 0xf9, 0xff, 0xff,
  0x04, 0x00, 0x00, 0x00, 0x1c, 0x00, 0x00, 0x00, 0xfa, 0x00, 0x00, 0x00,
  0x59, 0x03, 0x00, 0x00, 0x49, 0x01, 0x00, 0x00, 0xeb, 0xfe, 0xff, 0xff,
  0x13, 0xfd, 0xff, 0xff, 0xc0, 0xfb, 0xff, 0xff, 0x3a, 0xff, 0xff, 0xff,
  0x92, 0xf9, 0xff, 0xff, 0x04, 0x00, 0x00, 0x00, 0x70, 0x00, 0x00, 0x00,
  0x33, 0x81, 0xbf, 0xfd, 0x15, 0x98, 0xcc, 0x38, 0x2e, 0xd2, 0xa4, 0x14,
  0xa4, 0x40, 0x7a, 0xfe, 0x3b, 0x10, 0x28, 0x4b, 0xec, 0xd1, 0x32, 0xcb,
  0xd5, 0xc0, 0xdb, 0x28, 0xde, 0xb1, 0x0f, 0x14, 0x25, 0x01, 0x43, 0xf0,
  0xb5, 0xce, 0xe8, 0xcf, 0x01, 0x18, 0xdc, 0x1f, 0x36, 0xa9, 0xed, 0xe7,
  0xc2, 0xea, 0x18, 0xc1, 0xef, 0x1f, 0x4a, 0xf9, 0x3e, 0xcd, 0xc9, 0x2e,
  0xe7, 0xd7, 0x1c, 0x70, 0x39, 0xb1, 0x3a, 0x38, 0x28, 0x22, 0x35, 0xb9,
  0xcc, 0x1e, 0xcd, 0xd2, 0xc0, 0xec, 0x8f, 0x07, 0xd2, 0x1d, 0xfb, 0x16,
  0xd7, 0x23, 0x20, 0xdb, 0x1f, 0x28, 0x24, 0xc6, 0x10, 0x18, 0xe6, 0x2f,
  0xd8, 0x1e, 0x18, 0xf7, 0x29, 0x19, 0x1c, 0x02, 0xe1, 0x1c, 0x16, 0x1b,
  0x2b, 0xf8, 0x04, 0xba, 0x0e, 0xfa, 0xff, 0xff, 0x04, 0x00, 0x00, 0x00,
  0x40, 0x00, 0x00, 0x00, 0xbf, 0x01, 0x00, 0x00, 0x2d, 0xff, 0xff, 0xff,
  0xbe, 0x00, 0x00, 0x00, 0xd9, 0x00, 0x00, 0x00, 0xb7, 0xff, 0xff, 0xff,
  0x97, 0xfd, 0xff, 0xff, 0x62, 0xff, 0xff, 0xff, 0xaf, 0xff, 0xff, 0xff,
  0x62, 0xff, 0xff, 0xff, 0xc4, 0xfe, 0xff, 0xff, 0x38, 0xfe, 0xff, 0xff,
  0x9b, 0x02, 0x00, 0x00, 0x81, 0xff, 0xff, 0xff, 0x43, 0x00, 0x00, 0x00,
  0xe5, 0x00, 0x00, 0x00, 0xb0, 0xff, 0xff, 0xff, 0x5a, 0xfa, 0xff, 0xff,
  0x04, 0x00, 0x00, 0x00, 0x00, 0x02, 0x00, 0x00, 0xf9, 0xfe, 0xf5, 0xe1,
  0xdb, 0x2f, 0xde, 0xe0, 0xfd, 0x3e, 0xf5, 0x12, 0x1b, 0xda, 0x0f, 0x1b,
  0xfb, 0xfc, 0xfb, 0x0e, 0xf9, 0xd7, 0x0a, 0x14, 0x01, 0xf4, 0xfa, 0x0d,
  0x14, 0x1e, 0x08, 0x01, 0x24, 0x24, 0xfb, 0x41, 0x1d, 0xf5, 0x26, 0x28,
  0x43, 0x0f, 0xd1, 0xdc, 0x0a, 0x1f, 0xef, 0x0c, 0xf0, 0xc8, 0xf3, 0xfc,
  0xe5, 0x10, 0xea, 0x00, 0xfc, 0x31, 0x5b, 0x01, 0xfc, 0x1a, 0xf2, 0x0e,
  0xe6, 0x0e, 0x02, 0x1a, 0xd0, 0xf2, 0xc4, 0xf5, 0xdc, 0x12, 0x4c, 0x1a,
  0x13, 0xee, 0xc4, 0x22, 0x13, 0xc4, 0x01, 0xff, 0x02, 0x12, 0x2a, 0x1a,
  0x03, 0xc5, 0xdb, 0x0a, 0x25, 0x1b, 0xe1, 0xc2, 0x16, 0xe6, 0x1f, 0xf5,
  0x14, 0xed, 0xd5, 0xab, 0x81, 0x1f, 0x00, 0xfc, 0x16, 0x0a, 0xe5, 0xec,
  0xef, 0xe1, 0xf9, 0x2e, 0xfc, 0x00, 0xf2, 0xf0, 0xf4, 0x39, 0x1a, 0x03,
  0x0b, 0x13, 0xe1, 0x1f, 0x10, 0x33, 0xed, 0x10, 0x09, 0x0e, 0xf3, 0x0c,
  0xf2, 0x01, 0xf1, 0xee, 0xfe, 0xfd, 0x2d, 0x08, 0xef, 0x33, 0xf6, 0x01,
  0xe2, 0x00, 0x13, 0x07, 0xee, 0x21, 0x38, 0x2b, 0x00, 0xe1, 0x27, 0x0d,
  0xf5, 0xeb, 0x23, 0x3f, 0x03, 0xe9, 0x1d, 0x07, 0x27, 0xb2, 0xd1, 0xf8,
  0xbf, 0x1b, 0xf3, 0xf9, 0x0e, 0x2c, 0x16, 0x30, 0xf9, 0x00, 0x12, 0xe0,
  0x27, 0xd1, 0x03, 0xed, 0xdf, 0xf3, 0xeb, 0x15, 0xd4, 0xe5, 0x11, 0xfe,
  0xd6, 0x12, 0xd3, 0xf5, 0x1a, 0xeb, 0xf4, 0xe3, 0x15, 0x20, 0xe2, 0x0a,
  0x21, 0xf8, 0xcd, 0xf3, 0xdf, 0xf1, 0xd9, 0xe0, 0xed, 0xed, 0x0b, 0xf8,
  0xe3, 0xfd, 0xf9, 0x0b, 0x00, 0x00, 0xe7, 0xe0, 0x07, 0xe4, 0xea, 0xd9,
  0x14, 0xcf, 0xe7, 0xe1, 0xe2, 0xfc, 0xd4, 0xd6, 0xd4, 0x01, 0xd5, 0x01,
  0xdd, 0xfb, 0x00, 0x03, 0xdd, 0x0c, 0x1c, 0xdc, 0xcb, 0x04, 0xf7, 0xf4,
  0xee, 0xe6, 0x26, 0xf4, 0xfe, 0x2b, 0xf0, 0x0c, 0x02, 0xed, 0xe7, 0xeb,
  0xc7, 0x00, 0x42, 0xe8, 0x17, 0x1c, 0x26, 0x08, 0x1d, 0x1d, 0x08, 0xec,
  0x01, 0xef, 0x03, 0x11, 0xf3, 0xd6, 0xe6, 0x0c, 0xf0, 0xfd, 0xdb, 0x25,
  0x2b, 0xec, 0x12, 0x33, 0x24, 0xf1, 0x0c, 0x12, 0x2b, 0x13, 0x0a, 0xed,
  0xfe, 0x27, 0xef, 0x09, 0xf7, 0x00, 0x0f, 0x0f, 0x14, 0xc6, 0xde, 0x26,
  0x05, 0x0f, 0xd8, 0xf4, 0x30, 0x10, 0x1b, 0x22, 0x20, 0xd9, 0x35, 0x24,
  0x20, 0x15, 0x16, 0xda, 0xeb, 0xea, 0xdf, 0xbf, 0xf1, 0x04, 0xfd, 0x03,
  0x1a, 0xe4, 0xe8, 0x15, 0xf9, 0xe5, 0xed, 0xe7, 0xd8, 0xde, 0x08, 0xcd,
  0xef, 0x14, 0x11, 0x11, 0xef, 0x04, 0xe3, 0x03, 0xf7, 0x2b, 0x06, 0xe7,
  0x08, 0x09, 0xf7, 0x3f, 0x0b, 0x11, 0x12, 0xd3, 0xf8, 0x5b, 0xf5, 0xf0,
  0x00, 0x7c, 0xfc, 0xff, 0x49, 0x06, 0x04, 0x4c, 0x1c, 0x0d, 0x02, 0x17,
  0xef, 0xdd, 0xe9, 0x36, 0xfd, 0x17, 0x33, 0x03, 0x33, 0x1b, 0xe4, 0xe5,
  0x12, 0x25, 0xea, 0xc8, 0x08, 0x17, 0x0d, 0x10, 0xf7, 0xee, 0x0d, 0xdd,
  0x03, 0x0f, 0xee, 0xd6, 0x24, 0x0a, 0x26, 0xb8, 0xe2, 0x17, 0x14, 0x29,
  0xff, 0x22, 0x01, 0xf8, 0x0f, 0xcf, 0x0c, 0xfb, 0x13, 0x16, 0xf8, 0x17,
  0xc0, 0xe0, 0xd9, 0xdc, 0xd8, 0x08, 0x1d, 0x1e, 0xfc, 0xda, 0xf5, 0x08,
  0xfa, 0xef, 0xf9, 0xb9, 0xcd, 0x28, 0xf9, 0x01, 0xfd, 0x19, 0xfe, 0x2d,
  0xea, 0xd0, 0x22, 0x14, 0x0d, 0x57, 0xe0, 0xca, 0xb4, 0x10, 0xfe, 0xe9,
  0xb9, 0x0c, 0xf9, 0x0e, 0x12, 0xc2, 0xdf, 0x09, 0xf0, 0xf6, 0xee, 0xf1,
  0xda, 0x00, 0x1f, 0xfb, 0xc5, 0xb4, 0xfa, 0xeb, 0xec, 0x08, 0x01, 0xd6,
  0x29, 0xe6, 0xe9, 0xfa, 0x08, 0x2a, 0x0b, 0xfd, 0xfc, 0x13, 0xee, 0xf3,
  0xed, 0x14, 0x0f, 0x06, 0x66, 0xfc, 0xff, 0xff, 0x04, 0x00, 0x00, 0x00,
  0x40, 0x00, 0x00, 0x00, 0x32, 0xfe, 0xff, 0xff, 0x5a, 0x00, 0x00, 0x00,
  0x66, 0xff, 0xff, 0xff, 0x67, 0xff, 0xff, 0xff, 0x53, 0xfd, 0xff, 0xff,
  0x1c, 0x00, 0x00, 0x00, 0x86, 0xfe, 0xff, 0xff, 0xb2, 0xfe, 0xff, 0xff,
  0x9a, 0xfe, 0xff, 0xff, 0x61, 0x01, 0x00, 0x00, 0x66, 0x00, 0x00, 0x00,
  0x2a, 0x01, 0x00, 0x00, 0x79, 0x01, 0x00, 0x00, 0x0b, 0xff, 0xff, 0xff,
  0x2a, 0x00, 0x00, 0x00, 0x52, 0x01, 0x00, 0x00, 0xb2, 0xfc, 0xff, 0xff,
  0x04, 0x00, 0x00, 0x00, 0x00, 0x02, 0x00, 0x00, 0xa6, 0xa9, 0xef, 0x50,
  0x2e, 0xc2, 0x1d, 0x30, 0x81, 0x13, 0x95, 0x0e, 0xff, 0x1b, 0x4a, 0xca,
  0xf7, 0xe6, 0xda, 0x17, 0xf6, 0xd3, 0xbf, 0xff, 0x68, 0x77, 0xff, 0x24,
  0xfa, 0x2c, 0xbc, 0xcf, 0xb3, 0xcf, 0x9c, 0x42, 0xfc, 0x6c, 0xc8, 0x0d,
  0x02, 0x9a, 0xfe, 0x00, 0xc2, 0x62, 0xee, 0xa3, 0xf2, 0x4a, 0x10, 0xd3,
  0xd0, 0xdd, 0x81, 0xc1, 0x1c, 0x4e, 0xca, 0xb6, 0xf7, 0x05, 0xc3, 0x09,
  0xca, 0x54, 0x81, 0x22, 0x25, 0xdb, 0x51, 0x21, 0xb7, 0x58, 0xed, 0x51,
  0x11, 0xc5, 0xf4, 0xba, 0x03, 0xf5, 0xd8, 0xc1, 0x05, 0x4a, 0x29, 0xf3,
  0xf5, 0xed, 0x21, 0x3b, 0x54, 0xc9, 0x4a, 0xc9, 0xf9, 0xd8, 0xfd, 0xf3,
  0xf3, 0x0d, 0xdd, 0xef, 0xfe, 0xde, 0x64, 0xf6, 0xef, 0x52, 0x0f, 0x04,
  0x0f, 0x10, 0x7f, 0x1d, 0x00, 0x25, 0x07, 0xf1, 0xf9, 0x38, 0x39, 0x06,
  0xfb, 0xfd, 0xe8, 0xed, 0xce, 0x2f, 0xce, 0x24, 0xfd, 0x35, 0x7f, 0x01,
  0x2a, 0xef, 0x8f, 0xfd, 0xd2, 0x14, 0x3c, 0xe9, 0x3b, 0x17, 0xc1, 0x2b,
  0xfd, 0x29, 0x2f, 0xe5, 0x13, 0x0d, 0x9f, 0xaa, 0x09, 0x09, 0x66, 0xe7,
  0x10, 0x16, 0xd4, 0xcc, 0x28, 0xd5, 0xf0, 0x14, 0xd9, 0xf2, 0xf7, 0xc9,
  0xfa, 0x81, 0xf3, 0xd2, 0xd1, 0xc5, 0xc3, 0xd0, 0x31, 0xaa, 0x0d, 0xec,
  0xc5, 0x3d, 0xfd, 0x03, 0xf3, 0xcc, 0x36, 0xd5, 0x09, 0xef, 0x06, 0x23,
  0xce, 0x49, 0x0a, 0xf5, 0x04, 0xd9, 0x02, 0x1a, 0xa9, 0xed, 0xd3, 0xff,
  0x01, 0x10, 0x28, 0x09, 0x35, 0x05, 0x2f, 0xbf, 0xfd, 0x2e, 0x7f, 0xe3,
  0x24, 0xde, 0xd8, 0x23, 0xbd, 0xec, 0xc6, 0x27, 0xb0, 0x2e, 0xaf, 0xec,
  0x72, 0x27, 0x08, 0x40, 0x05, 0x6e, 0x92, 0xfe, 0x3e, 0xe8, 0x67, 0x45,
  0x20, 0x32, 0xb1, 0xd4, 0xa3, 0x24, 0xe3, 0x9e, 0xd5, 0x7f, 0xf8, 0xc5,
  0x12, 0xd4, 0xf2, 0xf4, 0xa6, 0xfa, 0x04, 0xcc, 0x32, 0x16, 0x7d, 0x11,
  0x08, 0x21, 0x36, 0xeb, 0x11, 0xea, 0x4e, 0x1f, 0x13, 0x0e, 0x1f, 0x7f,
  0x2c, 0x07, 0x58, 0xea, 0xf1, 0x20, 0x16, 0x59, 0x0c, 0xca, 0xce, 0xe7,
  0xdc, 0xd3, 0xe8, 0xb7, 0x0b, 0x12, 0xd9, 0xc3, 0x81, 0x9c, 0x07, 0xb6,
  0xdf, 0xdc, 0x07, 0xe7, 0xe6, 0xc1, 0xf2, 0xeb, 0x12, 0xfc, 0x06, 0xd4,
  0x18, 0xdc, 0xd5, 0xf2, 0x1d, 0xb2, 0xe2, 0xd0, 0x81, 0xb2, 0xcb, 0x0a,
  0xfc, 0xdb, 0x22, 0xed, 0xa4, 0xff, 0xaf, 0xa7, 0x42, 0x31, 0xf5, 0xfb,
  0xbb, 0xe6, 0xbd, 0xcd, 0xf0, 0x31, 0x2a, 0xf5, 0x8b, 0xad, 0xe8, 0xdc,
  0xd4, 0x0d, 0x7f, 0xea, 0x13, 0xff, 0xcd, 0xde, 0x03, 0xcd, 0x69, 0xde,
  0xec, 0xf5, 0xd2, 0x1d, 0xe3, 0xe2, 0xf9, 0xca, 0x03, 0xc4, 0x84, 0x04,
  0x01, 0xfd, 0xe0, 0xfd, 0xaa, 0xd9, 0xa4, 0xa3, 0xfc, 0xb3, 0x12, 0xcb,
  0xdb, 0x86, 0xd8, 0x10, 0x50, 0xb6, 0xd7, 0xb1, 0xff, 0xe5, 0xf3, 0xbe,
  0x11, 0x52, 0xe7, 0xd6, 0xbf, 0xa8, 0xf5, 0x9f, 0x81, 0xcf, 0x19, 0x29,
  0xbc, 0xac, 0xfd, 0x08, 0xfa, 0x45, 0xef, 0x25, 0xe9, 0xff, 0x81, 0xfc,
  0xf7, 0x29, 0x07, 0xa8, 0xce, 0x5b, 0x1f, 0x08, 0x46, 0xeb, 0x04, 0xc9,
  0x0a, 0xd4, 0xfc, 0xd6, 0x17, 0x74, 0xe2, 0xa9, 0xf0, 0x2d, 0xf8, 0x9f,
  0xe6, 0xfd, 0x08, 0x5b, 0x16, 0xea, 0xf7, 0x01, 0xe2, 0xf5, 0x52, 0xe2,
  0x24, 0x12, 0xa4, 0x0b, 0xce, 0xce, 0xe0, 0xc1, 0x32, 0xb0, 0xe8, 0xe2,
  0x15, 0x81, 0xe6, 0xd9, 0x5d, 0xa6, 0xed, 0xd1, 0xf5, 0xc6, 0xe0, 0x27,
  0xdc, 0xa3, 0x22, 0xfd, 0xeb, 0xc2, 0xd3, 0xda, 0x81, 0xea, 0x00, 0x18,
  0x03, 0xca, 0x01, 0xd3, 0xbb, 0xf7, 0xec, 0xb6, 0xf6, 0xff, 0xf4, 0xe2,
  0xaf, 0x31, 0x19, 0xaa, 0xbe, 0xfe, 0xff, 0xff, 0x04, 0x00, 0x00, 0x00,
  0x20, 0x00, 0x00, 0x00, 0x13, 0x00, 0x00, 0x00, 0xdf, 0xff, 0xff, 0xff,
  0x51, 0x00, 0x00, 0x00, 0xe7, 0xff, 0xff, 0xff, 0xf1, 0xff, 0xff, 0xff,
  0xca, 0xff, 0xff, 0xff, 0xaa, 0xff, 0xff, 0xff, 0xee, 0xff, 0xff, 0xff,
  0xea, 0xfe, 0xff, 0xff, 0x04, 0x00, 0x00, 0x00, 0x60, 0x00, 0x00, 0x00,
  0x00, 0x3e, 0xd2, 0x5b, 0x81, 0x07, 0xb6, 0x09, 0xdf, 0xf4, 0x15, 0x4a,
  0x81, 0xda, 0xc0, 0x41, 0x0a, 0x37, 0x95, 0xac, 0x64, 0x39, 0x89, 0x9b,
  0x2e, 0x0b, 0xcb, 0xe6, 0xa1, 0xea, 0xee, 0x81, 0xcb, 0x1e, 0xd8, 0x09,
  0xd8, 0xce, 0xd9, 0xe2, 0xd4, 0x51, 0x41, 0x02, 0xff, 0x10, 0x81, 0xe5,
  0xfd, 0x81, 0x6f, 0xfa, 0xb6, 0x6d, 0x2e, 0x9a, 0x9c, 0x15, 0x9e, 0x44,
  0xaa, 0x9e, 0x7f, 0xc7, 0xf2, 0xef, 0xae, 0x8c, 0x34, 0x76, 0x29, 0xd9,
  0x5b, 0x6e, 0xf0, 0xab, 0x46, 0xf0, 0x81, 0xbc, 0x9f, 0xfd, 0xde, 0x2d,
  0xbc, 0xc0, 0xf6, 0xb3, 0x1d, 0xc9, 0x5d, 0x18, 0x42, 0x0b, 0x07, 0x81,
  0x56, 0xff, 0xff, 0xff, 0x04, 0x00, 0x00, 0x00, 0x08, 0x00, 0x00, 0x00,
  0xff, 0xff, 0xff, 0xff, 0x20, 0x00, 0x00, 0x00, 0xf0, 0xf1, 0xff, 0xff,
  0xf4, 0xf1, 0xff, 0xff, 0x0f, 0x00, 0x00, 0x00, 0x4d, 0x4c, 0x49, 0x52,
  0x20, 0x43, 0x6f, 0x6e, 0x76, 0x65, 0x72, 0x74, 0x65, 0x64, 0x2e, 0x00,
  0x01, 0x00, 0x00, 0x00, 0x14, 0x00, 0x00, 0x00, 0x00, 0x00, 0x0e, 0x00,
  0x18, 0x00, 0x14, 0x00, 0x10, 0x00, 0x0c, 0x00, 0x08, 0x00, 0x04, 0x00,
  0x0e, 0x00, 0x00, 0x00, 0x14, 0x00, 0x00, 0x00, 0x1c, 0x00, 0x00, 0x00,
  0x58, 0x02, 0x00, 0x00, 0x5c, 0x02, 0x00, 0x00, 0x60, 0x02, 0x00, 0x00,
  0x04, 0x00, 0x00, 0x00, 0x6d, 0x61, 0x69, 0x6e, 0x00, 0x00, 0x00, 0x00,
  0x08, 0x00, 0x00, 0x00, 0xf4, 0x01, 0x00, 0x00, 0x90, 0x01, 0x00, 0x00,
  0x40, 0x01, 0x00, 0x00, 0xf0, 0x00, 0x00, 0x00, 0xc8, 0x00, 0x00, 0x00,
  0x78, 0x00, 0x00, 0x00, 0x40, 0x00, 0x00, 0x00, 0x04, 0x00, 0x00, 0x00,
  0x9a, 0xfe, 0xff, 0xff, 0x1c, 0x00, 0x00, 0x00, 0x00, 0x00, 0x00, 0x09,
  0x1c, 0x00, 0x00, 0x00, 0x20, 0x00, 0x00, 0x00, 0x04, 0x00, 0x00, 0x00,
  0x00, 0x00, 0x06, 0x00, 0x08, 0x00, 0x04, 0x00, 0x06, 0x00, 0x00, 0x00,
  0x00, 0x00, 0x80, 0x3f, 0x01, 0x00, 0x00, 0x00, 0x11, 0x00, 0x00, 0x00,
  0x01, 0x00, 0x00, 0x00, 0x10, 0x00, 0x00, 0x00, 0xd2, 0xfe, 0xff, 0xff,
  0x14, 0x00, 0x00, 0x00, 0x00, 0x00, 0x00, 0x08, 0x10, 0x00, 0x00, 0x00,
  0x14, 0x00, 0x00, 0x00, 0x03, 0x00, 0x00, 0x00, 0xbc, 0xf2, 0xff, 0xff,
  0x01, 0x00, 0x00, 0x00, 0x10, 0x00, 0x00, 0x00, 0x03, 0x00, 0x00, 0x00,
  0x0f, 0x00, 0x00, 0x00, 0x08, 0x00, 0x00, 0x00, 0x09, 0x00, 0x00, 0x00,
  0x06, 0xff, 0xff, 0xff, 0x1c, 0x00, 0x00, 0x00, 0x00, 0x00, 0x00, 0x08,
  0x1c, 0x00, 0x00, 0x00, 0x20, 0x00, 0x00, 0x00, 0x03, 0x00, 0x00, 0x00,
  0x00, 0x00, 0x06, 0x00, 0x08, 0x00, 0x07, 0x00, 0x06, 0x00, 0x00, 0x00,
  0x00, 0x00, 0x00, 0x01, 0x01, 0x00, 0x00, 0x00, 0x0f, 0x00, 0x00, 0x00,
  0x03, 0x00, 0x00, 0x00, 0x0e, 0x00, 0x00, 0x00, 0x06, 0x00, 0x00, 0x00,
  0x07, 0x00, 0x00, 0x00, 0x00, 0x00, 0x0a, 0x00, 0x10, 0x00, 0x0c, 0x00,
  0x08, 0x00, 0x04, 0x00, 0x0a, 0x00, 0x00, 0x00, 0x0c, 0x00, 0x00, 0x00,
  0x10, 0x00, 0x00, 0x00, 0x02, 0x00, 0x00, 0x00, 0x01, 0x00, 0x00, 0x00,
  0x0e, 0x00, 0x00, 0x00, 0x02, 0x00, 0x00, 0x00, 0x0d, 0x00, 0x00, 0x00,
  0x01, 0x00, 0x00, 0x00, 0x76, 0xff, 0xff, 0xff, 0x24, 0x00, 0x00, 0x00,
  0x00, 0x00, 0x00, 0x05, 0x30, 0x00, 0x00, 0x00, 0x34, 0x00, 0x00, 0x00,
  0x01, 0x00, 0x00, 0x00, 0x00, 0x00, 0x0e, 0x00, 0x14, 0x00, 0x00, 0x00,
  0x10, 0x00, 0x0c, 0x00, 0x08, 0x00, 0x04, 0x00, 0x0e, 0x00, 0x00, 0x00,
  0x03, 0x00, 0x00, 0x00, 0x01, 0x00, 0x00, 0x00, 0x03, 0x00, 0x00, 0x00,
  0x01, 0x00, 0x00, 0x00, 0x01, 0x00, 0x00, 0x00, 0x0d, 0x00, 0x00, 0x00,
  0x01, 0x00, 0x00, 0x00, 0x0c, 0x00, 0x00, 0x00, 0x62, 0xff, 0xff, 0xff,
  0x10, 0x00, 0x00, 0x00, 0x00, 0x00, 0x00, 0x01, 0x18, 0x00, 0x00, 0x00,
  0x1c, 0x00, 0x00, 0x00, 0x54, 0xff, 0xff, 0xff, 0x00, 0x00, 0x00, 0x01,
  0x01, 0x00, 0x00, 0x00, 0x01, 0x00, 0x00, 0x00, 0x01, 0x00, 0x00, 0x00,
  0x0c, 0x00, 0x00, 0x00, 0x03, 0x00, 0x00, 0x00, 0x0b, 0x00, 0x00, 0x00,
  0x04, 0x00, 0x00, 0x00, 0x05, 0x00, 0x00, 0x00, 0x00, 0x00, 0x0e, 0x00,
  0x1a, 0x00, 0x14, 0x00, 0x10, 0x00, 0x0c, 0x00, 0x0b, 0x00, 0x04, 0x00,
  0x0e, 0x00, 0x00, 0x00, 0x24, 0x00, 0x00, 0x00, 0x00, 0x00, 0x00, 0x05,
  0x34, 0x00, 0x00, 0x00, 0x38, 0x00, 0x00, 0x00, 0x01, 0x00, 0x00, 0x00,
  0x00, 0x00, 0x0e, 0x00, 0x18, 0x00, 0x17, 0x00, 0x10, 0x00, 0x0c, 0x00,
  0x08, 0x00, 0x04, 0x00, 0x0e, 0x00, 0x00, 0x00, 0x03, 0x00, 0x00, 0x00,
  0x03, 0x00, 0x00, 0x00, 0x03, 0x00, 0x00, 0x00, 0x03, 0x00, 0x00, 0x00,
  0x00, 0x00, 0x00, 0x01, 0x01, 0x00, 0x00, 0x00, 0x0b, 0x00, 0x00, 0x00,
  0x01, 0x00, 0x00, 0x00, 0x0a, 0x00, 0x00, 0x00, 0x00, 0x00, 0x0e, 0x00,
  0x14, 0x00, 0x00, 0x00, 0x10, 0x00, 0x0c, 0x00, 0x0b, 0x00, 0x04, 0x00,
  0x0e, 0x00, 0x00, 0x00, 0x1c, 0x00, 0x00, 0x00, 0x00, 0x00, 0x00, 0x01,
  0x24, 0x00, 0x00, 0x00, 0x28, 0x00, 0x00, 0x00, 0x0c, 0x00, 0x10, 0x00,
  0x00, 0x00, 0x0c, 0x00, 0x08, 0x00, 0x07, 0x00, 0x0c, 0x00, 0x00, 0x00,
  0x00, 0x00, 0x00, 0x01, 0x01, 0x00, 0x00, 0x00, 0x01, 0x00, 0x00, 0x00,
  0x01, 0x00, 0x00, 0x00, 0x0a, 0x00, 0x00, 0x00, 0x03, 0x00, 0x00, 0x00,
  0x00, 0x00, 0x00, 0x00, 0x02, 0x00, 0x00, 0x00, 0x03, 0x00, 0x00, 0x00,
  0x01, 0x00, 0x00, 0x00, 0x11, 0x00, 0x00, 0x00, 0x01, 0x00, 0x00, 0x00,
  0x00, 0x00, 0x00, 0x00, 0x12, 0x00, 0x00, 0x00, 0xac, 0x0b, 0x00, 0x00,
  0x48, 0x0b, 0x00, 0x00, 0x70, 0x0a, 0x00, 0x00, 0x9c, 0x09, 0x00, 0x00,
  0x70, 0x08, 0x00, 0x00, 0x3c, 0x07, 0x00, 0x00, 0xd0, 0x06, 0x00, 0x00,
  0x4c, 0x06, 0x00, 0x00, 0xe0, 0x05, 0x00, 0x00, 0x5c, 0x05, 0x00, 0x00,
  0x60, 0x04, 0x00, 0x00, 0xcc, 0x03, 0x00, 0x00, 0xd0, 0x02, 0x00, 0x00,
  0x3c, 0x02, 0x00, 0x00, 0xc0, 0x01, 0x00, 0x00, 0x0c, 0x01, 0x00, 0x00,
  0x70, 0x00, 0x00, 0x00, 0x04, 0x00, 0x00, 0x00, 0xb0, 0xf4, 0xff, 0xff,
  0x18, 0x00, 0x00, 0x00, 0x20, 0x00, 0x00, 0x00, 0x40, 0x00, 0x00, 0x00,
  0x12, 0x00, 0x00, 0x00, 0x00, 0x00, 0x00, 0x09, 0x44, 0x00, 0x00, 0x00,
  0x02, 0x00, 0x00, 0x00, 0xff, 0xff, 0xff, 0xff, 0x07, 0x00, 0x00, 0x00,
  0x94, 0xf4, 0xff, 0xff, 0x08, 0x00, 0x00, 0x00, 0x14, 0x00, 0x00, 0x00,
  0x01, 0x00, 0x00, 0x00, 0x80, 0xff, 0xff, 0xff, 0xff, 0xff, 0xff, 0xff,
  0x00, 0x00, 0x00, 0x00, 0x01, 0x00, 0x00, 0x00, 0x00, 0x00, 0x80, 0x3b,
  0x08, 0x00, 0x00, 0x00, 0x49, 0x64, 0x65, 0x6e, 0x74, 0x69, 0x74, 0x79,
  0x00, 0x00, 0x00, 0x00, 0x02, 0x00, 0x00, 0x00, 0x01, 0x00, 0x00, 0x00,
  0x07, 0x00, 0x00, 0x00, 0x18, 0xf5, 0xff, 0xff, 0x18, 0x00, 0x00, 0x00,
  0x20, 0x00, 0x00, 0x00, 0x40, 0x00, 0x00, 0x00, 0x11, 0x00, 0x00, 0x00,
  0x00, 0x00, 0x00, 0x09, 0x74, 0x00, 0x00, 0x00, 0x02, 0x00, 0x00, 0x00,
  0xff, 0xff, 0xff, 0xff, 0x07, 0x00, 0x00, 0x00, 0xfc, 0xf4, 0xff, 0xff,
  0x08, 0x00, 0x00, 0x00, 0x14, 0x00, 0x00, 0x00, 0x01, 0x00, 0x00, 0x00,
  0x3c, 0x00, 0x00, 0x00, 0x00, 0x00, 0x00, 0x00, 0x00, 0x00, 0x00, 0x00,
  0x01, 0x00, 0x00, 0x00, 0xd0, 0x83, 0x1c, 0x3f, 0x3a, 0x00, 0x00, 0x00,
  0x73, 0x65, 0x71, 0x75, 0x65, 0x6e, 0x74, 0x69, 0x61, 0x6c, 0x5f, 0x35,
  0x2f, 0x64, 0x65, 0x6e, 0x73, 0x65, 0x5f, 0x31, 0x31, 0x2f, 0x4d, 0x61,
  0x74, 0x4d, 0x75, 0x6c, 0x3b, 0x73, 0x65, 0x71, 0x75, 0x65, 0x6e, 0x74,
  0x69, 0x61, 0x6c, 0x5f, 0x35, 0x2f, 0x64, 0x65, 0x6e, 0x73, 0x65, 0x5f,
  0x31, 0x31, 0x2f, 0x42, 0x69, 0x61, 0x73, 0x41, 0x64, 0x64, 0x00, 0x00,
  0x02, 0x00, 0x00, 0x00, 0x01, 0x00, 0x00, 0x00, 0x07, 0x00, 0x00, 0x00,
  0xb0, 0xf5, 0xff, 0xff, 0x18, 0x00, 0x00, 0x00, 0x20, 0x00, 0x00, 0x00,
  0x3c, 0x00, 0x00, 0x00, 0x10, 0x00, 0x00, 0x00, 0x00, 0x00, 0x00, 0x09,
  0x8c, 0x00, 0x00, 0x00, 0x02, 0x00, 0x00, 0x00, 0xff, 0xff, 0xff, 0xff,
  0x10, 0x00, 0x00, 0x00, 0x94, 0xf5, 0xff, 0xff, 0x08, 0x00, 0x00, 0x00,
  0x10, 0x00, 0x00, 0x00, 0x01, 0x00, 0x00, 0x00, 0x80, 0xff, 0xff, 0xff,
  0xff, 0xff, 0xff, 0xff, 0x01, 0x00, 0x00, 0x00, 0x4b, 0x06, 0x48, 0x3e,
  0x55, 0x00, 0x00, 0x00, 0x73, 0x65, 0x71, 0x75, 0x65, 0x6e, 0x74, 0x69,
  0x61, 0x6c, 0x5f, 0x35, 0x2f, 0x64, 0x65, 0x6e, 0x73, 0x65, 0x5f, 0x31,
  0x30, 0x2f, 0x4d, 0x61, 0x74, 0x4d, 0x75, 0x6c, 0x3b, 0x73, 0x65, 0x71,
  0x75, 0x65, 0x6e, 0x74, 0x69, 0x61, 0x6c, 0x5f, 0x35, 0x2f, 0x64, 0x65,
  0x6e, 0x73, 0x65, 0x5f, 0x31, 0x30, 0x2f, 0x52, 0x65, 0x6c, 0x75, 0x3b,
  0x73, 0x65, 0x71, 0x75, 0x65, 0x6e, 0x74, 0x69, 0x61, 0x6c, 0x5f, 0x35,
  0x2f, 0x64, 0x65, 0x6e, 0x73, 0x65, 0x5f, 0x31, 0x30, 0x2f, 0x42, 0x69,
  0x61, 0x73, 0x41, 0x64, 0x64, 0x00, 0x00, 0x00, 0x02, 0x00, 0x00, 0x00,
  0x01, 0x00, 0x00, 0x00, 0x10, 0x00, 0x00, 0x00, 0x60, 0xf6, 0xff, 0xff,
  0x18, 0x00, 0x00, 0x00, 0x20, 0x00, 0x00, 0x00, 0x3c, 0x00, 0x00, 0x00,
  0x0f, 0x00, 0x00, 0x00, 0x00, 0x00, 0x00, 0x09, 0x54, 0x00, 0x00, 0x00,
  0x02, 0x00, 0x00, 0x00, 0xff, 0xff, 0xff, 0xff, 0x20, 0x00, 0x00, 0x00,
  0x44, 0xf6, 0xff, 0xff, 0x08, 0x00, 0x00, 0x00, 0x10, 0x00, 0x00, 0x00,
  0x01, 0x00, 0x00, 0x00, 0x80, 0xff, 0xff, 0xff, 0xff, 0xff, 0xff, 0xff,
  0x01, 0x00, 0x00, 0x00, 0x4c, 0x9a, 0x4c, 0x3e, 0x1e, 0x00, 0x00, 0x00,
  0x73, 0x65, 0x71, 0x75, 0x65, 0x6e, 0x74, 0x69, 0x61, 0x6c, 0x5f, 0x35,
  0x2f, 0x66, 0x6c, 0x61, 0x74, 0x74, 0x65, 0x6e, 0x5f, 0x35, 0x2f, 0x52,
  0x65, 0x73, 0x68, 0x61, 0x70, 0x65, 0x00, 0x00, 0x02, 0x00, 0x00, 0x00,
  0x01, 0x00, 0x00, 0x00, 0x20, 0x00, 0x00, 0x00, 0xd8, 0xf6, 0xff, 0xff,
  0x18, 0x00, 0x00, 0x00, 0x28, 0x00, 0x00, 0x00, 0x44, 0x00, 0x00, 0x00,
  0x0e, 0x00, 0x00, 0x00, 0x00, 0x00, 0x00, 0x09, 0x64, 0x00, 0x00, 0x00,
  0x04, 0x00, 0x00, 0x00, 0xff, 0xff, 0xff, 0xff, 0x01, 0x00, 0x00, 0x00,
  0x02, 0x00, 0x00, 0x00, 0x10, 0x00, 0x00, 0x00, 0xc4, 0xf6, 0xff, 0xff,
  0x08, 0x00, 0x00, 0x00, 0x10, 0x00, 0x00, 0x00, 0x01, 0x00, 0x00, 0x00,
  0x80, 0xff, 0xff, 0xff, 0xff, 0xff, 0xff, 0xff, 0x01, 0x00, 0x00, 0x00,
  0x4c, 0x9a, 0x4c, 0x3e, 0x25, 0x00, 0x00, 0x00, 0x73, 0x65, 0x71, 0x75,
  0x65, 0x6e, 0x74, 0x69, 0x61, 0x6c, 0x5f, 0x35, 0x2f, 0x6d, 0x61, 0x78,
  0x5f, 0x70, 0x6f, 0x6f, 0x6c, 0x69, 0x6e, 0x67, 0x32, 0x64, 0x5f, 0x31,
  0x31, 0x2f, 0x4d, 0x61, 0x78, 0x50, 0x6f, 0x6f, 0x6c, 0x00, 0x00, 0x00,
  0x04, 0x00, 0x00, 0x00, 0x01, 0x00, 0x00, 0x00, 0x01, 0x00, 0x00, 0x00,
  0x02, 0x00, 0x00, 0x00, 0x10, 0x00, 0x00, 0x00, 0x68, 0xf7, 0xff, 0xff,
  0x18, 0x00, 0x00, 0x00, 0x28, 0x00, 0x00, 0x00, 0x44, 0x00, 0x00, 0x00,
  0x0d, 0x00, 0x00, 0x00, 0x00, 0x00, 0x00, 0x09, 0xcc, 0x00, 0x00, 0x00,
  0x04, 0x00, 0x00, 0x00, 0xff, 0xff, 0xff, 0xff, 0x03, 0x00, 0x00, 0x00,
  0x02, 0x00, 0x00, 0x00, 0x10, 0x00, 0x00, 0x00, 0x54, 0xf7, 0xff, 0xff,
  0x08, 0x00, 0x00, 0x00, 0x10, 0x00, 0x00, 0x00, 0x01, 0x00, 0x00, 0x00,
  0x80, 0xff, 0xff, 0xff, 0xff, 0xff, 0xff, 0xff, 0x01, 0x00, 0x00, 0x00,
  0x4c, 0x9a, 0x4c, 0x3e, 0x8f, 0x00, 0x00, 0x00, 0x73, 0x65, 0x71, 0x75,
  0x65, 0x6e, 0x74, 0x69, 0x61, 0x6c, 0x5f, 0x35, 0x2f, 0x63, 0x6f, 0x6e,
  0x76, 0x32, 0x64, 0x5f, 0x31, 0x31, 0x2f, 0x52, 0x65, 0x6c, 0x75, 0x3b,
  0x73, 0x65, 0x71, 0x75, 0x65, 0x6e, 0x74, 0x69, 0x61, 0x6c, 0x5f, 0x35,
  0x2f, 0x63, 0x6f, 0x6e, 0x76, 0x32, 0x64, 0x5f, 0x31, 0x31, 0x2f, 0x42,
  0x69, 0x61, 0x73, 0x41, 0x64, 0x64, 0x3b, 0x73, 0x65, 0x71, 0x75, 0x65,
  0x6e, 0x74, 0x69, 0x61, 0x6c, 0x5f, 0x35, 0x2f, 0x63, 0x6f, 0x6e, 0x76,
  0x32, 0x64, 0x5f, 0x31, 0x31, 0x2f, 0x43, 0x6f, 0x6e, 0x76, 0x32, 0x44,
  0x3b, 0x73, 0x65, 0x71, 0x75, 0x65, 0x6e, 0x74, 0x69, 0x61, 0x6c, 0x5f,
  0x35, 0x2f, 0x63, 0x6f, 0x6e, 0x76, 0x32, 0x64, 0x5f, 0x31, 0x31, 0x2f,
  0x42, 0x69, 0x61, 0x73, 0x41, 0x64, 0x64, 0x2f, 0x52, 0x65, 0x61, 0x64,
  0x56, 0x61, 0x72, 0x69, 0x61, 0x62, 0x6c, 0x65, 0x4f, 0x70, 0x2f, 0x72,
  0x65, 0x73, 0x6f, 0x75, 0x72, 0x63, 0x65, 0x00, 0x04, 0x00, 0x00, 0x00,
  0x01, 0x00, 0x00, 0x00, 0x03, 0x00, 0x00, 0x00, 0x02, 0x00, 0x00, 0x00,
  0x10, 0x00, 0x00, 0x00, 0x60, 0xf8, 0xff, 0xff, 0x18, 0x00, 0x00, 0x00,
  0x28, 0x00, 0x00, 0x00, 0x44, 0x00, 0x00, 0x00, 0x0c, 0x00, 0x00, 0x00,
  0x00, 0x00, 0x00, 0x09, 0x64, 0x00, 0x00, 0x00, 0x04, 0x00, 0x00, 0x00,
  0xff, 0xff, 0xff, 0xff, 0x03, 0x00, 0x00, 0x00, 0x02, 0x00, 0x00, 0x00,
  0x08, 0x00, 0x00, 0x00, 0x4c, 0xf8, 0xff, 0xff, 0x08, 0x00, 0x00, 0x00,
  0x10, 0x00, 0x00, 0x00, 0x01, 0x00, 0x00, 0x00, 0x80, 0xff, 0xff, 0xff,
  0xff, 0xff, 0xff, 0xff, 0x01, 0x00, 0x00, 0x00, 0x85, 0xae, 0x1c, 0x3f,
  0x25, 0x00, 0x00, 0x00, 0x73, 0x65, 0x71, 0x75, 0x65, 0x6e, 0x74, 0x69,
  0x61, 0x6c, 0x5f, 0x35, 0x2f, 0x6d, 0x61, 0x78, 0x5f, 0x70, 0x6f, 0x6f,
  0x6c, 0x69, 0x6e, 0x67, 0x32, 0x64, 0x5f, 0x31, 0x30, 0x2f, 0x4d, 0x61,
  0x78, 0x50, 0x6f, 0x6f, 0x6c, 0x00, 0x00, 0x00, 0x04, 0x00, 0x00, 0x00,
  0x01, 0x00, 0x00, 0x00, 0x03, 0x00, 0x00, 0x00, 0x02, 0x00, 0x00, 0x00,
  0x08, 0x00, 0x00, 0x00, 0xf0, 0xf8, 0xff, 0xff, 0x18, 0x00, 0x00, 0x00,
  0x28, 0x00, 0x00, 0x00, 0x44, 0x00, 0x00, 0x00, 0x0b, 0x00, 0x00, 0x00,
  0x00, 0x00, 0x00, 0x09, 0xcc, 0x00, 0x00, 0x00, 0x04, 0x00, 0x00, 0x00,
  0xff, 0xff, 0xff, 0xff, 0x0a, 0x00, 0x00, 0x00, 0x06, 0x00, 0x00, 0x00,
  0x08, 0x00, 0x00, 0x00, 0xdc, 0xf8, 0xff, 0xff, 0x08, 0x00, 0x00, 0x00,
  0x10, 0x00, 0x00, 0x00, 0x01, 0x00, 0x00, 0x00, 0x80, 0xff, 0xff, 0xff,
  0xff, 0xff, 0xff, 0xff, 0x01, 0x00, 0x00, 0x00, 0x85, 0xae, 0x1c, 0x3f,
  0x8f, 0x00, 0x00, 0x00, 0x73, 0x65, 0x71, 0x75, 0x65, 0x6e, 0x74, 0x69,
  0x61, 0x6c, 0x5f, 0x35, 0x2f, 0x63, 0x6f, 0x6e, 0x76, 0x32, 0x64, 0x5f,
  0x31, 0x30, 0x2f, 0x52, 0x65, 0x6c, 0x75, 0x3b, 0x73, 0x65, 0x71, 0x75,
  0x65, 0x6e, 0x74, 0x69, 0x61, 0x6c, 0x5f, 0x35, 0x2f, 0x63, 0x6f, 0x6e,
  0x76, 0x32, 0x64, 0x5f, 0x31, 0x30, 0x2f, 0x42, 0x69, 0x61, 0x73, 0x41,
  0x64, 0x64, 0x3b, 0x73, 0x65, 0x71, 0x75, 0x65, 0x6e, 0x74, 0x69, 0x61,
  0x6c, 0x5f, 0x35, 0x2f, 0x63, 0x6f, 0x6e, 0x76, 0x32, 0x64, 0x5f, 0x31,
  0x30, 0x2f, 0x43, 0x6f, 0x6e, 0x76, 0x32, 0x44, 0x3b, 0x73, 0x65, 0x71,
  0x75, 0x65, 0x6e, 0x74, 0x69, 0x61, 0x6c, 0x5f, 0x35, 0x2f, 0x63, 0x6f,
  0x6e, 0x76, 0x32, 0x64, 0x5f, 0x31, 0x30, 0x2f, 0x42, 0x69, 0x61, 0x73,
  0x41, 0x64, 0x64, 0x2f, 0x52, 0x65, 0x61, 0x64, 0x56, 0x61, 0x72, 0x69,
  0x61, 0x62, 0x6c, 0x65, 0x4f, 0x70, 0x2f, 0x72, 0x65, 0x73, 0x6f, 0x75,
  0x72, 0x63, 0x65, 0x00, 0x04, 0x00, 0x00, 0x00, 0x01, 0x00, 0x00, 0x00,
  0x0a, 0x00, 0x00, 0x00, 0x06, 0x00, 0x00, 0x00, 0x08, 0x00, 0x00, 0x00,
  0x42, 0xfa, 0xff, 0xff, 0x14, 0x00, 0x00, 0x00, 0x34, 0x00, 0x00, 0x00,
  0x0a, 0x00, 0x00, 0x00, 0x00, 0x00, 0x00, 0x02, 0x64, 0x00, 0x00, 0x00,
  0xbc, 0xf9, 0xff, 0xff, 0x08, 0x00, 0x00, 0x00, 0x14, 0x00, 0x00, 0x00,
  0x01, 0x00, 0x00, 0x00, 0x00, 0x00, 0x00, 0x00, 0x00, 0x00, 0x00, 0x00,
  0x00, 0x00, 0x00, 0x00, 0x01, 0x00, 0x00, 0x00, 0x5b, 0x07, 0xb5, 0x3a,
  0x35, 0x00, 0x00, 0x00, 0x73, 0x65, 0x71, 0x75, 0x65, 0x6e, 0x74, 0x69,
  0x61, 0x6c, 0x5f, 0x35, 0x2f, 0x64, 0x65, 0x6e, 0x73, 0x65, 0x5f, 0x31,
  0x31, 0x2f, 0x42, 0x69, 0x61, 0x73, 0x41, 0x64, 0x64, 0x2f, 0x52, 0x65,
  0x61, 0x64, 0x56, 0x61, 0x72, 0x69, 0x61, 0x62, 0x6c, 0x65, 0x4f, 0x70,
  0x2f, 0x72, 0x65, 0x73, 0x6f, 0x75, 0x72, 0x63, 0x65, 0x00, 0x00, 0x00,
  0x01, 0x00, 0x00, 0x00, 0x07, 0x00, 0x00, 0x00, 0xc2, 0xfa, 0xff, 0xff,
  0x14, 0x00, 0x00, 0x00, 0x30, 0x00, 0x00, 0x00, 0x09, 0x00, 0x00, 0x00,
  0x00, 0x00, 0x00, 0x09, 0x48, 0x00, 0x00, 0x00, 0x3c, 0xfa, 0xff, 0xff,
  0x08, 0x00, 0x00, 0x00, 0x10, 0x00, 0x00, 0x00, 0x01, 0x00, 0x00, 0x00,
  0x00, 0x00, 0x00, 0x00, 0x00, 0x00, 0x00, 0x00, 0x01, 0x00, 0x00, 0x00,
  0x35, 0xb0, 0xe7, 0x3b, 0x1c, 0x00, 0x00, 0x00, 0x73, 0x65, 0x71, 0x75,
  0x65, 0x6e, 0x74, 0x69, 0x61, 0x6c, 0x5f, 0x35, 0x2f, 0x64, 0x65, 0x6e,
  0x73, 0x65, 0x5f, 0x31, 0x31, 0x2f, 0x4d, 0x61, 0x74, 0x4d, 0x75, 0x6c,
  0x00, 0x00, 0x00, 0x00, 0x02, 0x00, 0x00, 0x00, 0x07, 0x00, 0x00, 0x00,
  0x10, 0x00, 0x00, 0x00, 0x2a, 0xfb, 0xff, 0xff, 0x14, 0x00, 0x00, 0x00,
  0x34, 0x00, 0x00, 0x00, 0x08, 0x00, 0x00, 0x00, 0x00, 0x00, 0x00, 0x02,
  0x64, 0x00, 0x00, 0x00, 0xa4, 0xfa, 0xff, 0xff, 0x08, 0x00, 0x00, 0x00,
  0x14, 0x00, 0x00, 0x00, 0x01, 0x00, 0x00, 0x00, 0x00, 0x00, 0x00, 0x00,
  0x00, 0x00, 0x00, 0x00, 0x00, 0x00, 0x00, 0x00, 0x01, 0x00, 0x00, 0x00,
  0xb2, 0x79, 0xdd, 0x3a, 0x35, 0x00, 0x00, 0x00, 0x73, 0x65, 0x71, 0x75,
  0x65, 0x6e, 0x74, 0x69, 0x61, 0x6c, 0x5f, 0x35, 0x2f, 0x64, 0x65, 0x6e,
  0x73, 0x65, 0x5f, 0x31, 0x30, 0x2f, 0x42, 0x69, 0x61, 0x73, 0x41, 0x64,
  0x64, 0x2f, 0x52, 0x65, 0x61, 0x64, 0x56, 0x61, 0x72, 0x69, 0x61, 0x62,
  0x6c, 0x65, 0x4f, 0x70, 0x2f, 0x72, 0x65, 0x73, 0x6f, 0x75, 0x72, 0x63,
  0x65, 0x00, 0x00, 0x00, 0x01, 0x00, 0x00, 0x00, 0x10, 0x00, 0x00, 0x00,
  0xaa, 0xfb, 0xff, 0xff, 0x14, 0x00, 0x00, 0x00, 0x30, 0x00, 0x00, 0x00,
  0x07, 0x00, 0x00, 0x00, 0x00, 0x00, 0x00, 0x09, 0x48, 0x00, 0x00, 0x00,
  0x24, 0xfb, 0xff, 0xff, 0x08, 0x00, 0x00, 0x00, 0x10, 0x00, 0x00, 0x00,
  0x01, 0x00, 0x00, 0x00, 0x00, 0x00, 0x00, 0x00, 0x00, 0x00, 0x00, 0x00,
  0x01, 0x00, 0x00, 0x00, 0x3a, 0x8e, 0x0a, 0x3c, 0x1c, 0x00, 0x00, 0x00,
  0x73, 0x65, 0x71, 0x75, 0x65, 0x6e, 0x74, 0x69, 0x61, 0x6c, 0x5f, 0x35,
  0x2f, 0x64, 0x65, 0x6e, 0x73, 0x65, 0x5f, 0x31, 0x30, 0x2f, 0x4d, 0x61,
  0x74, 0x4d, 0x75, 0x6c, 0x00, 0x00, 0x00, 0x00, 0x02, 0x00, 0x00, 0x00,
  0x10, 0x00, 0x00, 0x00, 0x20, 0x00, 0x00, 0x00, 0x12, 0xfc, 0xff, 0xff,
  0x14, 0x00, 0x00, 0x00, 0xe4, 0x00, 0x00, 0x00, 0x06, 0x00, 0x00, 0x00,
  0x00, 0x00, 0x00, 0x02, 0x14, 0x01, 0x00, 0x00, 0x8c, 0xfb, 0xff, 0xff,
  0x08, 0x00, 0x00, 0x00, 0x88, 0x00, 0x00, 0x00, 0x10, 0x00, 0x00, 0x00,
  0x00, 0x00, 0x00, 0x00, 0x00, 0x00, 0x00, 0x00, 0x00, 0x00, 0x00, 0x00,
  0x00, 0x00, 0x00, 0x00, 0x00, 0x00, 0x00, 0x00, 0x00, 0x00, 0x00, 0x00,
  0x00, 0x00, 0x00, 0x00, 0x00, 0x00, 0x00, 0x00, 0x00, 0x00, 0x00, 0x00,
  0x00, 0x00, 0x00, 0x00, 0x00, 0x00, 0x00, 0x00, 0x00, 0x00, 0x00, 0x00,
  0x00, 0x00, 0x00, 0x00, 0x00, 0x00, 0x00, 0x00, 0x00, 0x00, 0x00, 0x00,
  0x00, 0x00, 0x00, 0x00, 0x00, 0x00, 0x00, 0x00, 0x00, 0x00, 0x00, 0x00,
  0x00, 0x00, 0x00, 0x00, 0x00, 0x00, 0x00, 0x00, 0x00, 0x00, 0x00, 0x00,
  0x00, 0x00, 0x00, 0x00, 0x00, 0x00, 0x00, 0x00, 0x00, 0x00, 0x00, 0x00,
  0x00, 0x00, 0x00, 0x00, 0x00, 0x00, 0x00, 0x00, 0x00, 0x00, 0x00, 0x00,
  0x00, 0x00, 0x00, 0x00, 0x00, 0x00, 0x00, 0x00, 0x00, 0x00, 0x00, 0x00,
  0x00, 0x00, 0x00, 0x00, 0x00, 0x00, 0x00, 0x00, 0x10, 0x00, 0x00, 0x00,
  0x20, 0x7e, 0xd9, 0x3a, 0xf3, 0x07, 0xe7, 0x3a, 0xb3, 0xcd, 0xa8, 0x3a,
  0x33, 0xc8, 0x5a, 0x3b, 0x23, 0xcc, 0xb6, 0x3a, 0x13, 0x34, 0x16, 0x3b,
  0xf1, 0x19, 0x1b, 0x3b, 0x8b, 0xd0, 0x91, 0x3a, 0x8c, 0x19, 0x0d, 0x3b,
  0xd5, 0x22, 0x4c, 0x3b, 0xd4, 0xc2, 0x07, 0x3b, 0xd2, 0x66, 0x0c, 0x3b,
  0xfe, 0xda, 0xd8, 0x3a, 0xcf, 0x27, 0xc1, 0x3a, 0x55, 0xf2, 0x15, 0x3b,
  0x56, 0x80, 0x43, 0x3b, 0x36, 0x00, 0x00, 0x00, 0x73, 0x65, 0x71, 0x75,
  0x65, 0x6e, 0x74, 0x69, 0x61, 0x6c, 0x5f, 0x35, 0x2f, 0x63, 0x6f, 0x6e,
  0x76, 0x32, 0x64, 0x5f, 0x31, 0x31, 0x2f, 0x42, 0x69, 0x61, 0x73, 0x41,
  0x64, 0x64, 0x2f, 0x52, 0x65, 0x61, 0x64, 0x56, 0x61, 0x72, 0x69, 0x61,
  0x62, 0x6c, 0x65, 0x4f, 0x70, 0x2f, 0x72, 0x65, 0x73, 0x6f, 0x75, 0x72,
  0x63, 0x65, 0x00, 0x00, 0x01, 0x00, 0x00, 0x00, 0x10, 0x00, 0x00, 0x00,
  0x42, 0xfd, 0xff, 0xff, 0x14, 0x00, 0x00, 0x00, 0xe8, 0x00, 0x00, 0x00,
  0x05, 0x00, 0x00, 0x00, 0x00, 0x00, 0x00, 0x09, 0x00, 0x01, 0x00, 0x00,
  0xbc, 0xfc, 0xff, 0xff, 0x08, 0x00, 0x00, 0x00, 0x8c, 0x00, 0x00, 0x00,
  0x10, 0x00, 0x00, 0x00, 0x00, 0x00, 0x00, 0x00, 0x00, 0x00, 0x00, 0x00,
  0x00, 0x00, 0x00, 0x00, 0x00, 0x00, 0x00, 0x00, 0x00, 0x00, 0x00, 0x00,
  0x00, 0x00, 0x00, 0x00, 0x00, 0x00, 0x00, 0x00, 0x00, 0x00, 0x00, 0x00,
  0x00, 0x00, 0x00, 0x00, 0x00, 0x00, 0x00, 0x00, 0x00, 0x00, 0x00, 0x00,
  0x00, 0x00, 0x00, 0x00, 0x00, 0x00, 0x00, 0x00, 0x00, 0x00, 0x00, 0x00,
  0x00, 0x00, 0x00, 0x00, 0x00, 0x00, 0x00, 0x00, 0x00, 0x00, 0x00, 0x00,
  0x00, 0x00, 0x00, 0x00, 0x00, 0x00, 0x00, 0x00, 0x00, 0x00, 0x00, 0x00,
  0x00, 0x00, 0x00, 0x00, 0x00, 0x00, 0x00, 0x00, 0x00, 0x00, 0x00, 0x00,
  0x00, 0x00, 0x00, 0x00, 0x00, 0x00, 0x00, 0x00, 0x00, 0x00, 0x00, 0x00,
  0x00, 0x00, 0x00, 0x00, 0x00, 0x00, 0x00, 0x00, 0x00, 0x00, 0x00, 0x00,
  0x00, 0x00, 0x00, 0x00, 0x00, 0x00, 0x00, 0x00, 0x00, 0x00, 0x00, 0x00,
  0x00, 0x00, 0x00, 0x00, 0x10, 0x00, 0x00, 0x00, 0xd8, 0xad, 0x31, 0x3b,
  0x39, 0xbd, 0x3c, 0x3b, 0x1f, 0xe7, 0x09, 0x3b, 0x7f, 0xbb, 0xb2, 0x3b,
  0xc4, 0x55, 0x15, 0x3b, 0x4a, 0x6a, 0x75, 0x3b, 0xf7, 0x6a, 0x7d, 0x3b,
  0x92, 0x3e, 0xee, 0x3a, 0x79, 0x8a, 0x66, 0x3b, 0x7a, 0xc4, 0xa6, 0x3b,
  0x69, 0xd1, 0x5d, 0x3b, 0x74, 0x66, 0x65, 0x3b, 0x93, 0x28, 0x31, 0x3b,
  0x08, 0xcc, 0x1d, 0x3b, 0xe0, 0xfe, 0x74, 0x3b, 0xa1, 0xb6, 0x9f, 0x3b,
  0x1d, 0x00, 0x00, 0x00, 0x73, 0x65, 0x71, 0x75, 0x65, 0x6e, 0x74, 0x69,
  0x61, 0x6c, 0x5f, 0x35, 0x2f, 0x63, 0x6f, 0x6e, 0x76, 0x32, 0x64, 0x5f,
  0x31, 0x31, 0x2f, 0x43, 0x6f, 0x6e, 0x76, 0x32, 0x44, 0x00, 0x00, 0x00,
  0x04, 0x00, 0x00, 0x00, 0x10, 0x00, 0x00, 0x00, 0x04, 0x00, 0x00, 0x00,
  0x01, 0x00, 0x00, 0x00, 0x08, 0x00, 0x00, 0x00, 0x6a, 0xfe, 0xff, 0xff,
  0x14, 0x00, 0x00, 0x00, 0x84, 0x00, 0x00, 0x00, 0x04, 0x00, 0x00, 0x00,
  0x00, 0x00, 0x00, 0x02, 0xb4, 0x00, 0x00, 0x00, 0xe4, 0xfd, 0xff, 0xff,
  0x08, 0x00, 0x00, 0x00, 0x48, 0x00, 0x00, 0x00, 0x08, 0x00, 0x00, 0x00,
  0x00, 0x00, 0x00, 0x00, 0x00, 0x00, 0x00, 0x00, 0x00, 0x00, 0x00, 0x00,
  0x00, 0x00, 0x00, 0x00, 0x00, 0x00, 0x00, 0x00, 0x00, 0x00, 0x00, 0x00,
  0x00, 0x00, 0x00, 0x00, 0x00, 0x00, 0x00, 0x00, 0x00, 0x00, 0x00, 0x00,
  0x00, 0x00, 0x00, 0x00, 0x00, 0x00, 0x00, 0x00, 0x00, 0x00, 0x00, 0x00,
  0x00, 0x00, 0x00, 0x00, 0x00, 0x00, 0x00, 0x00, 0x00, 0x00, 0x00, 0x00,
  0x00, 0x00, 0x00, 0x00, 0x08, 0x00, 0x00, 0x00, 0x72, 0xb6, 0xd0, 0x3b,
  0xb3, 0xbf, 0x92, 0x3b, 0x2c, 0xdb, 0x12, 0x3c, 0x36, 0x70, 0xc1, 0x3b,
  0xfb, 0xbc, 0x94, 0x3b, 0x86, 0x97, 0x9e, 0x3b, 0xb2, 0x7c, 0xb1, 0x3b,
  0x99, 0x56, 0xbc, 0x3b, 0x36, 0x00, 0x00, 0x00, 0x73, 0x65, 0x71, 0x75,
  0x65, 0x6e, 0x74, 0x69, 0x61, 0x6c, 0x5f, 0x35, 0x2f, 0x63, 0x6f, 0x6e,
  0x76, 0x32, 0x64, 0x5f, 0x31, 0x30, 0x2f, 0x42, 0x69, 0x61, 0x73, 0x41,
  0x64, 0x64, 0x2f, 0x52, 0x65, 0x61, 0x64, 0x56, 0x61, 0x72, 0x69, 0x61,
  0x62, 0x6c, 0x65, 0x4f, 0x70, 0x2f, 0x72, 0x65, 0x73, 0x6f, 0x75, 0x72,
  0x63, 0x65, 0x00, 0x00, 0x01, 0x00, 0x00, 0x00, 0x08, 0x00, 0x00, 0x00,
  0x3a, 0xff, 0xff, 0xff, 0x14, 0x00, 0x00, 0x00, 0x84, 0x00, 0x00, 0x00,
  0x03, 0x00, 0x00, 0x00, 0x00, 0x00, 0x00, 0x09, 0x9c, 0x00, 0x00, 0x00,
  0xb4, 0xfe, 0xff, 0xff, 0x08, 0x00, 0x00, 0x00, 0x48, 0x00, 0x00, 0x00,
  0x08, 0x00, 0x00, 0x00, 0x00, 0x00, 0x00, 0x00, 0x00, 0x00, 0x00, 0x00,
  0x00, 0x00, 0x00, 0x00, 0x00, 0x00, 0x00, 0x00, 0x00, 0x00, 0x00, 0x00,
  0x00, 0x00, 0x00, 0x00, 0x00, 0x00, 0x00, 0x00, 0x00, 0x00, 0x00, 0x00,
  0x00, 0x00, 0x00, 0x00, 0x00, 0x00, 0x00, 0x00, 0x00, 0x00, 0x00, 0x00,
  0x00, 0x00, 0x00, 0x00, 0x00, 0x00, 0x00, 0x00, 0x00, 0x00, 0x00, 0x00,
  0x00, 0x00, 0x00, 0x00, 0x00, 0x00, 0x00, 0x00, 0x08, 0x00, 0x00, 0x00,
  0xb1, 0xc9, 0x30, 0x3b, 0xa4, 0x9a, 0xf8, 0x3a, 0x2e, 0xc9, 0x78, 0x3b,
  0x92, 0xd9, 0x23, 0x3b, 0x67, 0xf9, 0xfb, 0x3a, 0x65, 0x55, 0x06, 0x3b,
  0xac, 0x56, 0x16, 0x3b, 0xaa, 0x87, 0x1f, 0x3b, 0x1d, 0x00, 0x00, 0x00,
  0x73, 0x65, 0x71, 0x75, 0x65, 0x6e, 0x74, 0x69, 0x61, 0x6c, 0x5f, 0x35,
  0x2f, 0x63, 0x6f, 0x6e, 0x76, 0x32, 0x64, 0x5f, 0x31, 0x30, 0x2f, 0x43,
  0x6f, 0x6e, 0x76, 0x32, 0x44, 0x00, 0x00, 0x00, 0x04, 0x00, 0x00, 0x00,
  0x08, 0x00, 0x00, 0x00, 0x04, 0x00, 0x00, 0x00, 0x03, 0x00, 0x00, 0x00,
  0x01, 0x00, 0x00, 0x00, 0x00, 0x00, 0x0e, 0x00, 0x18, 0x00, 0x14, 0x00,
  0x13, 0x00, 0x0c, 0x00, 0x08, 0x00, 0x04, 0x00, 0x0e, 0x00, 0x00, 0x00,
  0x18, 0x00, 0x00, 0x00, 0x18, 0x00, 0x00, 0x00, 0x02, 0x00, 0x00, 0x00,
  0x00, 0x00, 0x00, 0x02, 0x30, 0x00, 0x00, 0x00, 0x04, 0x00, 0x04, 0x00,
  0x04, 0x00, 0x00, 0x00, 0x1c, 0x00, 0x00, 0x00, 0x73, 0x65, 0x71, 0x75,
  0x65, 0x6e, 0x74, 0x69, 0x61, 0x6c, 0x5f, 0x35, 0x2f, 0x66, 0x6c, 0x61,
  0x74, 0x74, 0x65, 0x6e, 0x5f, 0x35, 0x2f, 0x43, 0x6f, 0x6e, 0x73, 0x74,
  0x00, 0x00, 0x00, 0x00, 0x01, 0x00, 0x00, 0x00, 0x02, 0x00, 0x00, 0x00,
  0x14, 0x00, 0x1c, 0x00, 0x18, 0x00, 0x17, 0x00, 0x10, 0x00, 0x0c, 0x00,
  0x08, 0x00, 0x00, 0x00, 0x00, 0x00, 0x04, 0x00, 0x14, 0x00, 0x00, 0x00,
  0x18, 0x00, 0x00, 0x00, 0x34, 0x00, 0x00, 0x00, 0x54, 0x00, 0x00, 0x00,
  0x01, 0x00, 0x00, 0x00, 0x00, 0x00, 0x00, 0x09, 0x5c, 0x00, 0x00, 0x00,
  0x04, 0x00, 0x00, 0x00, 0xff, 0xff, 0xff, 0xff, 0x0a, 0x00, 0x00, 0x00,
  0x06, 0x00, 0x00, 0x00, 0x01, 0x00, 0x00, 0x00, 0x0c, 0x00, 0x0c, 0x00,
  0x00, 0x00, 0x00, 0x00, 0x08, 0x00, 0x04, 0x00, 0x0c, 0x00, 0x00, 0x00,
  0x08, 0x00, 0x00, 0x00, 0x14, 0x00, 0x00, 0x00, 0x01, 0x00, 0x00, 0x00,
  0xa1, 0xff, 0xff, 0xff, 0xff, 0xff, 0xff, 0xff, 0x00, 0x00, 0x00, 0x00,
  0x01, 0x00, 0x00, 0x00, 0x55, 0x1d, 0x17, 0x40, 0x0f, 0x00, 0x00, 0x00,
  0x63, 0x6f, 0x6e, 0x76, 0x32, 0x64, 0x5f, 0x31, 0x30, 0x5f, 0x69, 0x6e,
  0x70, 0x75, 0x74, 0x00, 0x04, 0x00, 0x00, 0x00, 0x01, 0x00, 0x00, 0x00,
  0x0a, 0x00, 0x00, 0x00, 0x06, 0x00, 0x00, 0x00, 0x01, 0x00, 0x00, 0x00,
  0x05, 0x00, 0x00, 0x00, 0x68, 0x00, 0x00, 0x00, 0x48, 0x00, 0x00, 0x00,
  0x38, 0x00, 0x00, 0x00, 0x18, 0x00, 0x00, 0x00, 0x04, 0x00, 0x00, 0x00,
  0xb8, 0xff, 0xff, 0xff, 0x19, 0x00, 0x00, 0x00, 0x02, 0x00, 0x00, 0x00,
  0x00, 0x00, 0x00, 0x19, 0xc8, 0xff, 0xff, 0xff, 0x09, 0x00, 0x00, 0x00,
  0x04, 0x00, 0x00, 0x00, 0x00, 0x00, 0x00, 0x09, 0x0c, 0x00, 0x0c, 0x00,
  0x0b, 0x00, 0x00, 0x00, 0x00, 0x00, 0x04, 0x00, 0x0c, 0x00, 0x00, 0x00,
  0x16, 0x00, 0x00, 0x00, 0x00, 0x00, 0x00, 0x16, 0xf0, 0xff, 0xff, 0xff,
  0x11, 0x00, 0x00, 0x00, 0x02, 0x00, 0x00, 0x00, 0x00, 0x00, 0x00, 0x11,
  0x0c, 0x00, 0x10, 0x00, 0x0f, 0x00, 0x00, 0x00, 0x08, 0x00, 0x04, 0x00,
  0x0c, 0x00, 0x00, 0x00, 0x03, 0x00, 0x00, 0x00, 0x03, 0x00, 0x00, 0x00,
  0x00, 0x00, 0x00, 0x03
};
unsigned int g_model_len = 5728;
