unsigned char g_model[] = {
  0x20, 0x00, 0x00, 0x00, 0x54, 0x46, 0x4c, 0x33, 0x00, 0x00, 0x00, 0x00,
  0x14, 0x00, 0x20, 0x00, 0x1c, 0x00, 0x18, 0x00, 0x14, 0x00, 0x10, 0x00,
  0x0c, 0x00, 0x00, 0x00, 0x08, 0x00, 0x04, 0x00, 0x14, 0x00, 0x00, 0x00,
  0x1c, 0x00, 0x00, 0x00, 0x1c, 0x00, 0x00, 0x00, 0x4c, 0x00, 0x00, 0x00,
  0xcc, 0x06, 0x00, 0x00, 0xdc, 0x06, 0x00, 0x00, 0x44, 0x15, 0x00, 0x00,
  0x03, 0x00, 0x00, 0x00, 0x00, 0x00, 0x00, 0x00, 0x01, 0x00, 0x00, 0x00,
  0x0c, 0x00, 0x00, 0x00, 0x08, 0x00, 0x0c, 0x00, 0x08, 0x00, 0x04, 0x00,
  0x08, 0x00, 0x00, 0x00, 0x13, 0x00, 0x00, 0x00, 0x04, 0x00, 0x00, 0x00,
  0x13, 0x00, 0x00, 0x00, 0x6d, 0x69, 0x6e, 0x5f, 0x72, 0x75, 0x6e, 0x74,
  0x69, 0x6d, 0x65, 0x5f, 0x76, 0x65, 0x72, 0x73, 0x69, 0x6f, 0x6e, 0x00,
  0x14, 0x00, 0x00, 0x00, 0x7c, 0x06, 0x00, 0x00, 0x74, 0x06, 0x00, 0x00,
  0x5c, 0x06, 0x00, 0x00, 0xec, 0x05, 0x00, 0x00, 0xbc, 0x05, 0x00, 0x00,
  0xac, 0x03, 0x00, 0x00, 0x5c, 0x03, 0x00, 0x00, 0x4c, 0x01, 0x00, 0x00,
  0xfc, 0x00, 0x00, 0x00, 0x8c, 0x00, 0x00, 0x00, 0x64, 0x00, 0x00, 0x00,
  0x5c, 0x00, 0x00, 0x00, 0x54, 0x00, 0x00, 0x00, 0x4c, 0x00, 0x00, 0x00,
  0x44, 0x00, 0x00, 0x00, 0x3c, 0x00, 0x00, 0x00, 0x34, 0x00, 0x00, 0x00,
  0x2c, 0x00, 0x00, 0x00, 0x24, 0x00, 0x00, 0x00, 0x04, 0x00, 0x00, 0x00,
  0x42, 0xf9, 0xff, 0xff, 0x04, 0x00, 0x00, 0x00, 0x10, 0x00, 0x00, 0x00,
  0x31, 0x2e, 0x31, 0x34, 0x2e, 0x30, 0x00, 0x00, 0x00, 0x00, 0x00, 0x00,
  0x00, 0x00, 0x00, 0x00, 0x38, 0xec, 0xff, 0xff, 0x3c, 0xec, 0xff, 0xff,
  0x40, 0xec, 0xff, 0xff, 0x44, 0xec, 0xff, 0xff, 0x48, 0xec, 0xff, 0xff,
  0x4c, 0xec, 0xff, 0xff, 0x50, 0xec, 0xff, 0xff, 0x54, 0xec, 0xff, 0xff,
  0x7e, 0xf9, 0xff, 0xff, 0x04, 0x00, 0x00, 0x00, 0x18, 0x00, 0x00, 0x00,
  0x6c, 0x04, 0x00, 0x00, 0x4c, 0xfe, 0xff, 0xff, 0x71, 0xfe, 0xff, 0xff,
  0xc0, 0xf8, 0xff, 0xff, 0xdb, 0xfe, 0xff, 0xff, 0xcc, 0x01, 0x00, 0x00,
  0xa2, 0xf9, 0xff, 0xff, 0x04, 0x00, 0x00, 0x00, 0x60, 0x00, 0x00, 0x00,
  0xd8, 0xd3, 0xeb, 0x0f, 0x1e, 0x08, 0xed, 0xdb, 0x0f, 0xbc, 0x29, 0xe5,
  0xd7, 0xd7, 0x02, 0xd2, 0xe4, 0x1d, 0xc4, 0xf3, 0xdf, 0xdb, 0x1f, 0xde,
  0xb0, 0x34, 0x20, 0xd2, 0xf4, 0xf2, 0xfb, 0x47, 0xe5, 0x01, 0x25, 0xd7,
  0xfe, 0xf7, 0xe4, 0x49, 0xd2, 0xac, 0x0f, 0xbf, 0xef, 0xc2, 0xa5, 0xef,
  0x42, 0xd2, 0x81, 0xc0, 0xe4, 0x15, 0x2d, 0x00, 0xc3, 0xcd, 0xe1, 0xe1,
  0x36, 0xf2, 0xe7, 0x0a, 0x27, 0xb5, 0x26, 0xed, 0x3d, 0x44, 0xa1, 0xe3,
  0x08, 0xf1, 0x22, 0x4b, 0xe7, 0x25, 0xb0, 0x0d, 0xc9, 0xdb, 0x2d, 0x20,
  0x1d, 0x03, 0xf6, 0xcc, 0x33, 0xec, 0xec, 0x2f, 0xfb, 0xe1, 0xa5, 0xe1,
  0x0e, 0xfa, 0xff, 0xff, 0x04, 0x00, 0x00, 0x00, 0x40, 0x00, 0x00, 0x00,
  0xba, 0xfe, 0xff, 0xff, 0xe8, 0xfe, 0xff, 0xff, 0x72, 0x00, 0x00, 0x00,
  0xe4, 0xff, 0xff, 0xff, 0x36, 0xff, 0xff, 0xff, 0x6b, 0xfe, 0xff, 0xff,
  0xc9, 0xfe, 0xff, 0xff, 0xee, 0xfe, 0xff, 0xff, 0xe9, 0x01, 0x00, 0x00,
  0xe3, 0xfe, 0xff, 0xff, 0x1b, 0x00, 0x00, 0x00, 0x19, 0x00, 0x00, 0x00,
  0xce, 0xfd, 0xff, 0xff, 0x90, 0xfd, 0xff, 0xff, 0xd9, 0x01, 0x00, 0x00,
  0x1c, 0xfe, 0xff, 0xff, 0x5a, 0xfa, 0xff, 0xff, 0x04, 0x00, 0x00, 0x00,
  0x00, 0x02, 0x00, 0x00, 0x08, 0xef, 0xe2, 0x0f, 0xfa, 0xb1, 0x2b, 0x11,
  0xc5, 0xbe, 0xce, 0xef, 0xf5, 0xd9, 0xd9, 0xfc, 0x4b, 0x0e, 0xbe, 0x10,
  0xef, 0x0e, 0x19, 0xdc, 0x01, 0xd6, 0x26, 0x32, 0xfc, 0xd9, 0xf5, 0x30,
  0xb4, 0x00, 0x16, 0xae, 0xfd, 0x38, 0xc7, 0x0a, 0xbb, 0xd6, 0x05, 0xf1,
  0xaf, 0x0e, 0x1f, 0xfe, 0xe6, 0xda, 0x14, 0xdb, 0x43, 0xd4, 0x2f, 0xc5,
  0x45, 0xec, 0x04, 0xff, 0xa6, 0x13, 0x4b, 0x2d, 0x72, 0x56, 0xf1, 0x37,
  0x0b, 0x32, 0x1c, 0x23, 0x29, 0x3f, 0xf1, 0x19, 0x60, 0x25, 0xec, 0xfe,
  0x02, 0xd4, 0xd9, 0x32, 0x28, 0xc5, 0xf5, 0xc5, 0xe1, 0xf5, 0xb9, 0xc1,
  0x1f, 0x2c, 0x08, 0x49, 0xaf, 0xa3, 0xfe, 0x2b, 0xaf, 0x0f, 0x15, 0xb0,
  0x06, 0x44, 0xcc, 0xd3, 0xd7, 0xf4, 0xe4, 0xcd, 0xfc, 0xee, 0x20, 0x3f,
  0xa2, 0xf0, 0xd8, 0xe1, 0x12, 0xd8, 0x0c, 0xc5, 0xc3, 0xe6, 0xf5, 0x1a,
  0xf0, 0xaf, 0xe7, 0x47, 0x13, 0xba, 0xcf, 0xee, 0x03, 0x3b, 0x2f, 0x0e,
  0xa9, 0xce, 0x26, 0x0c, 0x27, 0xce, 0xa6, 0x52, 0xdf, 0x29, 0x9b, 0xea,
  0x06, 0x6a, 0xfc, 0x06, 0x02, 0xe8, 0xf5, 0x1b, 0xfa, 0xb3, 0xe3, 0x16,
  0xf7, 0xda, 0xee, 0x0d, 0xf3, 0x32, 0xcc, 0x08, 0xc8, 0xc3, 0x24, 0x07,
  0xe3, 0xab, 0x9c, 0x16, 0xcd, 0x16, 0x1f, 0x15, 0xf1, 0x67, 0x34, 0xcd,
  0x3f, 0x05, 0xd3, 0xfd, 0xad, 0x16, 0xfa, 0xa4, 0xbd, 0xd1, 0x1a, 0x9b,
  0x1c, 0xfa, 0xf1, 0x0f, 0x21, 0x08, 0xed, 0xf2, 0xec, 0x28, 0xf8, 0xe2,
  0x1d, 0x1a, 0x08, 0x20, 0x27, 0xe9, 0x19, 0x4a, 0x00, 0x0f, 0xcc, 0x08,
  0x00, 0xe0, 0xcf, 0x02, 0xc1, 0xf9, 0xd0, 0xfb, 0xf0, 0x2e, 0xd5, 0x2e,
  0x10, 0xda, 0xfb, 0x02, 0xe4, 0xb7, 0x44, 0x33, 0xdf, 0x24, 0xfa, 0xf6,
  0xe3, 0xd8, 0xc4, 0x11, 0xd7, 0x73, 0xb2, 0x55, 0x37, 0xe5, 0xfa, 0x11,
  0x5c, 0xf7, 0x25, 0x40, 0x24, 0xf3, 0x16, 0x06, 0x2b, 0x02, 0x0c, 0x1e,
  0x3d, 0xe5, 0xf0, 0x13, 0x8b, 0x0b, 0xe3, 0xcc, 0x17, 0xa7, 0xe2, 0x0d,
  0xe5, 0xc2, 0xdb, 0xaa, 0x1b, 0x43, 0xc0, 0xc5, 0xed, 0x08, 0x3e, 0xd7,
  0xf3, 0xe3, 0x18, 0xf9, 0x20, 0x17, 0xfd, 0xfc, 0xfe, 0xf2, 0x09, 0xc7,
  0x44, 0xda, 0x15, 0xe8, 0x32, 0x08, 0xdd, 0x1d, 0xd0, 0xf3, 0x28, 0xab,
  0xcf, 0xe2, 0x18, 0x59, 0xaf, 0x3c, 0xb4, 0xea, 0xee, 0x2d, 0xfd, 0x0b,
  0xf4, 0x56, 0xc6, 0x10, 0xfa, 0x31, 0x12, 0x4e, 0x64, 0xcc, 0x01, 0xec,
  0x0d, 0x63, 0xdb, 0x22, 0x68, 0xf7, 0x2f, 0xd3, 0x17, 0x42, 0xf4, 0xeb,
  0x3d, 0x3b, 0xd8, 0x01, 0xcb, 0x13, 0x13, 0x07, 0x43, 0x2e, 0x43, 0x03,
  0xb4, 0xfd, 0xe1, 0xc0, 0x36, 0xbc, 0x12, 0xc8, 0xd3, 0xb3, 0xe0, 0x95,
  0xca, 0xd2, 0xad, 0xfe, 0x0f, 0xe2, 0xdb, 0x08, 0xfc, 0x13, 0xd6, 0xd8,
  0x0e, 0x30, 0xc0, 0xc2, 0x23, 0x21, 0x03, 0xd0, 0x16, 0x24, 0x91, 0xe8,
  0xfb, 0x24, 0x52, 0xf4, 0xd1, 0xc0, 0x24, 0x2b, 0x91, 0xf9, 0xef, 0x2c,
  0x06, 0x49, 0x1d, 0x2d, 0x06, 0xc2, 0x21, 0x03, 0xca, 0x08, 0xe9, 0xd0,
  0x27, 0xe9, 0xfe, 0xfa, 0x38, 0x12, 0x1d, 0x1f, 0xa6, 0xd4, 0x9c, 0x33,
  0xbf, 0x0d, 0x2b, 0xcf, 0x39, 0xa3, 0x2d, 0x26, 0x09, 0xdc, 0x27, 0xc8,
  0xe7, 0x04, 0xc0, 0xe9, 0x0c, 0xe3, 0x35, 0xf9, 0xa8, 0x0c, 0xfb, 0x03,
  0xd7, 0x5b, 0xfd, 0xbf, 0xfd, 0xe9, 0x26, 0xed, 0x41, 0x13, 0x2f, 0x0f,
  0x51, 0xcf, 0xca, 0xbc, 0xba, 0x0a, 0x3b, 0xce, 0xb5, 0xdf, 0x2c, 0xb9,
  0xf9, 0xbb, 0xdb, 0xb5, 0xd4, 0x20, 0x1d, 0x07, 0xcc, 0xff, 0xf1, 0xa8,
  0x36, 0xfd, 0x81, 0x3e, 0xfb, 0xc8, 0x18, 0x11, 0xf6, 0xcb, 0xc2, 0x49,
  0x66, 0xfc, 0xff, 0xff, 0x04, 0x00, 0x00, 0x00, 0x40, 0x00, 0x00, 0x00,
  0x9e, 0xff, 0xff, 0xff, 0xf4, 0xfe, 0xff, 0xff, 0x51, 0xff, 0xff, 0xff,
  0x23, 0x00, 0x00, 0x00, 0x10, 0x00, 0x00, 0x00, 0x75, 0xfe, 0xff, 0xff,
  0x7b, 0xff, 0xff, 0xff, 0xc3, 0xff, 0xff, 0xff, 0x40, 0x00, 0x00, 0x00,
  0x03, 0x00, 0x00, 0x00, 0xa6, 0xfe, 0xff, 0xff, 0x65, 0xfe, 0xff, 0xff,
  0xb1, 0xff, 0xff, 0xff, 0xb2, 0xfd, 0xff, 0xff, 0x69, 0xff, 0xff, 0xff,
  0xa4, 0xfd, 0xff, 0xff, 0xb2, 0xfc, 0xff, 0xff, 0x04, 0x00, 0x00, 0x00,
  0x00, 0x02, 0x00, 0x00, 0xda, 0xf3, 0xe6, 0xae, 0x04, 0x7f, 0xb7, 0x3a,
  0xd2, 0x9b, 0xae, 0xb5, 0x37, 0x48, 0x01, 0x2a, 0x00, 0xca, 0x86, 0xf4,
  0xee, 0xbe, 0xa1, 0x7d, 0x41, 0xa3, 0xe7, 0xbf, 0xfe, 0xb8, 0xca, 0x65,
  0xf3, 0xe1, 0x7b, 0xcd, 0xf3, 0x25, 0x6a, 0x36, 0x81, 0xb9, 0xa4, 0x2a,
  0xe1, 0x0c, 0xfd, 0xff, 0x83, 0xcc, 0x53, 0xb8, 0x1f, 0xe8, 0x23, 0x4b,
  0x17, 0x39, 0xbb, 0x02, 0xfd, 0xfe, 0x17, 0x09, 0x02, 0xfd, 0x31, 0x06,
  0xfb, 0x03, 0xc9, 0xf1, 0xf7, 0x1e, 0xd1, 0xd9, 0x05, 0xd1, 0x59, 0x81,
  0xf0, 0xf8, 0x28, 0x1a, 0xfd, 0xf7, 0x27, 0xdf, 0xed, 0x0c, 0x3d, 0xb8,
  0xce, 0xc8, 0xd4, 0xdf, 0x87, 0xed, 0xef, 0x5e, 0xc2, 0xbe, 0x1b, 0xf7,
  0xa0, 0x1e, 0xd1, 0x2f, 0x17, 0x8e, 0x07, 0xf2, 0x04, 0xe4, 0x3b, 0x1d,
  0xe3, 0xe7, 0x81, 0x17, 0x9b, 0x12, 0xc8, 0x32, 0xf7, 0x4c, 0xb8, 0xfd,
  0x2b, 0x00, 0x06, 0x39, 0xce, 0xdf, 0x0d, 0xc9, 0x94, 0xd9, 0xf8, 0x0f,
  0xc5, 0x19, 0xf2, 0xa0, 0xdf, 0xd9, 0xe7, 0x81, 0xdd, 0xf0, 0xb3, 0x5b,
  0x26, 0xe2, 0xb1, 0xcd, 0x94, 0x25, 0x40, 0xf4, 0xad, 0xae, 0x61, 0xce,
  0x45, 0x2b, 0xd7, 0x2a, 0x9d, 0xbe, 0x20, 0xf6, 0x16, 0x3d, 0xc4, 0x29,
  0x4c, 0xf1, 0x0a, 0xf9, 0x0e, 0xeb, 0x1b, 0x7f, 0x11, 0x2a, 0xa1, 0x05,
  0x05, 0x0f, 0x28, 0x39, 0xd2, 0xf0, 0xd2, 0xe6, 0x22, 0x0f, 0xbc, 0x7f,
  0xe3, 0xe8, 0x08, 0xa5, 0x1b, 0xf0, 0xaa, 0x11, 0x29, 0x11, 0xfd, 0x08,
  0xea, 0x07, 0x33, 0x39, 0x44, 0x04, 0xf7, 0xec, 0xb4, 0x0f, 0xd2, 0x01,
  0xa1, 0x4c, 0x53, 0x3c, 0xed, 0x4d, 0xf9, 0x27, 0xf5, 0x1b, 0x05, 0xad,
  0xd4, 0xf3, 0xd9, 0xc0, 0x81, 0xda, 0xff, 0xb0, 0xd3, 0x8b, 0xbd, 0xe2,
  0xcd, 0xec, 0x8d, 0x84, 0x51, 0xfb, 0xaf, 0xbd, 0xe7, 0xf5, 0x6a, 0x33,
  0xaa, 0xfd, 0xdf, 0x86, 0x9b, 0x43, 0xed, 0xc2, 0xb3, 0x0e, 0x2f, 0xd3,
  0xb1, 0xfb, 0x07, 0x45, 0xc9, 0xf3, 0xde, 0xb8, 0xff, 0xf5, 0x40, 0x81,
  0xee, 0x1a, 0x40, 0x8c, 0xe5, 0xbf, 0x38, 0xdb, 0x30, 0xf4, 0xcb, 0x27,
  0xa6, 0xb6, 0x0a, 0x18, 0x85, 0xd4, 0xf7, 0x8c, 0x02, 0xb6, 0x81, 0xf7,
  0xad, 0x32, 0xed, 0xed, 0xb8, 0x05, 0x1e, 0x34, 0xf3, 0x65, 0xc8, 0xae,
  0x01, 0xce, 0x5e, 0x01, 0xcc, 0x13, 0x06, 0x5f, 0x08, 0xbb, 0x2e, 0x1d,
  0xb4, 0x47, 0xef, 0x1f, 0x6c, 0x3d, 0x02, 0xc3, 0x2f, 0x26, 0xd1, 0x66,
  0xe2, 0x81, 0x4a, 0xcb, 0x07, 0xb2, 0x2d, 0x29, 0xf9, 0xc1, 0x68, 0xda,
  0x0f, 0x04, 0x0e, 0xde, 0x24, 0xd5, 0x33, 0x2b, 0xc5, 0x15, 0x18, 0x42,
  0xc2, 0x2b, 0x05, 0xba, 0xea, 0xf1, 0xdd, 0x7f, 0xc8, 0xe2, 0x28, 0x1f,
  0x0b, 0x0f, 0xd3, 0xe8, 0x01, 0xdb, 0xd1, 0x4a, 0xe4, 0x04, 0x3f, 0x87,
  0x81, 0xa9, 0xee, 0x21, 0xeb, 0xbf, 0x32, 0xc5, 0x9a, 0x16, 0xcf, 0xea,
  0x1c, 0x28, 0xa9, 0xac, 0xd1, 0xe3, 0x15, 0x14, 0x03, 0xdb, 0xaf, 0x1c,
  0x09, 0x15, 0x81, 0xa0, 0xba, 0x90, 0x52, 0x4c, 0x01, 0x08, 0xa7, 0x3c,
  0x22, 0xcd, 0xe9, 0x28, 0x53, 0x03, 0x38, 0x20, 0xfd, 0x08, 0x1e, 0x87,
  0xc7, 0xbd, 0xa9, 0x22, 0x91, 0xb4, 0xe2, 0x04, 0xe9, 0xf0, 0xdb, 0x2b,
  0xc1, 0x4a, 0xcd, 0xbf, 0xc6, 0xe0, 0x1a, 0xff, 0xb7, 0xe5, 0xc5, 0xbd,
  0xd6, 0x81, 0xee, 0x36, 0xa9, 0xc8, 0x04, 0xf1, 0x0a, 0x17, 0x1e, 0xd4,
  0xd4, 0x17, 0x3d, 0xe7, 0x9c, 0x33, 0xf2, 0x18, 0xe9, 0x33, 0xc2, 0x36,
  0x4c, 0x2a, 0xbf, 0x2b, 0xd9, 0x11, 0xdf, 0x1d, 0xb1, 0xe0, 0xeb, 0x4e,
  0x42, 0x16, 0xfb, 0x4d, 0x81, 0xdc, 0xcb, 0x50, 0x0d, 0x96, 0x12, 0x3e,
  0xbe, 0xfe, 0xff, 0xff, 0x04, 0x00, 0x00, 0x00, 0x20, 0x00, 0x00, 0x00,
  0xee, 0xff, 0xff, 0xff, 0xd7, 0xff, 0xff, 0xff, 0x10, 0x00, 0x00, 0x00,
  0xe7, 0xff, 0xff, 0xff, 0x11, 0x00, 0x00, 0x00, 0xf3, 0xff, 0xff, 0xff,
  0xed, 0xff, 0xff, 0xff, 0x3d, 0x00, 0x00, 0x00, 0xea, 0xfe, 0xff, 0xff,
  0x04, 0x00, 0x00, 0x00, 0x60, 0x00, 0x00, 0x00, 0x13, 0x81, 0xed, 0xc0,
  0x10, 0x4f, 0x13, 0xba, 0xea, 0xbd, 0x1f, 0x48, 0xec, 0x81, 0x38, 0x0a,
  0xb9, 0xcc, 0x27, 0x63, 0x1c, 0xa3, 0xd0, 0x50, 0x24, 0x56, 0xef, 0xc1,
  0x81, 0x1a, 0x2a, 0x2e, 0xb7, 0x20, 0xbc, 0x99, 0xe9, 0x03, 0x5e, 0xba,
  0xa0, 0x78, 0x28, 0xe5, 0x81, 0xfb, 0xef, 0xe3, 0x22, 0x7f, 0x1a, 0x91,
  0x0b, 0x3f, 0xd7, 0xc4, 0xc1, 0xc1, 0x94, 0x89, 0x30, 0x0b, 0x13, 0x12,
  0xb5, 0xcb, 0x52, 0x9a, 0x81, 0xe7, 0xd5, 0x34, 0x04, 0x56, 0xcf, 0x12,
  0x1d, 0x92, 0xcc, 0x81, 0x31, 0x0d, 0x17, 0x2a, 0xe1, 0xcc, 0xfb, 0x54,
  0x3c, 0xe5, 0x0f, 0x95, 0x81, 0xb1, 0xe4, 0x44, 0x56, 0xff, 0xff, 0xff,
  0x04, 0x00, 0x00, 0x00, 0x08, 0x00, 0x00, 0x00, 0xff, 0xff, 0xff, 0xff,
  0x20, 0x00, 0x00, 0x00, 0x44, 0xf2, 0xff, 0xff, 0x48, 0xf2, 0xff, 0xff,
  0x0f, 0x00, 0x00, 0x00, 0x4d, 0x4c, 0x49, 0x52, 0x20, 0x43, 0x6f, 0x6e,
  0x76, 0x65, 0x72, 0x74, 0x65, 0x64, 0x2e, 0x00, 0x01, 0x00, 0x00, 0x00,
  0x14, 0x00, 0x00, 0x00, 0x00, 0x00, 0x0e, 0x00, 0x18, 0x00, 0x14, 0x00,
  0x10, 0x00, 0x0c, 0x00, 0x08, 0x00, 0x04, 0x00, 0x0e, 0x00, 0x00, 0x00,
  0x14, 0x00, 0x00, 0x00, 0x1c, 0x00, 0x00, 0x00, 0x58, 0x02, 0x00, 0x00,
  0x5c, 0x02, 0x00, 0x00, 0x60, 0x02, 0x00, 0x00, 0x04, 0x00, 0x00, 0x00,
  0x6d, 0x61, 0x69, 0x6e, 0x00, 0x00, 0x00, 0x00, 0x08, 0x00, 0x00, 0x00,
  0xf4, 0x01, 0x00, 0x00, 0x90, 0x01, 0x00, 0x00, 0x40, 0x01, 0x00, 0x00,
  0xf0, 0x00, 0x00, 0x00, 0xc8, 0x00, 0x00, 0x00, 0x78, 0x00, 0x00, 0x00,
  0x40, 0x00, 0x00, 0x00, 0x04, 0x00, 0x00, 0x00, 0x9a, 0xfe, 0xff, 0xff,
  0x1c, 0x00, 0x00, 0x00, 0x00, 0x00, 0x00, 0x09, 0x1c, 0x00, 0x00, 0x00,
  0x20, 0x00, 0x00, 0x00, 0x04, 0x00, 0x00, 0x00, 0x00, 0x00, 0x06, 0x00,
  0x08, 0x00, 0x04, 0x00, 0x06, 0x00, 0x00, 0x00, 0x00, 0x00, 0x80, 0x3f,
  0x01, 0x00, 0x00, 0x00, 0x11, 0x00, 0x00, 0x00, 0x01, 0x00, 0x00, 0x00,
  0x10, 0x00, 0x00, 0x00, 0xd2, 0xfe, 0xff, 0xff, 0x14, 0x00, 0x00, 0x00,
  0x00, 0x00, 0x00, 0x08, 0x10, 0x00, 0x00, 0x00, 0x14, 0x00, 0x00, 0x00,
  0x03, 0x00, 0x00, 0x00, 0x10, 0xf3, 0xff, 0xff, 0x01, 0x00, 0x00, 0x00,
  0x10, 0x00, 0x00, 0x00, 0x03, 0x00, 0x00, 0x00, 0x0f, 0x00, 0x00, 0x00,
  0x08, 0x00, 0x00, 0x00, 0x09, 0x00, 0x00, 0x00, 0x06, 0xff, 0xff, 0xff,
  0x1c, 0x00, 0x00, 0x00, 0x00, 0x00, 0x00, 0x08, 0x1c, 0x00, 0x00, 0x00,
  0x20, 0x00, 0x00, 0x00, 0x03, 0x00, 0x00, 0x00, 0x00, 0x00, 0x06, 0x00,
  0x08, 0x00, 0x07, 0x00, 0x06, 0x00, 0x00, 0x00, 0x00, 0x00, 0x00, 0x01,
  0x01, 0x00, 0x00, 0x00, 0x0f, 0x00, 0x00, 0x00, 0x03, 0x00, 0x00, 0x00,
  0x0e, 0x00, 0x00, 0x00, 0x06, 0x00, 0x00, 0x00, 0x07, 0x00, 0x00, 0x00,
  0x00, 0x00, 0x0a, 0x00, 0x10, 0x00, 0x0c, 0x00, 0x08, 0x00, 0x04, 0x00,
  0x0a, 0x00, 0x00, 0x00, 0x0c, 0x00, 0x00, 0x00, 0x10, 0x00, 0x00, 0x00,
  0x02, 0x00, 0x00, 0x00, 0x01, 0x00, 0x00, 0x00, 0x0e, 0x00, 0x00, 0x00,
  0x02, 0x00, 0x00, 0x00, 0x0d, 0x00, 0x00, 0x00, 0x01, 0x00, 0x00, 0x00,
  0x76, 0xff, 0xff, 0xff, 0x24, 0x00, 0x00, 0x00, 0x00, 0x00, 0x00, 0x05,
  0x30, 0x00, 0x00, 0x00, 0x34, 0x00, 0x00, 0x00, 0x01, 0x00, 0x00, 0x00,
  0x00, 0x00, 0x0e, 0x00, 0x14, 0x00, 0x00, 0x00, 0x10, 0x00, 0x0c, 0x00,
  0x08, 0x00, 0x04, 0x00, 0x0e, 0x00, 0x00, 0x00, 0x03, 0x00, 0x00, 0x00,
  0x01, 0x00, 0x00, 0x00, 0x03, 0x00, 0x00, 0x00, 0x01, 0x00, 0x00, 0x00,
  0x01, 0x00, 0x00, 0x00, 0x0d, 0x00, 0x00, 0x00, 0x01, 0x00, 0x00, 0x00,
  0x0c, 0x00, 0x00, 0x00, 0x62, 0xff, 0xff, 0xff, 0x10, 0x00, 0x00, 0x00,
  0x00, 0x00, 0x00, 0x01, 0x18, 0x00, 0x00, 0x00, 0x1c, 0x00, 0x00, 0x00,
  0x54, 0xff, 0xff, 0xff, 0x00, 0x00, 0x00, 0x01, 0x01, 0x00, 0x00, 0x00,
  0x01, 0x00, 0x00, 0x00, 0x01, 0x00, 0x00, 0x00, 0x0c, 0x00, 0x00, 0x00,
  0x03, 0x00, 0x00, 0x00, 0x0b, 0x00, 0x00, 0x00, 0x04, 0x00, 0x00, 0x00,
  0x05, 0x00, 0x00, 0x00, 0x00, 0x00, 0x0e, 0x00, 0x1a, 0x00, 0x14, 0x00,
  0x10, 0x00, 0x0c, 0x00, 0x0b, 0x00, 0x04, 0x00, 0x0e, 0x00, 0x00, 0x00,
  0x24, 0x00, 0x00, 0x00, 0x00, 0x00, 0x00, 0x05, 0x34, 0x00, 0x00, 0x00,
  0x38, 0x00, 0x00, 0x00, 0x01, 0x00, 0x00, 0x00, 0x00, 0x00, 0x0e, 0x00,
  0x18, 0x00, 0x17, 0x00, 0x10, 0x00, 0x0c, 0x00, 0x08, 0x00, 0x04, 0x00,
  0x0e, 0x00, 0x00, 0x00, 0x03, 0x00, 0x00, 0x00, 0x03, 0x00, 0x00, 0x00,
  0x03, 0x00, 0x00, 0x00, 0x03, 0x00, 0x00, 0x00, 0x00, 0x00, 0x00, 0x01,
  0x01, 0x00, 0x00, 0x00, 0x0b, 0x00, 0x00, 0x00, 0x01, 0x00, 0x00, 0x00,
  0x0a, 0x00, 0x00, 0x00, 0x00, 0x00, 0x0e, 0x00, 0x14, 0x00, 0x00, 0x00,
  0x10, 0x00, 0x0c, 0x00, 0x0b, 0x00, 0x04, 0x00, 0x0e, 0x00, 0x00, 0x00,
  0x1c, 0x00, 0x00, 0x00, 0x00, 0x00, 0x00, 0x01, 0x24, 0x00, 0x00, 0x00,
  0x28, 0x00, 0x00, 0x00, 0x0c, 0x00, 0x10, 0x00, 0x00, 0x00, 0x0c, 0x00,
  0x08, 0x00, 0x07, 0x00, 0x0c, 0x00, 0x00, 0x00, 0x00, 0x00, 0x00, 0x01,
  0x01, 0x00, 0x00, 0x00, 0x01, 0x00, 0x00, 0x00, 0x01, 0x00, 0x00, 0x00,
  0x0a, 0x00, 0x00, 0x00, 0x03, 0x00, 0x00, 0x00, 0x00, 0x00, 0x00, 0x00,
  0x02, 0x00, 0x00, 0x00, 0x03, 0x00, 0x00, 0x00, 0x01, 0x00, 0x00, 0x00,
  0x11, 0x00, 0x00, 0x00, 0x01, 0x00, 0x00, 0x00, 0x00, 0x00, 0x00, 0x00,
  0x12, 0x00, 0x00, 0x00, 0x54, 0x0b, 0x00, 0x00, 0xf4, 0x0a, 0x00, 0x00,
  0x20, 0x0a, 0x00, 0x00, 0x4c, 0x09, 0x00, 0x00, 0x28, 0x08, 0x00, 0x00,
  0xf4, 0x06, 0x00, 0x00, 0x90, 0x06, 0x00, 0x00, 0x14, 0x06, 0x00, 0x00,
  0xa8, 0x05, 0x00, 0x00, 0x2c, 0x05, 0x00, 0x00, 0x40, 0x04, 0x00, 0x00,
  0xac, 0x03, 0x00, 0x00, 0xb8, 0x02, 0x00, 0x00, 0x24, 0x02, 0x00, 0x00,
  0xa8, 0x01, 0x00, 0x00, 0x04, 0x01, 0x00, 0x00, 0x70, 0x00, 0x00, 0x00,
  0x04, 0x00, 0x00, 0x00, 0x08, 0xf5, 0xff, 0xff, 0x18, 0x00, 0x00, 0x00,
  0x20, 0x00, 0x00, 0x00, 0x40, 0x00, 0x00, 0x00, 0x12, 0x00, 0x00, 0x00,
  0x00, 0x00, 0x00, 0x09, 0x44, 0x00, 0x00, 0x00, 0x02, 0x00, 0x00, 0x00,
  0xff, 0xff, 0xff, 0xff, 0x06, 0x00, 0x00, 0x00, 0xec, 0xf4, 0xff, 0xff,
  0x08, 0x00, 0x00, 0x00, 0x14, 0x00, 0x00, 0x00, 0x01, 0x00, 0x00, 0x00,
  0x80, 0xff, 0xff, 0xff, 0xff, 0xff, 0xff, 0xff, 0x00, 0x00, 0x00, 0x00,
  0x01, 0x00, 0x00, 0x00, 0x00, 0x00, 0x80, 0x3b, 0x08, 0x00, 0x00, 0x00,
  0x49, 0x64, 0x65, 0x6e, 0x74, 0x69, 0x74, 0x79, 0x00, 0x00, 0x00, 0x00,
  0x02, 0x00, 0x00, 0x00, 0x01, 0x00, 0x00, 0x00, 0x06, 0x00, 0x00, 0x00,
  0x70, 0xf5, 0xff, 0xff, 0x18, 0x00, 0x00, 0x00, 0x20, 0x00, 0x00, 0x00,
  0x3c, 0x00, 0x00, 0x00, 0x11, 0x00, 0x00, 0x00, 0x00, 0x00, 0x00, 0x09,
  0x6c, 0x00, 0x00, 0x00, 0x02, 0x00, 0x00, 0x00, 0xff, 0xff, 0xff, 0xff,
  0x06, 0x00, 0x00, 0x00, 0x54, 0xf5, 0xff, 0xff, 0x08, 0x00, 0x00, 0x00,
  0x10, 0x00, 0x00, 0x00, 0x01, 0x00, 0x00, 0x00, 0x04, 0x00, 0x00, 0x00,
  0x00, 0x00, 0x00, 0x00, 0x01, 0x00, 0x00, 0x00, 0xcb, 0xcf, 0x33, 0x3e,
  0x34, 0x00, 0x00, 0x00, 0x73, 0x65, 0x71, 0x75, 0x65, 0x6e, 0x74, 0x69,
  0x61, 0x6c, 0x2f, 0x64, 0x65, 0x6e, 0x73, 0x65, 0x5f, 0x31, 0x2f, 0x4d,
  0x61, 0x74, 0x4d, 0x75, 0x6c, 0x3b, 0x73, 0x65, 0x71, 0x75, 0x65, 0x6e,
  0x74, 0x69, 0x61, 0x6c, 0x2f, 0x64, 0x65, 0x6e, 0x73, 0x65, 0x5f, 0x31,
  0x2f, 0x42, 0x69, 0x61, 0x73, 0x41, 0x64, 0x64, 0x00, 0x00, 0x00, 0x00,
  0x02, 0x00, 0x00, 0x00, 0x01, 0x00, 0x00, 0x00, 0x06, 0x00, 0x00, 0x00,
  0x00, 0xf6, 0xff, 0xff, 0x18, 0x00, 0x00, 0x00, 0x20, 0x00, 0x00, 0x00,
  0x3c, 0x00, 0x00, 0x00, 0x10, 0x00, 0x00, 0x00, 0x00, 0x00, 0x00, 0x09,
  0x7c, 0x00, 0x00, 0x00, 0x02, 0x00, 0x00, 0x00, 0xff, 0xff, 0xff, 0xff,
  0x10, 0x00, 0x00, 0x00, 0xe4, 0xf5, 0xff, 0xff, 0x08, 0x00, 0x00, 0x00,
  0x10, 0x00, 0x00, 0x00, 0x01, 0x00, 0x00, 0x00, 0x80, 0xff, 0xff, 0xff,
  0xff, 0xff, 0xff, 0xff, 0x01, 0x00, 0x00, 0x00, 0x39, 0x66, 0xc1, 0x3d,
  0x46, 0x00, 0x00, 0x00, 0x73, 0x65, 0x71, 0x75, 0x65, 0x6e, 0x74, 0x69,
  0x61, 0x6c, 0x2f, 0x64, 0x65, 0x6e, 0x73, 0x65, 0x2f, 0x4d, 0x61, 0x74,
  0x4d, 0x75, 0x6c, 0x3b, 0x73, 0x65, 0x71, 0x75, 0x65, 0x6e, 0x74, 0x69,
  0x61, 0x6c, 0x2f, 0x64, 0x65, 0x6e, 0x73, 0x65, 0x2f, 0x52, 0x65, 0x6c,
  0x75, 0x3b, 0x73, 0x65, 0x71, 0x75, 0x65, 0x6e, 0x74, 0x69, 0x61, 0x6c,
  0x2f, 0x64, 0x65, 0x6e, 0x73, 0x65, 0x2f, 0x42, 0x69, 0x61, 0x73, 0x41,
  0x64, 0x64, 0x00, 0x00, 0x02, 0x00, 0x00, 0x00, 0x01, 0x00, 0x00, 0x00,
  0x10, 0x00, 0x00, 0x00, 0xa0, 0xf6, 0xff, 0xff, 0x18, 0x00, 0x00, 0x00,
  0x20, 0x00, 0x00, 0x00, 0x40, 0x00, 0x00, 0x00, 0x0f, 0x00, 0x00, 0x00,
  0x00, 0x00, 0x00, 0x09, 0x54, 0x00, 0x00, 0x00, 0x02, 0x00, 0x00, 0x00,
  0xff, 0xff, 0xff, 0xff, 0x20, 0x00, 0x00, 0x00, 0x84, 0xf6, 0xff, 0xff,
  0x08, 0x00, 0x00, 0x00, 0x14, 0x00, 0x00, 0x00, 0x01, 0x00, 0x00, 0x00,
  0x80, 0xff, 0xff, 0xff, 0xff, 0xff, 0xff, 0xff, 0x00, 0x00, 0x00, 0x00,
  0x01, 0x00, 0x00, 0x00, 0xde, 0x64, 0x06, 0x3e, 0x1a, 0x00, 0x00, 0x00,
  0x73, 0x65, 0x71, 0x75, 0x65, 0x6e, 0x74, 0x69, 0x61, 0x6c, 0x2f, 0x66,
  0x6c, 0x61, 0x74, 0x74, 0x65, 0x6e, 0x2f, 0x52, 0x65, 0x73, 0x68, 0x61,
  0x70, 0x65, 0x00, 0x00, 0x02, 0x00, 0x00, 0x00, 0x01, 0x00, 0x00, 0x00,
  0x20, 0x00, 0x00, 0x00, 0x18, 0xf7, 0xff, 0xff, 0x18, 0x00, 0x00, 0x00,
  0x28, 0x00, 0x00, 0x00, 0x48, 0x00, 0x00, 0x00, 0x0e, 0x00, 0x00, 0x00,
  0x00, 0x00, 0x00, 0x09, 0x64, 0x00, 0x00, 0x00, 0x04, 0x00, 0x00, 0x00,
  0xff, 0xff, 0xff, 0xff, 0x01, 0x00, 0x00, 0x00, 0x02, 0x00, 0x00, 0x00,
  0x10, 0x00, 0x00, 0x00, 0x04, 0xf7, 0xff, 0xff, 0x08, 0x00, 0x00, 0x00,
  0x14, 0x00, 0x00, 0x00, 0x01, 0x00, 0x00, 0x00, 0x80, 0xff, 0xff, 0xff,
  0xff, 0xff, 0xff, 0xff, 0x00, 0x00, 0x00, 0x00, 0x01, 0x00, 0x00, 0x00,
  0xde, 0x64, 0x06, 0x3e, 0x22, 0x00, 0x00, 0x00, 0x73, 0x65, 0x71, 0x75,
  0x65, 0x6e, 0x74, 0x69, 0x61, 0x6c, 0x2f, 0x6d, 0x61, 0x78, 0x5f, 0x70,
  0x6f, 0x6f, 0x6c, 0x69, 0x6e, 0x67, 0x32, 0x64, 0x5f, 0x31, 0x2f, 0x4d,
  0x61, 0x78, 0x50, 0x6f, 0x6f, 0x6c, 0x00, 0x00, 0x04, 0x00, 0x00, 0x00,
  0x01, 0x00, 0x00, 0x00, 0x01, 0x00, 0x00, 0x00, 0x02, 0x00, 0x00, 0x00,
  0x10, 0x00, 0x00, 0x00, 0xa8, 0xf7, 0xff, 0xff, 0x18, 0x00, 0x00, 0x00,
  0x28, 0x00, 0x00, 0x00, 0x48, 0x00, 0x00, 0x00, 0x0d, 0x00, 0x00, 0x00,
  0x00, 0x00, 0x00, 0x09, 0xc4, 0x00, 0x00, 0x00, 0x04, 0x00, 0x00, 0x00,
  0xff, 0xff, 0xff, 0xff, 0x03, 0x00, 0x00, 0x00, 0x02, 0x00, 0x00, 0x00,
  0x10, 0x00, 0x00, 0x00, 0x94, 0xf7, 0xff, 0xff, 0x08, 0x00, 0x00, 0x00,
  0x14, 0x00, 0x00, 0x00, 0x01, 0x00, 0x00, 0x00, 0x80, 0xff, 0xff, 0xff,
  0xff, 0xff, 0xff, 0xff, 0x00, 0x00, 0x00, 0x00, 0x01, 0x00, 0x00, 0x00,
  0xde, 0x64, 0x06, 0x3e, 0x83, 0x00, 0x00, 0x00, 0x73, 0x65, 0x71, 0x75,
  0x65, 0x6e, 0x74, 0x69, 0x61, 0x6c, 0x2f, 0x63, 0x6f, 0x6e, 0x76, 0x32,
  0x64, 0x5f, 0x31, 0x2f, 0x52, 0x65, 0x6c, 0x75, 0x3b, 0x73, 0x65, 0x71,
  0x75, 0x65, 0x6e, 0x74, 0x69, 0x61, 0x6c, 0x2f, 0x63, 0x6f, 0x6e, 0x76,
  0x32, 0x64, 0x5f, 0x31, 0x2f, 0x42, 0x69, 0x61, 0x73, 0x41, 0x64, 0x64,
  0x3b, 0x73, 0x65, 0x71, 0x75, 0x65, 0x6e, 0x74, 0x69, 0x61, 0x6c, 0x2f,
  0x63, 0x6f, 0x6e, 0x76, 0x32, 0x64, 0x5f, 0x31, 0x2f, 0x43, 0x6f, 0x6e,
  0x76, 0x32, 0x44, 0x3b, 0x73, 0x65, 0x71, 0x75, 0x65, 0x6e, 0x74, 0x69,
  0x61, 0x6c, 0x2f, 0x63, 0x6f, 0x6e, 0x76, 0x32, 0x64, 0x5f, 0x31, 0x2f,
  0x42, 0x69, 0x61, 0x73, 0x41, 0x64, 0x64, 0x2f, 0x52, 0x65, 0x61, 0x64,
  0x56, 0x61, 0x72, 0x69, 0x61, 0x62, 0x6c, 0x65, 0x4f, 0x70, 0x2f, 0x72,
  0x65, 0x73, 0x6f, 0x75, 0x72, 0x63, 0x65, 0x00, 0x04, 0x00, 0x00, 0x00,
  0x01, 0x00, 0x00, 0x00, 0x03, 0x00, 0x00, 0x00, 0x02, 0x00, 0x00, 0x00,
  0x10, 0x00, 0x00, 0x00, 0x98, 0xf8, 0xff, 0xff, 0x18, 0x00, 0x00, 0x00,
  0x28, 0x00, 0x00, 0x00, 0x48, 0x00, 0x00, 0x00, 0x0c, 0x00, 0x00, 0x00,
  0x00, 0x00, 0x00, 0x09, 0x64, 0x00, 0x00, 0x00, 0x04, 0x00, 0x00, 0x00,
  0xff, 0xff, 0xff, 0xff, 0x03, 0x00, 0x00, 0x00, 0x02, 0x00, 0x00, 0x00,
  0x08, 0x00, 0x00, 0x00, 0x84, 0xf8, 0xff, 0xff, 0x08, 0x00, 0x00, 0x00,
  0x14, 0x00, 0x00, 0x00, 0x01, 0x00, 0x00, 0x00, 0x80, 0xff, 0xff, 0xff,
  0xff, 0xff, 0xff, 0xff, 0x00, 0x00, 0x00, 0x00, 0x01, 0x00, 0x00, 0x00,
  0x85, 0x1b, 0xab, 0x3e, 0x20, 0x00, 0x00, 0x00, 0x73, 0x65, 0x71, 0x75,
  0x65, 0x6e, 0x74, 0x69, 0x61, 0x6c, 0x2f, 0x6d, 0x61, 0x78, 0x5f, 0x70,
  0x6f, 0x6f, 0x6c, 0x69, 0x6e, 0x67, 0x32, 0x64, 0x2f, 0x4d, 0x61, 0x78,
  0x50, 0x6f, 0x6f, 0x6c, 0x00, 0x00, 0x00, 0x00, 0x04, 0x00, 0x00, 0x00,
  0x01, 0x00, 0x00, 0x00, 0x03, 0x00, 0x00, 0x00, 0x02, 0x00, 0x00, 0x00,
  0x08, 0x00, 0x00, 0x00, 0x28, 0xf9, 0xff, 0xff, 0x18, 0x00, 0x00, 0x00,
  0x28, 0x00, 0x00, 0x00, 0x48, 0x00, 0x00, 0x00, 0x0b, 0x00, 0x00, 0x00,
  0x00, 0x00, 0x00, 0x09, 0xbc, 0x00, 0x00, 0x00, 0x04, 0x00, 0x00, 0x00,
  0xff, 0xff, 0xff, 0xff, 0x0a, 0x00, 0x00, 0x00, 0x06, 0x00, 0x00, 0x00,
  0x08, 0x00, 0x00, 0x00, 0x14, 0xf9, 0xff, 0xff, 0x08, 0x00, 0x00, 0x00,
  0x14, 0x00, 0x00, 0x00, 0x01, 0x00, 0x00, 0x00, 0x80, 0xff, 0xff, 0xff,
  0xff, 0xff, 0xff, 0xff, 0x00, 0x00, 0x00, 0x00, 0x01, 0x00, 0x00, 0x00,
  0x85, 0x1b, 0xab, 0x3e, 0x7b, 0x00, 0x00, 0x00, 0x73, 0x65, 0x71, 0x75,
  0x65, 0x6e, 0x74, 0x69, 0x61, 0x6c, 0x2f, 0x63, 0x6f, 0x6e, 0x76, 0x32,
  0x64, 0x2f, 0x52, 0x65, 0x6c, 0x75, 0x3b, 0x73, 0x65, 0x71, 0x75, 0x65,
  0x6e, 0x74, 0x69, 0x61, 0x6c, 0x2f, 0x63, 0x6f, 0x6e, 0x76, 0x32, 0x64,
  0x2f, 0x42, 0x69, 0x61, 0x73, 0x41, 0x64, 0x64, 0x3b, 0x73, 0x65, 0x71,
  0x75, 0x65, 0x6e, 0x74, 0x69, 0x61, 0x6c, 0x2f, 0x63, 0x6f, 0x6e, 0x76,
  0x32, 0x64, 0x2f, 0x43, 0x6f, 0x6e, 0x76, 0x32, 0x44, 0x3b, 0x73, 0x65,
  0x71, 0x75, 0x65, 0x6e, 0x74, 0x69, 0x61, 0x6c, 0x2f, 0x63, 0x6f, 0x6e,
  0x76, 0x32, 0x64, 0x2f, 0x42, 0x69, 0x61, 0x73, 0x41, 0x64, 0x64, 0x2f,
  0x52, 0x65, 0x61, 0x64, 0x56, 0x61, 0x72, 0x69, 0x61, 0x62, 0x6c, 0x65,
  0x4f, 0x70, 0x2f, 0x72, 0x65, 0x73, 0x6f, 0x75, 0x72, 0x63, 0x65, 0x00,
  0x04, 0x00, 0x00, 0x00, 0x01, 0x00, 0x00, 0x00, 0x0a, 0x00, 0x00, 0x00,
  0x06, 0x00, 0x00, 0x00, 0x08, 0x00, 0x00, 0x00, 0x66, 0xfa, 0xff, 0xff,
  0x14, 0x00, 0x00, 0x00, 0x30, 0x00, 0x00, 0x00, 0x0a, 0x00, 0x00, 0x00,
  0x00, 0x00, 0x00, 0x02, 0x5c, 0x00, 0x00, 0x00, 0xe4, 0xf9, 0xff, 0xff,
  0x08, 0x00, 0x00, 0x00, 0x10, 0x00, 0x00, 0x00, 0x01, 0x00, 0x00, 0x00,
  0x00, 0x00, 0x00, 0x00, 0x00, 0x00, 0x00, 0x00, 0x01, 0x00, 0x00, 0x00,
  0x4c, 0x48, 0x49, 0x3a, 0x32, 0x00, 0x00, 0x00, 0x73, 0x65, 0x71, 0x75,
  0x65, 0x6e, 0x74, 0x69, 0x61, 0x6c, 0x2f, 0x64, 0x65, 0x6e, 0x73, 0x65,
  0x5f, 0x31, 0x2f, 0x42, 0x69, 0x61, 0x73, 0x41, 0x64, 0x64, 0x2f, 0x52,
  0x65, 0x61, 0x64, 0x56, 0x61, 0x72, 0x69, 0x61, 0x62, 0x6c, 0x65, 0x4f,
  0x70, 0x2f, 0x72, 0x65, 0x73, 0x6f, 0x75, 0x72, 0x63, 0x65, 0x00, 0x00,
  0x01, 0x00, 0x00, 0x00, 0x06, 0x00, 0x00, 0x00, 0xde, 0xfa, 0xff, 0xff,
  0x14, 0x00, 0x00, 0x00, 0x34, 0x00, 0x00, 0x00, 0x09, 0x00, 0x00, 0x00,
  0x00, 0x00, 0x00, 0x09, 0x48, 0x00, 0x00, 0x00, 0x5c, 0xfa, 0xff, 0xff,
  0x08, 0x00, 0x00, 0x00, 0x14, 0x00, 0x00, 0x00, 0x01, 0x00, 0x00, 0x00,
  0x00, 0x00, 0x00, 0x00, 0x00, 0x00, 0x00, 0x00, 0x00, 0x00, 0x00, 0x00,
  0x01, 0x00, 0x00, 0x00, 0xa6, 0x37, 0x05, 0x3c, 0x19, 0x00, 0x00, 0x00,
  0x73, 0x65, 0x71, 0x75, 0x65, 0x6e, 0x74, 0x69, 0x61, 0x6c, 0x2f, 0x64,
  0x65, 0x6e, 0x73, 0x65, 0x5f, 0x31, 0x2f, 0x4d, 0x61, 0x74, 0x4d, 0x75,
  0x6c, 0x00, 0x00, 0x00, 0x02, 0x00, 0x00, 0x00, 0x06, 0x00, 0x00, 0x00,
  0x10, 0x00, 0x00, 0x00, 0x46, 0xfb, 0xff, 0xff, 0x14, 0x00, 0x00, 0x00,
  0x30, 0x00, 0x00, 0x00, 0x08, 0x00, 0x00, 0x00, 0x00, 0x00, 0x00, 0x02,
  0x5c, 0x00, 0x00, 0x00, 0xc4, 0xfa, 0xff, 0xff, 0x08, 0x00, 0x00, 0x00,
  0x10, 0x00, 0x00, 0x00, 0x01, 0x00, 0x00, 0x00, 0x00, 0x00, 0x00, 0x00,
  0x00, 0x00, 0x00, 0x00, 0x01, 0x00, 0x00, 0x00, 0xbe, 0x73, 0x22, 0x3a,
  0x30, 0x00, 0x00, 0x00, 0x73, 0x65, 0x71, 0x75, 0x65, 0x6e, 0x74, 0x69,
  0x61, 0x6c, 0x2f, 0x64, 0x65, 0x6e, 0x73, 0x65, 0x2f, 0x42, 0x69, 0x61,
  0x73, 0x41, 0x64, 0x64, 0x2f, 0x52, 0x65, 0x61, 0x64, 0x56, 0x61, 0x72,
  0x69, 0x61, 0x62, 0x6c, 0x65, 0x4f, 0x70, 0x2f, 0x72, 0x65, 0x73, 0x6f,
  0x75, 0x72, 0x63, 0x65, 0x00, 0x00, 0x00, 0x00, 0x01, 0x00, 0x00, 0x00,
  0x10, 0x00, 0x00, 0x00, 0xbe, 0xfb, 0xff, 0xff, 0x14, 0x00, 0x00, 0x00,
  0x30, 0x00, 0x00, 0x00, 0x07, 0x00, 0x00, 0x00, 0x00, 0x00, 0x00, 0x09,
  0x40, 0x00, 0x00, 0x00, 0x3c, 0xfb, 0xff, 0xff, 0x08, 0x00, 0x00, 0x00,
  0x10, 0x00, 0x00, 0x00, 0x01, 0x00, 0x00, 0x00, 0x00, 0x00, 0x00, 0x00,
  0x00, 0x00, 0x00, 0x00, 0x01, 0x00, 0x00, 0x00, 0x23, 0xb9, 0x9a, 0x3b,
  0x17, 0x00, 0x00, 0x00, 0x73, 0x65, 0x71, 0x75, 0x65, 0x6e, 0x74, 0x69,
  0x61, 0x6c, 0x2f, 0x64, 0x65, 0x6e, 0x73, 0x65, 0x2f, 0x4d, 0x61, 0x74,
  0x4d, 0x75, 0x6c, 0x00, 0x02, 0x00, 0x00, 0x00, 0x10, 0x00, 0x00, 0x00,
  0x20, 0x00, 0x00, 0x00, 0x1e, 0xfc, 0xff, 0xff, 0x14, 0x00, 0x00, 0x00,
  0xe8, 0x00, 0x00, 0x00, 0x06, 0x00, 0x00, 0x00, 0x00, 0x00, 0x00, 0x02,
  0x14, 0x01, 0x00, 0x00, 0x9c, 0xfb, 0xff, 0xff, 0x08, 0x00, 0x00, 0x00,
  0x8c, 0x00, 0x00, 0x00, 0x10, 0x00, 0x00, 0x00, 0x00, 0x00, 0x00, 0x00,
  0x00, 0x00, 0x00, 0x00, 0x00, 0x00, 0x00, 0x00, 0x00, 0x00, 0x00, 0x00,
  0x00, 0x00, 0x00, 0x00, 0x00, 0x00, 0x00, 0x00, 0x00, 0x00, 0x00, 0x00,
  0x00, 0x00, 0x00, 0x00, 0x00, 0x00, 0x00, 0x00, 0x00, 0x00, 0x00, 0x00,
  0x00, 0x00, 0x00, 0x00, 0x00, 0x00, 0x00, 0x00, 0x00, 0x00, 0x00, 0x00,
  0x00, 0x00, 0x00, 0x00, 0x00, 0x00, 0x00, 0x00, 0x00, 0x00, 0x00, 0x00,
  0x00, 0x00, 0x00, 0x00, 0x00, 0x00, 0x00, 0x00, 0x00, 0x00, 0x00, 0x00,
  0x00, 0x00, 0x00, 0x00, 0x00, 0x00, 0x00, 0x00, 0x00, 0x00, 0x00, 0x00,
  0x00, 0x00, 0x00, 0x00, 0x00, 0x00, 0x00, 0x00, 0x00, 0x00, 0x00, 0x00,
  0x00, 0x00, 0x00, 0x00, 0x00, 0x00, 0x00, 0x00, 0x00, 0x00, 0x00, 0x00,
  0x00, 0x00, 0x00, 0x00, 0x00, 0x00, 0x00, 0x00, 0x00, 0x00, 0x00, 0x00,
  0x00, 0x00, 0x00, 0x00, 0x00, 0x00, 0x00, 0x00, 0x10, 0x00, 0x00, 0x00,
  0xc2, 0x26, 0x79, 0x3a, 0xa4, 0x53, 0x87, 0x3a, 0x4b, 0x10, 0xae, 0x3a,
  0xaf, 0x8c, 0x8e, 0x3a, 0xad, 0xe2, 0x90, 0x3a, 0x7d, 0xac, 0x8a, 0x3a,
  0x3a, 0xd5, 0xb1, 0x3a, 0x02, 0xc4, 0x86, 0x3a, 0xce, 0xa4, 0x8f, 0x3a,
  0x8a, 0xcb, 0x89, 0x3a, 0x0b, 0x12, 0x6a, 0x3a, 0xc4, 0xa3, 0x86, 0x3a,
  0x52, 0x69, 0x6c, 0x3a, 0xab, 0xc4, 0x8a, 0x3a, 0x8d, 0x62, 0xa5, 0x3a,
  0x2f, 0x7c, 0x7b, 0x3a, 0x33, 0x00, 0x00, 0x00, 0x73, 0x65, 0x71, 0x75,
  0x65, 0x6e, 0x74, 0x69, 0x61, 0x6c, 0x2f, 0x63, 0x6f, 0x6e, 0x76, 0x32,
  0x64, 0x5f, 0x31, 0x2f, 0x42, 0x69, 0x61, 0x73, 0x41, 0x64, 0x64, 0x2f,
  0x52, 0x65, 0x61, 0x64, 0x56, 0x61, 0x72, 0x69, 0x61, 0x62, 0x6c, 0x65,
  0x4f, 0x70, 0x2f, 0x72, 0x65, 0x73, 0x6f, 0x75, 0x72, 0x63, 0x65, 0x00,
  0x01, 0x00, 0x00, 0x00, 0x10, 0x00, 0x00, 0x00, 0x4e, 0xfd, 0xff, 0xff,
  0x14, 0x00, 0x00, 0x00, 0xe4, 0x00, 0x00, 0x00, 0x05, 0x00, 0x00, 0x00,
  0x00, 0x00, 0x00, 0x09, 0xf8, 0x00, 0x00, 0x00, 0xcc, 0xfc, 0xff, 0xff,
  0x08, 0x00, 0x00, 0x00, 0x88, 0x00, 0x00, 0x00, 0x10, 0x00, 0x00, 0x00,
  0x00, 0x00, 0x00, 0x00, 0x00, 0x00, 0x00, 0x00, 0x00, 0x00, 0x00, 0x00,
  0x00, 0x00, 0x00, 0x00, 0x00, 0x00, 0x00, 0x00, 0x00, 0x00, 0x00, 0x00,
  0x00, 0x00, 0x00, 0x00, 0x00, 0x00, 0x00, 0x00, 0x00, 0x00, 0x00, 0x00,
  0x00, 0x00, 0x00, 0x00, 0x00, 0x00, 0x00, 0x00, 0x00, 0x00, 0x00, 0x00,
  0x00, 0x00, 0x00, 0x00, 0x00, 0x00, 0x00, 0x00, 0x00, 0x00, 0x00, 0x00,
  0x00, 0x00, 0x00, 0x00, 0x00, 0x00, 0x00, 0x00, 0x00, 0x00, 0x00, 0x00,
  0x00, 0x00, 0x00, 0x00, 0x00, 0x00, 0x00, 0x00, 0x00, 0x00, 0x00, 0x00,
  0x00, 0x00, 0x00, 0x00, 0x00, 0x00, 0x00, 0x00, 0x00, 0x00, 0x00, 0x00,
  0x00, 0x00, 0x00, 0x00, 0x00, 0x00, 0x00, 0x00, 0x00, 0x00, 0x00, 0x00,
  0x00, 0x00, 0x00, 0x00, 0x00, 0x00, 0x00, 0x00, 0x00, 0x00, 0x00, 0x00,
  0x00, 0x00, 0x00, 0x00, 0x00, 0x00, 0x00, 0x00, 0x10, 0x00, 0x00, 0x00,
  0xd3, 0x61, 0x3a, 0x3b, 0x94, 0x77, 0x4a, 0x3b, 0x1e, 0x36, 0x82, 0x3b,
  0xff, 0x45, 0x55, 0x3b, 0xad, 0xc4, 0x58, 0x3b, 0x8b, 0x79, 0x4f, 0x3b,
  0xf4, 0x07, 0x85, 0x3b, 0xb0, 0xa0, 0x49, 0x3b, 0x19, 0xe9, 0x56, 0x3b,
  0xfc, 0x28, 0x4e, 0x3b, 0xbf, 0x19, 0x2f, 0x3b, 0x72, 0x70, 0x49, 0x3b,
  0x0c, 0xda, 0x30, 0x3b, 0xb7, 0x9d, 0x4f, 0x3b, 0x36, 0x70, 0x77, 0x3b,
  0xbd, 0x20, 0x3c, 0x3b, 0x1a, 0x00, 0x00, 0x00, 0x73, 0x65, 0x71, 0x75,
  0x65, 0x6e, 0x74, 0x69, 0x61, 0x6c, 0x2f, 0x63, 0x6f, 0x6e, 0x76, 0x32,
  0x64, 0x5f, 0x31, 0x2f, 0x43, 0x6f, 0x6e, 0x76, 0x32, 0x44, 0x00, 0x00,
  0x04, 0x00, 0x00, 0x00, 0x10, 0x00, 0x00, 0x00, 0x04, 0x00, 0x00, 0x00,
  0x01, 0x00, 0x00, 0x00, 0x08, 0x00, 0x00, 0x00, 0x6e, 0xfe, 0xff, 0xff,
  0x14, 0x00, 0x00, 0x00, 0x88, 0x00, 0x00, 0x00, 0x04, 0x00, 0x00, 0x00,
  0x00, 0x00, 0x00, 0x02, 0xb4, 0x00, 0x00, 0x00, 0xec, 0xfd, 0xff, 0xff,
  0x08, 0x00, 0x00, 0x00, 0x4c, 0x00, 0x00, 0x00, 0x08, 0x00, 0x00, 0x00,
  0x00, 0x00, 0x00, 0x00, 0x00, 0x00, 0x00, 0x00, 0x00, 0x00, 0x00, 0x00,
  0x00, 0x00, 0x00, 0x00, 0x00, 0x00, 0x00, 0x00, 0x00, 0x00, 0x00, 0x00,
  0x00, 0x00, 0x00, 0x00, 0x00, 0x00, 0x00, 0x00, 0x00, 0x00, 0x00, 0x00,
  0x00, 0x00, 0x00, 0x00, 0x00, 0x00, 0x00, 0x00, 0x00, 0x00, 0x00, 0x00,
  0x00, 0x00, 0x00, 0x00, 0x00, 0x00, 0x00, 0x00, 0x00, 0x00, 0x00, 0x00,
  0x00, 0x00, 0x00, 0x00, 0x00, 0x00, 0x00, 0x00, 0x08, 0x00, 0x00, 0x00,
  0xd4, 0x4b, 0x8d, 0x3b, 0xfe, 0x0f, 0x7d, 0x3b, 0xf3, 0x78, 0x6c, 0x3b,
  0xef, 0x0a, 0x5f, 0x3b, 0x98, 0xc3, 0x56, 0x3b, 0x1a, 0x67, 0x7e, 0x3b,
  0x5f, 0x38, 0x86, 0x3b, 0x7f, 0x13, 0x9f, 0x3b, 0x31, 0x00, 0x00, 0x00,
  0x73, 0x65, 0x71, 0x75, 0x65, 0x6e, 0x74, 0x69, 0x61, 0x6c, 0x2f, 0x63,
  0x6f, 0x6e, 0x76, 0x32, 0x64, 0x2f, 0x42, 0x69, 0x61, 0x73, 0x41, 0x64,
  0x64, 0x2f, 0x52, 0x65, 0x61, 0x64, 0x56, 0x61, 0x72, 0x69, 0x61, 0x62,
  0x6c, 0x65, 0x4f, 0x70, 0x2f, 0x72, 0x65, 0x73, 0x6f, 0x75, 0x72, 0x63,
  0x65, 0x00, 0x00, 0x00, 0x01, 0x00, 0x00, 0x00, 0x08, 0x00, 0x00, 0x00,
  0x3e, 0xff, 0xff, 0xff, 0x14, 0x00, 0x00, 0x00, 0x84, 0x00, 0x00, 0x00,
  0x03, 0x00, 0x00, 0x00, 0x00, 0x00, 0x00, 0x09, 0x98, 0x00, 0x00, 0x00,
  0xbc, 0xfe, 0xff, 0xff, 0x08, 0x00, 0x00, 0x00, 0x48, 0x00, 0x00, 0x00,
  0x08, 0x00, 0x00, 0x00, 0x00, 0x00, 0x00, 0x00, 0x00, 0x00, 0x00, 0x00,
  0x00, 0x00, 0x00, 0x00, 0x00, 0x00, 0x00, 0x00, 0x00, 0x00, 0x00, 0x00,
  0x00, 0x00, 0x00, 0x00, 0x00, 0x00, 0x00, 0x00, 0x00, 0x00, 0x00, 0x00,
  0x00, 0x00, 0x00, 0x00, 0x00, 0x00, 0x00, 0x00, 0x00, 0x00, 0x00, 0x00,
  0x00, 0x00, 0x00, 0x00, 0x00, 0x00, 0x00, 0x00, 0x00, 0x00, 0x00, 0x00,
  0x00, 0x00, 0x00, 0x00, 0x00, 0x00, 0x00, 0x00, 0x08, 0x00, 0x00, 0x00,
  0xfe, 0x02, 0x16, 0x3b, 0x03, 0x56, 0x06, 0x3b, 0x04, 0x0f, 0xfb, 0x3a,
  0xef, 0xcc, 0xec, 0x3a, 0xde, 0x02, 0xe4, 0x3a, 0x26, 0x0c, 0x07, 0x3b,
  0xcd, 0x7f, 0x0e, 0x3b, 0x6b, 0xe3, 0x28, 0x3b, 0x18, 0x00, 0x00, 0x00,
  0x73, 0x65, 0x71, 0x75, 0x65, 0x6e, 0x74, 0x69, 0x61, 0x6c, 0x2f, 0x63,
  0x6f, 0x6e, 0x76, 0x32, 0x64, 0x2f, 0x43, 0x6f, 0x6e, 0x76, 0x32, 0x44,
  0x00, 0x00, 0x00, 0x00, 0x04, 0x00, 0x00, 0x00, 0x08, 0x00, 0x00, 0x00,
  0x04, 0x00, 0x00, 0x00, 0x03, 0x00, 0x00, 0x00, 0x01, 0x00, 0x00, 0x00,
  0x00, 0x00, 0x0e, 0x00, 0x18, 0x00, 0x14, 0x00, 0x13, 0x00, 0x0c, 0x00,
  0x08, 0x00, 0x04, 0x00, 0x0e, 0x00, 0x00, 0x00, 0x18, 0x00, 0x00, 0x00,
  0x18, 0x00, 0x00, 0x00, 0x02, 0x00, 0x00, 0x00, 0x00, 0x00, 0x00, 0x02,
  0x2c, 0x00, 0x00, 0x00, 0x04, 0x00, 0x04, 0x00, 0x04, 0x00, 0x00, 0x00,
  0x18, 0x00, 0x00, 0x00, 0x73, 0x65, 0x71, 0x75, 0x65, 0x6e, 0x74, 0x69,
  0x61, 0x6c, 0x2f, 0x66, 0x6c, 0x61, 0x74, 0x74, 0x65, 0x6e, 0x2f, 0x43,
  0x6f, 0x6e, 0x73, 0x74, 0x00, 0x00, 0x00, 0x00, 0x01, 0x00, 0x00, 0x00,
  0x02, 0x00, 0x00, 0x00, 0x14, 0x00, 0x1c, 0x00, 0x18, 0x00, 0x17, 0x00,
  0x10, 0x00, 0x0c, 0x00, 0x08, 0x00, 0x00, 0x00, 0x00, 0x00, 0x04, 0x00,
  0x14, 0x00, 0x00, 0x00, 0x18, 0x00, 0x00, 0x00, 0x34, 0x00, 0x00, 0x00,
  0x54, 0x00, 0x00, 0x00, 0x01, 0x00, 0x00, 0x00, 0x00, 0x00, 0x00, 0x09,
  0x5c, 0x00, 0x00, 0x00, 0x04, 0x00, 0x00, 0x00, 0xff, 0xff, 0xff, 0xff,
  0x0a, 0x00, 0x00, 0x00, 0x06, 0x00, 0x00, 0x00, 0x01, 0x00, 0x00, 0x00,
  0x0c, 0x00, 0x0c, 0x00, 0x00, 0x00, 0x00, 0x00, 0x08, 0x00, 0x04, 0x00,
  0x0c, 0x00, 0x00, 0x00, 0x08, 0x00, 0x00, 0x00, 0x14, 0x00, 0x00, 0x00,
  0x01, 0x00, 0x00, 0x00, 0xc1, 0xff, 0xff, 0xff, 0xff, 0xff, 0xff, 0xff,
  0x00, 0x00, 0x00, 0x00, 0x01, 0x00, 0x00, 0x00, 0x71, 0x20, 0xf1, 0x3f,
  0x0c, 0x00, 0x00, 0x00, 0x63, 0x6f, 0x6e, 0x76, 0x32, 0x64, 0x5f, 0x69,
  0x6e, 0x70, 0x75, 0x74, 0x00, 0x00, 0x00, 0x00, 0x04, 0x00, 0x00, 0x00,
  0x01, 0x00, 0x00, 0x00, 0x0a, 0x00, 0x00, 0x00, 0x06, 0x00, 0x00, 0x00,
  0x01, 0x00, 0x00, 0x00, 0x05, 0x00, 0x00, 0x00, 0x68, 0x00, 0x00, 0x00,
  0x48, 0x00, 0x00, 0x00, 0x38, 0x00, 0x00, 0x00, 0x18, 0x00, 0x00, 0x00,
  0x04, 0x00, 0x00, 0x00, 0xb8, 0xff, 0xff, 0xff, 0x19, 0x00, 0x00, 0x00,
  0x02, 0x00, 0x00, 0x00, 0x00, 0x00, 0x00, 0x19, 0xc8, 0xff, 0xff, 0xff,
  0x09, 0x00, 0x00, 0x00, 0x04, 0x00, 0x00, 0x00, 0x00, 0x00, 0x00, 0x09,
  0x0c, 0x00, 0x0c, 0x00, 0x0b, 0x00, 0x00, 0x00, 0x00, 0x00, 0x04, 0x00,
  0x0c, 0x00, 0x00, 0x00, 0x16, 0x00, 0x00, 0x00, 0x00, 0x00, 0x00, 0x16,
  0xf0, 0xff, 0xff, 0xff, 0x11, 0x00, 0x00, 0x00, 0x02, 0x00, 0x00, 0x00,
  0x00, 0x00, 0x00, 0x11, 0x0c, 0x00, 0x10, 0x00, 0x0f, 0x00, 0x00, 0x00,
  0x08, 0x00, 0x04, 0x00, 0x0c, 0x00, 0x00, 0x00, 0x03, 0x00, 0x00, 0x00,
  0x03, 0x00, 0x00, 0x00, 0x00, 0x00, 0x00, 0x03
};
unsigned int g_model_len = 5624;
