unsigned char g_model[] = {
  0x20, 0x00, 0x00, 0x00, 0x54, 0x46, 0x4c, 0x33, 0x00, 0x00, 0x00, 0x00,
  0x14, 0x00, 0x20, 0x00, 0x1c, 0x00, 0x18, 0x00, 0x14, 0x00, 0x10, 0x00,
  0x0c, 0x00, 0x00, 0x00, 0x08, 0x00, 0x04, 0x00, 0x14, 0x00, 0x00, 0x00,
  0x1c, 0x00, 0x00, 0x00, 0x1c, 0x00, 0x00, 0x00, 0x4c, 0x00, 0x00, 0x00,
  0xcc, 0x06, 0x00, 0x00, 0xdc, 0x06, 0x00, 0x00, 0x9c, 0x15, 0x00, 0x00,
  0x03, 0x00, 0x00, 0x00, 0x00, 0x00, 0x00, 0x00, 0x01, 0x00, 0x00, 0x00,
  0x0c, 0x00, 0x00, 0x00, 0x08, 0x00, 0x0c, 0x00, 0x08, 0x00, 0x04, 0x00,
  0x08, 0x00, 0x00, 0x00, 0x13, 0x00, 0x00, 0x00, 0x04, 0x00, 0x00, 0x00,
  0x13, 0x00, 0x00, 0x00, 0x6d, 0x69, 0x6e, 0x5f, 0x72, 0x75, 0x6e, 0x74,
  0x69, 0x6d, 0x65, 0x5f, 0x76, 0x65, 0x72, 0x73, 0x69, 0x6f, 0x6e, 0x00,
  0x14, 0x00, 0x00, 0x00, 0x7c, 0x06, 0x00, 0x00, 0x74, 0x06, 0x00, 0x00,
  0x5c, 0x06, 0x00, 0x00, 0xec, 0x05, 0x00, 0x00, 0xbc, 0x05, 0x00, 0x00,
  0xac, 0x03, 0x00, 0x00, 0x5c, 0x03, 0x00, 0x00, 0x4c, 0x01, 0x00, 0x00,
  0xfc, 0x00, 0x00, 0x00, 0x8c, 0x00, 0x00, 0x00, 0x64, 0x00, 0x00, 0x00,
  0x5c, 0x00, 0x00, 0x00, 0x54, 0x00, 0x00, 0x00, 0x4c, 0x00, 0x00, 0x00,
  0x44, 0x00, 0x00, 0x00, 0x3c, 0x00, 0x00, 0x00, 0x34, 0x00, 0x00, 0x00,
  0x2c, 0x00, 0x00, 0x00, 0x24, 0x00, 0x00, 0x00, 0x04, 0x00, 0x00, 0x00,
  0x42, 0xf9, 0xff, 0xff, 0x04, 0x00, 0x00, 0x00, 0x10, 0x00, 0x00, 0x00,
  0x31, 0x2e, 0x31, 0x34, 0x2e, 0x30, 0x00, 0x00, 0x00, 0x00, 0x00, 0x00,
  0x00, 0x00, 0x00, 0x00, 0xe4, 0xeb, 0xff, 0xff, 0xe8, 0xeb, 0xff, 0xff,
  0xec, 0xeb, 0xff, 0xff, 0xf0, 0xeb, 0xff, 0xff, 0xf4, 0xeb, 0xff, 0xff,
  0xf8, 0xeb, 0xff, 0xff, 0xfc, 0xeb, 0xff, 0xff, 0x00, 0xec, 0xff, 0xff,
  0x7e, 0xf9, 0xff, 0xff, 0x04, 0x00, 0x00, 0x00, 0x18, 0x00, 0x00, 0x00,
  0x0c, 0x02, 0x00, 0x00, 0x85, 0x00, 0x00, 0x00, 0x48, 0xfe, 0xff, 0xff,
  0x54, 0xff, 0xff, 0xff, 0x69, 0xfd, 0xff, 0xff, 0xa2, 0x00, 0x00, 0x00,
  0xa2, 0xf9, 0xff, 0xff, 0x04, 0x00, 0x00, 0x00, 0x60, 0x00, 0x00, 0x00,
  0xa6, 0x46, 0x3c, 0xf0, 0xe5, 0x05, 0x4c, 0x52, 0xd1, 0x36, 0xf1, 0xb1,
  0xdd, 0x07, 0x35, 0x14, 0x4c, 0x40, 0x1b, 0x33, 0xe1, 0x01, 0xcf, 0x10,
  0xf0, 0xe0, 0xc9, 0xfc, 0x13, 0xce, 0xe9, 0xa0, 0xcb, 0x24, 0x1f, 0xaf,
  0x5d, 0xc9, 0xde, 0xf7, 0xec, 0x30, 0x40, 0xea, 0xd5, 0xe2, 0x57, 0x7f,
  0xa5, 0xea, 0xbf, 0xed, 0xea, 0xc1, 0xd7, 0xbb, 0x21, 0xf7, 0xcb, 0x2d,
  0x38, 0xe9, 0xf3, 0xbf, 0x12, 0x00, 0xd0, 0xd9, 0xac, 0x27, 0x39, 0x25,
  0xd5, 0x21, 0x38, 0xbb, 0x23, 0x58, 0xec, 0x01, 0xbb, 0x2e, 0xb7, 0x13,
  0xc2, 0x01, 0xf1, 0xb7, 0xa0, 0x4c, 0x37, 0x54, 0x23, 0x4d, 0xb0, 0xc8,
  0x0e, 0xfa, 0xff, 0xff, 0x04, 0x00, 0x00, 0x00, 0x40, 0x00, 0x00, 0x00,
  0xbf, 0xff, 0xff, 0xff, 0xae, 0x01, 0x00, 0x00, 0x48, 0x00, 0x00, 0x00,
  0xfa, 0xff, 0xff, 0xff, 0x63, 0xff, 0xff, 0xff, 0xb6, 0xfe, 0xff, 0xff,
  0xf2, 0xfe, 0xff, 0xff, 0xb3, 0xff, 0xff, 0xff, 0xb3, 0x00, 0x00, 0x00,
  0x14, 0x00, 0x00, 0x00, 0x23, 0xff, 0xff, 0xff, 0xaa, 0xff, 0xff, 0xff,
  0xbe, 0xff, 0xff, 0xff, 0xf1, 0xfe, 0xff, 0xff, 0x1b, 0x00, 0x00, 0x00,
  0x16, 0x01, 0x00, 0x00, 0x5a, 0xfa, 0xff, 0xff, 0x04, 0x00, 0x00, 0x00,
  0x00, 0x02, 0x00, 0x00, 0x3b, 0xe9, 0x1a, 0xcd, 0x09, 0xd4, 0xd2, 0xe2,
  0xff, 0x13, 0x15, 0x25, 0x2f, 0x22, 0xd0, 0x3e, 0x18, 0x01, 0x1e, 0x15,
  0xe5, 0xd8, 0x30, 0xc5, 0xcf, 0xc0, 0x0a, 0x30, 0xd4, 0x17, 0xf5, 0xc2,
  0xc2, 0x01, 0xf0, 0xee, 0xf0, 0x66, 0x09, 0x0b, 0xdf, 0x10, 0xe5, 0x21,
  0xf9, 0x19, 0x30, 0xee, 0xde, 0x49, 0xfd, 0x1d, 0x7b, 0xe9, 0xf4, 0x4a,
  0xf1, 0x00, 0xe2, 0x39, 0x2d, 0x2b, 0xdb, 0xd3, 0xe1, 0xff, 0x06, 0xf4,
  0x03, 0x07, 0xbd, 0x18, 0xd0, 0xca, 0xed, 0x1a, 0xf7, 0x1b, 0x0e, 0xc7,
  0x15, 0x0a, 0x33, 0xf9, 0x40, 0xe8, 0x1d, 0xba, 0xda, 0xd8, 0x19, 0xe7,
  0xc4, 0x2f, 0xf6, 0xd8, 0xf3, 0xd7, 0xbe, 0xf0, 0x81, 0xa8, 0x11, 0x3f,
  0xc8, 0x0d, 0x63, 0xc1, 0x2f, 0x0a, 0x2f, 0x5a, 0x14, 0x29, 0x00, 0x03,
  0x0b, 0x04, 0x02, 0xf7, 0xf8, 0xea, 0xf5, 0x1c, 0xe7, 0x19, 0xc7, 0xd5,
  0x01, 0xe0, 0x18, 0xd4, 0xa6, 0xc2, 0xc4, 0xbc, 0xc9, 0xfe, 0xc8, 0xc1,
  0x0b, 0xd8, 0x1e, 0xec, 0xdf, 0xcc, 0x1a, 0x32, 0xc1, 0xc2, 0x18, 0x39,
  0x11, 0xfd, 0x23, 0x2a, 0x0c, 0xd4, 0x0b, 0x24, 0xde, 0x2a, 0x10, 0xfa,
  0x36, 0xf6, 0x3c, 0xbb, 0x26, 0x43, 0xd3, 0xd9, 0x01, 0x2d, 0x0e, 0x27,
  0x16, 0x1c, 0x31, 0xc4, 0xad, 0xf3, 0xf2, 0xef, 0x05, 0xe1, 0x21, 0x00,
  0x27, 0xff, 0xdd, 0x07, 0x3c, 0x3f, 0xed, 0xff, 0x2c, 0xdb, 0xf9, 0xc3,
  0x29, 0x36, 0xf6, 0xd5, 0x05, 0x19, 0xd5, 0x3f, 0x21, 0x08, 0x3c, 0xf5,
  0xe9, 0xe8, 0x09, 0xc0, 0x12, 0xee, 0xdc, 0xd6, 0xe9, 0xf5, 0xd7, 0x02,
  0x33, 0x06, 0xd9, 0xf7, 0x2f, 0xf2, 0xe3, 0xe2, 0xd6, 0xf0, 0x20, 0x01,
  0x14, 0xd2, 0xdd, 0x30, 0x1d, 0x28, 0x1e, 0xef, 0xba, 0xc2, 0x06, 0xc2,
  0xe9, 0xfa, 0xbf, 0x1a, 0x22, 0x1a, 0xf8, 0xc3, 0xc9, 0xef, 0xe4, 0xbd,
  0xcc, 0xee, 0xc3, 0xe8, 0x0e, 0xb6, 0xef, 0xf9, 0xfe, 0xf8, 0xdb, 0x12,
  0xe4, 0xd8, 0x10, 0xf6, 0x0e, 0x28, 0x10, 0xe3, 0xea, 0x4a, 0xe7, 0xc0,
  0xff, 0x0f, 0x2c, 0x42, 0xb8, 0x01, 0x30, 0x2a, 0x31, 0x20, 0xd0, 0x08,
  0x01, 0x3b, 0xf6, 0x32, 0x07, 0xcf, 0xff, 0x0c, 0xc1, 0xee, 0xef, 0x0e,
  0xf7, 0xee, 0x2c, 0x12, 0xd4, 0xd0, 0x21, 0x1c, 0x0c, 0xe7, 0x18, 0x0d,
  0x4f, 0x23, 0x36, 0x4c, 0xdb, 0xef, 0x59, 0xf0, 0x43, 0x1b, 0x41, 0xce,
  0x6d, 0x0b, 0x39, 0xdc, 0xcf, 0xef, 0xd8, 0xfe, 0xde, 0x07, 0x06, 0x0e,
  0xe0, 0x16, 0x26, 0xd1, 0x2b, 0x14, 0xe9, 0x39, 0x19, 0x11, 0xc7, 0x25,
  0xf3, 0x31, 0xef, 0xdd, 0x05, 0xe8, 0x31, 0x22, 0xd4, 0x31, 0x1e, 0x28,
  0xe6, 0xd5, 0x1a, 0xcc, 0xd7, 0xca, 0x2a, 0x02, 0xd6, 0xf6, 0x19, 0x07,
  0xf8, 0xd7, 0x0f, 0x15, 0x31, 0xe8, 0x1a, 0x21, 0xd7, 0xec, 0xfd, 0x07,
  0x1c, 0x4f, 0x41, 0xe0, 0x65, 0x10, 0x13, 0x33, 0xea, 0x0d, 0xba, 0xde,
  0xf1, 0x4c, 0xbb, 0xfa, 0x31, 0xf8, 0xf0, 0xff, 0x18, 0x12, 0x45, 0xdf,
  0x46, 0x5f, 0x3a, 0xf7, 0x44, 0x03, 0x4a, 0x1f, 0x4f, 0x5b, 0xf7, 0x10,
  0x17, 0xd9, 0xc8, 0xe8, 0xd7, 0xfb, 0xec, 0xf6, 0xf1, 0x00, 0xda, 0xf3,
  0x03, 0xec, 0xec, 0x01, 0xd6, 0xdf, 0x05, 0x00, 0x1d, 0xcf, 0xe9, 0xe4,
  0xfe, 0xf6, 0xd3, 0xf6, 0x1a, 0xd0, 0xad, 0x08, 0xbf, 0xdb, 0x1c, 0x0a,
  0xcb, 0x0f, 0xd6, 0x1b, 0xe3, 0xc8, 0x04, 0x33, 0xf2, 0xf7, 0x2c, 0x1f,
  0xce, 0xd6, 0x09, 0x43, 0x49, 0xf7, 0x05, 0xe9, 0x29, 0xdd, 0x21, 0x15,
  0xc5, 0xff, 0xe6, 0x2d, 0x02, 0xee, 0xd4, 0x18, 0xc4, 0xfe, 0x17, 0x07,
  0xe6, 0xd8, 0xf2, 0xcb, 0xea, 0x02, 0xfb, 0x0d, 0x05, 0x00, 0x04, 0x32,
  0x66, 0xfc, 0xff, 0xff, 0x04, 0x00, 0x00, 0x00, 0x40, 0x00, 0x00, 0x00,
  0x6f, 0xff, 0xff, 0xff, 0xdd, 0xff, 0xff, 0xff, 0xf9, 0xfe, 0xff, 0xff,
  0xe4, 0xfe, 0xff, 0xff, 0xc7, 0x00, 0x00, 0x00, 0x7b, 0x00, 0x00, 0x00,
  0xb6, 0xfe, 0xff, 0xff, 0xe8, 0xff, 0xff, 0xff, 0x04, 0xff, 0xff, 0xff,
  0x40, 0xfe, 0xff, 0xff, 0x17, 0xff, 0xff, 0xff, 0x99, 0x00, 0x00, 0x00,
  0x8a, 0xff, 0xff, 0xff, 0x87, 0xff, 0xff, 0xff, 0xe5, 0xff, 0xff, 0xff,
  0xa4, 0xfe, 0xff, 0xff, 0xb2, 0xfc, 0xff, 0xff, 0x04, 0x00, 0x00, 0x00,
  0x00, 0x02, 0x00, 0x00, 0x7f, 0xfc, 0xe4, 0x32, 0xd2, 0x02, 0xce, 0xce,
  0x4c, 0xd0, 0x08, 0x0d, 0xce, 0xe2, 0xf9, 0x06, 0x07, 0x0c, 0x00, 0x20,
  0x3a, 0x49, 0xe3, 0x04, 0x58, 0xe9, 0xfc, 0x20, 0x02, 0xff, 0x0d, 0xf7,
  0xe8, 0x85, 0xee, 0x94, 0x1c, 0x21, 0x7f, 0x32, 0x22, 0xe2, 0xec, 0x1f,
  0x30, 0xb8, 0xf7, 0xd5, 0xe6, 0xb5, 0xe2, 0x2e, 0xf1, 0xef, 0x45, 0xee,
  0x14, 0xba, 0xbc, 0x18, 0x40, 0xab, 0x06, 0xba, 0x5f, 0x91, 0xec, 0x1a,
  0x28, 0x28, 0xeb, 0x7f, 0x44, 0x26, 0xf0, 0xd8, 0x1f, 0xf4, 0x2d, 0x09,
  0xd5, 0x10, 0xf3, 0xa2, 0x34, 0x95, 0xce, 0xed, 0xce, 0x15, 0xb2, 0xac,
  0x3e, 0xac, 0xdf, 0xea, 0x1a, 0xa3, 0x81, 0xa1, 0xbe, 0xcd, 0x2c, 0x63,
  0x31, 0xce, 0xea, 0xb8, 0x13, 0xe8, 0x46, 0x16, 0x3e, 0x2a, 0xec, 0xbe,
  0xd2, 0xea, 0x1a, 0x21, 0x0a, 0x12, 0xee, 0xf3, 0x46, 0xf5, 0xd2, 0xf8,
  0xcb, 0x89, 0xf3, 0xbe, 0xea, 0xff, 0x30, 0xc0, 0x81, 0xa7, 0xf2, 0x95,
  0xeb, 0xd3, 0x52, 0xa0, 0x51, 0x1a, 0xed, 0xc2, 0x3f, 0x0d, 0x8e, 0x18,
  0x40, 0xfe, 0xfb, 0xad, 0xba, 0x01, 0x77, 0xab, 0xc9, 0x7f, 0xf1, 0xe8,
  0xd7, 0xef, 0x0d, 0xbf, 0xa2, 0x3d, 0xed, 0x5b, 0xe8, 0x1a, 0xf4, 0x0e,
  0xcc, 0xf7, 0xf0, 0x08, 0xf5, 0xe5, 0x2a, 0xe8, 0xcd, 0x18, 0xf3, 0x3a,
  0xe7, 0x06, 0x11, 0x2b, 0x07, 0x9b, 0xf7, 0xe0, 0x1d, 0xc3, 0xb2, 0xfa,
  0xa9, 0x50, 0x90, 0xb3, 0x2c, 0x29, 0x61, 0xed, 0x72, 0xa4, 0xf5, 0x11,
  0xba, 0x0b, 0xa4, 0xf4, 0x7f, 0xf8, 0x50, 0xb5, 0xd7, 0x32, 0xe0, 0x03,
  0xb8, 0xed, 0x20, 0xf2, 0xc8, 0xdd, 0xe6, 0xe6, 0x8b, 0xd6, 0x17, 0xb6,
  0xc7, 0x81, 0x09, 0x15, 0xa8, 0xd1, 0x4b, 0xcf, 0xc3, 0xcd, 0xed, 0x1c,
  0xa8, 0xd6, 0xfe, 0xbf, 0x0c, 0xb1, 0x2c, 0x2e, 0xf1, 0x09, 0xf4, 0xe2,
  0xda, 0x7f, 0x0d, 0x2e, 0x1c, 0x0c, 0xdf, 0x23, 0x22, 0x16, 0x25, 0xf9,
  0xf8, 0x2b, 0x0a, 0x3b, 0xc6, 0xd0, 0xdf, 0xfb, 0xee, 0x24, 0x0b, 0x00,
  0x0e, 0x0e, 0xf6, 0x02, 0x2d, 0x35, 0x25, 0xe9, 0xb7, 0x34, 0xec, 0x7f,
  0xc3, 0xb5, 0xfb, 0x41, 0xee, 0x44, 0x2f, 0xe0, 0x55, 0x69, 0xc8, 0x52,
  0xbf, 0xf0, 0xfc, 0xee, 0xf6, 0x5e, 0xed, 0x5b, 0xd7, 0x1c, 0x25, 0x33,
  0xa3, 0xe1, 0x64, 0x1a, 0xe0, 0x27, 0xd7, 0x16, 0x9b, 0xd2, 0xac, 0x94,
  0xc9, 0xfe, 0x03, 0x07, 0x1d, 0xa6, 0xa9, 0xf2, 0x2f, 0xa0, 0x27, 0x00,
  0x11, 0x23, 0xda, 0xa6, 0xdf, 0x81, 0x70, 0x32, 0x88, 0xbc, 0xea, 0xab,
  0x25, 0x8d, 0xe6, 0x7f, 0xe4, 0x37, 0xd0, 0xd4, 0x4e, 0x9d, 0x11, 0x11,
  0xce, 0x2e, 0x0e, 0xe0, 0x44, 0x44, 0xc3, 0xe9, 0xe6, 0x0e, 0xd8, 0x09,
  0x3f, 0x19, 0xec, 0xa3, 0x00, 0x0f, 0xfe, 0x02, 0xcb, 0x32, 0xfb, 0x03,
  0x2b, 0x14, 0xa7, 0xc3, 0xca, 0x34, 0xb3, 0xd9, 0xd8, 0xd1, 0xc2, 0x1d,
  0x0a, 0xf2, 0x3b, 0x11, 0x7f, 0xda, 0x11, 0x33, 0x1c, 0xbc, 0xd0, 0xfb,
  0x3b, 0x44, 0xd2, 0xae, 0x0e, 0xfb, 0x94, 0xa0, 0x46, 0xde, 0xe9, 0xae,
  0xc5, 0xb2, 0xcf, 0xf8, 0x51, 0x4f, 0x08, 0xf1, 0xf2, 0xd8, 0x33, 0xca,
  0xdd, 0x34, 0x36, 0xf9, 0xa4, 0xda, 0x8b, 0x81, 0xbd, 0x7f, 0x16, 0x1b,
  0xb4, 0xe6, 0x02, 0xdf, 0x15, 0xe3, 0xf4, 0x19, 0x0f, 0xf5, 0xe8, 0xbc,
  0x18, 0x14, 0xdf, 0xdd, 0x0b, 0xde, 0x16, 0xe1, 0xf6, 0xcb, 0xf8, 0x08,
  0x2f, 0xc4, 0x04, 0xde, 0x93, 0x99, 0xf3, 0xdb, 0x9c, 0x51, 0xdd, 0x14,
  0x0c, 0xb4, 0x58, 0x3b, 0x9f, 0xe1, 0xe6, 0x0f, 0x49, 0xe2, 0xac, 0xaa,
  0x9f, 0x1d, 0x8c, 0x36, 0x33, 0xc7, 0xa1, 0x6b, 0x68, 0x7f, 0xd1, 0x07,
  0xbe, 0xfe, 0xff, 0xff, 0x04, 0x00, 0x00, 0x00, 0x20, 0x00, 0x00, 0x00,
  0xee, 0xff, 0xff, 0xff, 0x15, 0x00, 0x00, 0x00, 0xc4, 0xff, 0xff, 0xff,
  0xe4, 0xff, 0xff, 0xff, 0xe7, 0xff, 0xff, 0xff, 0xf9, 0xff, 0xff, 0xff,
  0xf4, 0xff, 0xff, 0xff, 0xc9, 0xff, 0xff, 0xff, 0xea, 0xfe, 0xff, 0xff,
  0x04, 0x00, 0x00, 0x00, 0x60, 0x00, 0x00, 0x00, 0xdf, 0x23, 0xe0, 0xfc,
  0xe6, 0x91, 0x81, 0x39, 0x0e, 0x14, 0x0a, 0x3b, 0x3a, 0x19, 0xc7, 0xf8,
  0xcb, 0xf6, 0xf7, 0xe7, 0x11, 0xf5, 0x81, 0xdc, 0x04, 0xfb, 0xe1, 0x8b,
  0x50, 0xc3, 0x2c, 0x36, 0xdc, 0x18, 0x19, 0x81, 0x1a, 0x81, 0xea, 0x35,
  0xfe, 0xeb, 0x48, 0x97, 0x92, 0x01, 0xd7, 0xd9, 0xe3, 0x35, 0x0d, 0xc0,
  0x32, 0xf0, 0x17, 0xbb, 0xf2, 0x81, 0x4c, 0xd3, 0x53, 0x7f, 0x30, 0xc3,
  0xb1, 0x17, 0x97, 0xbe, 0xc6, 0x2f, 0xa7, 0xf8, 0x07, 0x6e, 0x04, 0x39,
  0xe4, 0xfc, 0xfa, 0x81, 0xc4, 0x09, 0xea, 0x2a, 0x87, 0x42, 0xb4, 0x15,
  0x81, 0x7a, 0xd8, 0xdb, 0x7d, 0x94, 0xb8, 0xbf, 0x56, 0xff, 0xff, 0xff,
  0x04, 0x00, 0x00, 0x00, 0x08, 0x00, 0x00, 0x00, 0xff, 0xff, 0xff, 0xff,
  0x20, 0x00, 0x00, 0x00, 0xf0, 0xf1, 0xff, 0xff, 0xf4, 0xf1, 0xff, 0xff,
  0x0f, 0x00, 0x00, 0x00, 0x4d, 0x4c, 0x49, 0x52, 0x20, 0x43, 0x6f, 0x6e,
  0x76, 0x65, 0x72, 0x74, 0x65, 0x64, 0x2e, 0x00, 0x01, 0x00, 0x00, 0x00,
  0x14, 0x00, 0x00, 0x00, 0x00, 0x00, 0x0e, 0x00, 0x18, 0x00, 0x14, 0x00,
  0x10, 0x00, 0x0c, 0x00, 0x08, 0x00, 0x04, 0x00, 0x0e, 0x00, 0x00, 0x00,
  0x14, 0x00, 0x00, 0x00, 0x1c, 0x00, 0x00, 0x00, 0x58, 0x02, 0x00, 0x00,
  0x5c, 0x02, 0x00, 0x00, 0x60, 0x02, 0x00, 0x00, 0x04, 0x00, 0x00, 0x00,
  0x6d, 0x61, 0x69, 0x6e, 0x00, 0x00, 0x00, 0x00, 0x08, 0x00, 0x00, 0x00,
  0xf4, 0x01, 0x00, 0x00, 0x90, 0x01, 0x00, 0x00, 0x40, 0x01, 0x00, 0x00,
  0xf0, 0x00, 0x00, 0x00, 0xc8, 0x00, 0x00, 0x00, 0x78, 0x00, 0x00, 0x00,
  0x40, 0x00, 0x00, 0x00, 0x04, 0x00, 0x00, 0x00, 0x9a, 0xfe, 0xff, 0xff,
  0x1c, 0x00, 0x00, 0x00, 0x00, 0x00, 0x00, 0x09, 0x1c, 0x00, 0x00, 0x00,
  0x20, 0x00, 0x00, 0x00, 0x04, 0x00, 0x00, 0x00, 0x00, 0x00, 0x06, 0x00,
  0x08, 0x00, 0x04, 0x00, 0x06, 0x00, 0x00, 0x00, 0x00, 0x00, 0x80, 0x3f,
  0x01, 0x00, 0x00, 0x00, 0x11, 0x00, 0x00, 0x00, 0x01, 0x00, 0x00, 0x00,
  0x10, 0x00, 0x00, 0x00, 0xd2, 0xfe, 0xff, 0xff, 0x14, 0x00, 0x00, 0x00,
  0x00, 0x00, 0x00, 0x08, 0x10, 0x00, 0x00, 0x00, 0x14, 0x00, 0x00, 0x00,
  0x03, 0x00, 0x00, 0x00, 0xbc, 0xf2, 0xff, 0xff, 0x01, 0x00, 0x00, 0x00,
  0x10, 0x00, 0x00, 0x00, 0x03, 0x00, 0x00, 0x00, 0x0f, 0x00, 0x00, 0x00,
  0x08, 0x00, 0x00, 0x00, 0x09, 0x00, 0x00, 0x00, 0x06, 0xff, 0xff, 0xff,
  0x1c, 0x00, 0x00, 0x00, 0x00, 0x00, 0x00, 0x08, 0x1c, 0x00, 0x00, 0x00,
  0x20, 0x00, 0x00, 0x00, 0x03, 0x00, 0x00, 0x00, 0x00, 0x00, 0x06, 0x00,
  0x08, 0x00, 0x07, 0x00, 0x06, 0x00, 0x00, 0x00, 0x00, 0x00, 0x00, 0x01,
  0x01, 0x00, 0x00, 0x00, 0x0f, 0x00, 0x00, 0x00, 0x03, 0x00, 0x00, 0x00,
  0x0e, 0x00, 0x00, 0x00, 0x06, 0x00, 0x00, 0x00, 0x07, 0x00, 0x00, 0x00,
  0x00, 0x00, 0x0a, 0x00, 0x10, 0x00, 0x0c, 0x00, 0x08, 0x00, 0x04, 0x00,
  0x0a, 0x00, 0x00, 0x00, 0x0c, 0x00, 0x00, 0x00, 0x10, 0x00, 0x00, 0x00,
  0x02, 0x00, 0x00, 0x00, 0x01, 0x00, 0x00, 0x00, 0x0e, 0x00, 0x00, 0x00,
  0x02, 0x00, 0x00, 0x00, 0x0d, 0x00, 0x00, 0x00, 0x01, 0x00, 0x00, 0x00,
  0x76, 0xff, 0xff, 0xff, 0x24, 0x00, 0x00, 0x00, 0x00, 0x00, 0x00, 0x05,
  0x30, 0x00, 0x00, 0x00, 0x34, 0x00, 0x00, 0x00, 0x01, 0x00, 0x00, 0x00,
  0x00, 0x00, 0x0e, 0x00, 0x14, 0x00, 0x00, 0x00, 0x10, 0x00, 0x0c, 0x00,
  0x08, 0x00, 0x04, 0x00, 0x0e, 0x00, 0x00, 0x00, 0x03, 0x00, 0x00, 0x00,
  0x01, 0x00, 0x00, 0x00, 0x03, 0x00, 0x00, 0x00, 0x01, 0x00, 0x00, 0x00,
  0x01, 0x00, 0x00, 0x00, 0x0d, 0x00, 0x00, 0x00, 0x01, 0x00, 0x00, 0x00,
  0x0c, 0x00, 0x00, 0x00, 0x62, 0xff, 0xff, 0xff, 0x10, 0x00, 0x00, 0x00,
  0x00, 0x00, 0x00, 0x01, 0x18, 0x00, 0x00, 0x00, 0x1c, 0x00, 0x00, 0x00,
  0x54, 0xff, 0xff, 0xff, 0x00, 0x00, 0x00, 0x01, 0x01, 0x00, 0x00, 0x00,
  0x01, 0x00, 0x00, 0x00, 0x01, 0x00, 0x00, 0x00, 0x0c, 0x00, 0x00, 0x00,
  0x03, 0x00, 0x00, 0x00, 0x0b, 0x00, 0x00, 0x00, 0x04, 0x00, 0x00, 0x00,
  0x05, 0x00, 0x00, 0x00, 0x00, 0x00, 0x0e, 0x00, 0x1a, 0x00, 0x14, 0x00,
  0x10, 0x00, 0x0c, 0x00, 0x0b, 0x00, 0x04, 0x00, 0x0e, 0x00, 0x00, 0x00,
  0x24, 0x00, 0x00, 0x00, 0x00, 0x00, 0x00, 0x05, 0x34, 0x00, 0x00, 0x00,
  0x38, 0x00, 0x00, 0x00, 0x01, 0x00, 0x00, 0x00, 0x00, 0x00, 0x0e, 0x00,
  0x18, 0x00, 0x17, 0x00, 0x10, 0x00, 0x0c, 0x00, 0x08, 0x00, 0x04, 0x00,
  0x0e, 0x00, 0x00, 0x00, 0x03, 0x00, 0x00, 0x00, 0x03, 0x00, 0x00, 0x00,
  0x03, 0x00, 0x00, 0x00, 0x03, 0x00, 0x00, 0x00, 0x00, 0x00, 0x00, 0x01,
  0x01, 0x00, 0x00, 0x00, 0x0b, 0x00, 0x00, 0x00, 0x01, 0x00, 0x00, 0x00,
  0x0a, 0x00, 0x00, 0x00, 0x00, 0x00, 0x0e, 0x00, 0x14, 0x00, 0x00, 0x00,
  0x10, 0x00, 0x0c, 0x00, 0x0b, 0x00, 0x04, 0x00, 0x0e, 0x00, 0x00, 0x00,
  0x1c, 0x00, 0x00, 0x00, 0x00, 0x00, 0x00, 0x01, 0x24, 0x00, 0x00, 0x00,
  0x28, 0x00, 0x00, 0x00, 0x0c, 0x00, 0x10, 0x00, 0x00, 0x00, 0x0c, 0x00,
  0x08, 0x00, 0x07, 0x00, 0x0c, 0x00, 0x00, 0x00, 0x00, 0x00, 0x00, 0x01,
  0x01, 0x00, 0x00, 0x00, 0x01, 0x00, 0x00, 0x00, 0x01, 0x00, 0x00, 0x00,
  0x0a, 0x00, 0x00, 0x00, 0x03, 0x00, 0x00, 0x00, 0x00, 0x00, 0x00, 0x00,
  0x02, 0x00, 0x00, 0x00, 0x03, 0x00, 0x00, 0x00, 0x01, 0x00, 0x00, 0x00,
  0x11, 0x00, 0x00, 0x00, 0x01, 0x00, 0x00, 0x00, 0x00, 0x00, 0x00, 0x00,
  0x12, 0x00, 0x00, 0x00, 0xac, 0x0b, 0x00, 0x00, 0x48, 0x0b, 0x00, 0x00,
  0x70, 0x0a, 0x00, 0x00, 0x9c, 0x09, 0x00, 0x00, 0x70, 0x08, 0x00, 0x00,
  0x3c, 0x07, 0x00, 0x00, 0xd0, 0x06, 0x00, 0x00, 0x4c, 0x06, 0x00, 0x00,
  0xe0, 0x05, 0x00, 0x00, 0x5c, 0x05, 0x00, 0x00, 0x60, 0x04, 0x00, 0x00,
  0xcc, 0x03, 0x00, 0x00, 0xd0, 0x02, 0x00, 0x00, 0x3c, 0x02, 0x00, 0x00,
  0xc0, 0x01, 0x00, 0x00, 0x0c, 0x01, 0x00, 0x00, 0x70, 0x00, 0x00, 0x00,
  0x04, 0x00, 0x00, 0x00, 0xb0, 0xf4, 0xff, 0xff, 0x18, 0x00, 0x00, 0x00,
  0x20, 0x00, 0x00, 0x00, 0x40, 0x00, 0x00, 0x00, 0x12, 0x00, 0x00, 0x00,
  0x00, 0x00, 0x00, 0x09, 0x44, 0x00, 0x00, 0x00, 0x02, 0x00, 0x00, 0x00,
  0xff, 0xff, 0xff, 0xff, 0x06, 0x00, 0x00, 0x00, 0x94, 0xf4, 0xff, 0xff,
  0x08, 0x00, 0x00, 0x00, 0x14, 0x00, 0x00, 0x00, 0x01, 0x00, 0x00, 0x00,
  0x80, 0xff, 0xff, 0xff, 0xff, 0xff, 0xff, 0xff, 0x00, 0x00, 0x00, 0x00,
  0x01, 0x00, 0x00, 0x00, 0x00, 0x00, 0x80, 0x3b, 0x08, 0x00, 0x00, 0x00,
  0x49, 0x64, 0x65, 0x6e, 0x74, 0x69, 0x74, 0x79, 0x00, 0x00, 0x00, 0x00,
  0x02, 0x00, 0x00, 0x00, 0x01, 0x00, 0x00, 0x00, 0x06, 0x00, 0x00, 0x00,
  0x18, 0xf5, 0xff, 0xff, 0x18, 0x00, 0x00, 0x00, 0x20, 0x00, 0x00, 0x00,
  0x40, 0x00, 0x00, 0x00, 0x11, 0x00, 0x00, 0x00, 0x00, 0x00, 0x00, 0x09,
  0x74, 0x00, 0x00, 0x00, 0x02, 0x00, 0x00, 0x00, 0xff, 0xff, 0xff, 0xff,
  0x06, 0x00, 0x00, 0x00, 0xfc, 0xf4, 0xff, 0xff, 0x08, 0x00, 0x00, 0x00,
  0x14, 0x00, 0x00, 0x00, 0x01, 0x00, 0x00, 0x00, 0xd8, 0xff, 0xff, 0xff,
  0xff, 0xff, 0xff, 0xff, 0x00, 0x00, 0x00, 0x00, 0x01, 0x00, 0x00, 0x00,
  0x6d, 0x9f, 0x05, 0x3f, 0x38, 0x00, 0x00, 0x00, 0x73, 0x65, 0x71, 0x75,
  0x65, 0x6e, 0x74, 0x69, 0x61, 0x6c, 0x5f, 0x31, 0x2f, 0x64, 0x65, 0x6e,
  0x73, 0x65, 0x5f, 0x33, 0x2f, 0x4d, 0x61, 0x74, 0x4d, 0x75, 0x6c, 0x3b,
  0x73, 0x65, 0x71, 0x75, 0x65, 0x6e, 0x74, 0x69, 0x61, 0x6c, 0x5f, 0x31,
  0x2f, 0x64, 0x65, 0x6e, 0x73, 0x65, 0x5f, 0x33, 0x2f, 0x42, 0x69, 0x61,
  0x73, 0x41, 0x64, 0x64, 0x00, 0x00, 0x00, 0x00, 0x02, 0x00, 0x00, 0x00,
  0x01, 0x00, 0x00, 0x00, 0x06, 0x00, 0x00, 0x00, 0xb0, 0xf5, 0xff, 0xff,
  0x18, 0x00, 0x00, 0x00, 0x20, 0x00, 0x00, 0x00, 0x40, 0x00, 0x00, 0x00,
  0x10, 0x00, 0x00, 0x00, 0x00, 0x00, 0x00, 0x09, 0x8c, 0x00, 0x00, 0x00,
  0x02, 0x00, 0x00, 0x00, 0xff, 0xff, 0xff, 0xff, 0x10, 0x00, 0x00, 0x00,
  0x94, 0xf5, 0xff, 0xff, 0x08, 0x00, 0x00, 0x00, 0x14, 0x00, 0x00, 0x00,
  0x01, 0x00, 0x00, 0x00, 0x80, 0xff, 0xff, 0xff, 0xff, 0xff, 0xff, 0xff,
  0x00, 0x00, 0x00, 0x00, 0x01, 0x00, 0x00, 0x00, 0xd9, 0xce, 0xba, 0x3e,
  0x52, 0x00, 0x00, 0x00, 0x73, 0x65, 0x71, 0x75, 0x65, 0x6e, 0x74, 0x69,
  0x61, 0x6c, 0x5f, 0x31, 0x2f, 0x64, 0x65, 0x6e, 0x73, 0x65, 0x5f, 0x32,
  0x2f, 0x4d, 0x61, 0x74, 0x4d, 0x75, 0x6c, 0x3b, 0x73, 0x65, 0x71, 0x75,
  0x65, 0x6e, 0x74, 0x69, 0x61, 0x6c, 0x5f, 0x31, 0x2f, 0x64, 0x65, 0x6e,
  0x73, 0x65, 0x5f, 0x32, 0x2f, 0x52, 0x65, 0x6c, 0x75, 0x3b, 0x73, 0x65,
  0x71, 0x75, 0x65, 0x6e, 0x74, 0x69, 0x61, 0x6c, 0x5f, 0x31, 0x2f, 0x64,
  0x65, 0x6e, 0x73, 0x65, 0x5f, 0x32, 0x2f, 0x42, 0x69, 0x61, 0x73, 0x41,
  0x64, 0x64, 0x00, 0x00, 0x02, 0x00, 0x00, 0x00, 0x01, 0x00, 0x00, 0x00,
  0x10, 0x00, 0x00, 0x00, 0x60, 0xf6, 0xff, 0xff, 0x18, 0x00, 0x00, 0x00,
  0x20, 0x00, 0x00, 0x00, 0x3c, 0x00, 0x00, 0x00, 0x0f, 0x00, 0x00, 0x00,
  0x00, 0x00, 0x00, 0x09, 0x54, 0x00, 0x00, 0x00, 0x02, 0x00, 0x00, 0x00,
  0xff, 0xff, 0xff, 0xff, 0x20, 0x00, 0x00, 0x00, 0x44, 0xf6, 0xff, 0xff,
  0x08, 0x00, 0x00, 0x00, 0x10, 0x00, 0x00, 0x00, 0x01, 0x00, 0x00, 0x00,
  0x80, 0xff, 0xff, 0xff, 0xff, 0xff, 0xff, 0xff, 0x01, 0x00, 0x00, 0x00,
  0x64, 0xc2, 0xa5, 0x3e, 0x1e, 0x00, 0x00, 0x00, 0x73, 0x65, 0x71, 0x75,
  0x65, 0x6e, 0x74, 0x69, 0x61, 0x6c, 0x5f, 0x31, 0x2f, 0x66, 0x6c, 0x61,
  0x74, 0x74, 0x65, 0x6e, 0x5f, 0x31, 0x2f, 0x52, 0x65, 0x73, 0x68, 0x61,
  0x70, 0x65, 0x00, 0x00, 0x02, 0x00, 0x00, 0x00, 0x01, 0x00, 0x00, 0x00,
  0x20, 0x00, 0x00, 0x00, 0xd8, 0xf6, 0xff, 0xff, 0x18, 0x00, 0x00, 0x00,
  0x28, 0x00, 0x00, 0x00, 0x44, 0x00, 0x00, 0x00, 0x0e, 0x00, 0x00, 0x00,
  0x00, 0x00, 0x00, 0x09, 0x64, 0x00, 0x00, 0x00, 0x04, 0x00, 0x00, 0x00,
  0xff, 0xff, 0xff, 0xff, 0x01, 0x00, 0x00, 0x00, 0x02, 0x00, 0x00, 0x00,
  0x10, 0x00, 0x00, 0x00, 0xc4, 0xf6, 0xff, 0xff, 0x08, 0x00, 0x00, 0x00,
  0x10, 0x00, 0x00, 0x00, 0x01, 0x00, 0x00, 0x00, 0x80, 0xff, 0xff, 0xff,
  0xff, 0xff, 0xff, 0xff, 0x01, 0x00, 0x00, 0x00, 0x64, 0xc2, 0xa5, 0x3e,
  0x24, 0x00, 0x00, 0x00, 0x73, 0x65, 0x71, 0x75, 0x65, 0x6e, 0x74, 0x69,
  0x61, 0x6c, 0x5f, 0x31, 0x2f, 0x6d, 0x61, 0x78, 0x5f, 0x70, 0x6f, 0x6f,
  0x6c, 0x69, 0x6e, 0x67, 0x32, 0x64, 0x5f, 0x33, 0x2f, 0x4d, 0x61, 0x78,
  0x50, 0x6f, 0x6f, 0x6c, 0x00, 0x00, 0x00, 0x00, 0x04, 0x00, 0x00, 0x00,
  0x01, 0x00, 0x00, 0x00, 0x01, 0x00, 0x00, 0x00, 0x02, 0x00, 0x00, 0x00,
  0x10, 0x00, 0x00, 0x00, 0x68, 0xf7, 0xff, 0xff, 0x18, 0x00, 0x00, 0x00,
  0x28, 0x00, 0x00, 0x00, 0x48, 0x00, 0x00, 0x00, 0x0d, 0x00, 0x00, 0x00,
  0x00, 0x00, 0x00, 0x09, 0xcc, 0x00, 0x00, 0x00, 0x04, 0x00, 0x00, 0x00,
  0xff, 0xff, 0xff, 0xff, 0x03, 0x00, 0x00, 0x00, 0x02, 0x00, 0x00, 0x00,
  0x10, 0x00, 0x00, 0x00, 0x54, 0xf7, 0xff, 0xff, 0x08, 0x00, 0x00, 0x00,
  0x14, 0x00, 0x00, 0x00, 0x01, 0x00, 0x00, 0x00, 0x80, 0xff, 0xff, 0xff,
  0xff, 0xff, 0xff, 0xff, 0x00, 0x00, 0x00, 0x00, 0x01, 0x00, 0x00, 0x00,
  0x64, 0xc2, 0xa5, 0x3e, 0x8b, 0x00, 0x00, 0x00, 0x73, 0x65, 0x71, 0x75,
  0x65, 0x6e, 0x74, 0x69, 0x61, 0x6c, 0x5f, 0x31, 0x2f, 0x63, 0x6f, 0x6e,
  0x76, 0x32, 0x64, 0x5f, 0x33, 0x2f, 0x52, 0x65, 0x6c, 0x75, 0x3b, 0x73,
  0x65, 0x71, 0x75, 0x65, 0x6e, 0x74, 0x69, 0x61, 0x6c, 0x5f, 0x31, 0x2f,
  0x63, 0x6f, 0x6e, 0x76, 0x32, 0x64, 0x5f, 0x33, 0x2f, 0x42, 0x69, 0x61,
  0x73, 0x41, 0x64, 0x64, 0x3b, 0x73, 0x65, 0x71, 0x75, 0x65, 0x6e, 0x74,
  0x69, 0x61, 0x6c, 0x5f, 0x31, 0x2f, 0x63, 0x6f, 0x6e, 0x76, 0x32, 0x64,
  0x5f, 0x33, 0x2f, 0x43, 0x6f, 0x6e, 0x76, 0x32, 0x44, 0x3b, 0x73, 0x65,
  0x71, 0x75, 0x65, 0x6e, 0x74, 0x69, 0x61, 0x6c, 0x5f, 0x31, 0x2f, 0x63,
  0x6f, 0x6e, 0x76, 0x32, 0x64, 0x5f, 0x33, 0x2f, 0x42, 0x69, 0x61, 0x73,
  0x41, 0x64, 0x64, 0x2f, 0x52, 0x65, 0x61, 0x64, 0x56, 0x61, 0x72, 0x69,
  0x61, 0x62, 0x6c, 0x65, 0x4f, 0x70, 0x2f, 0x72, 0x65, 0x73, 0x6f, 0x75,
  0x72, 0x63, 0x65, 0x00, 0x04, 0x00, 0x00, 0x00, 0x01, 0x00, 0x00, 0x00,
  0x03, 0x00, 0x00, 0x00, 0x02, 0x00, 0x00, 0x00, 0x10, 0x00, 0x00, 0x00,
  0x60, 0xf8, 0xff, 0xff, 0x18, 0x00, 0x00, 0x00, 0x28, 0x00, 0x00, 0x00,
  0x44, 0x00, 0x00, 0x00, 0x0c, 0x00, 0x00, 0x00, 0x00, 0x00, 0x00, 0x09,
  0x64, 0x00, 0x00, 0x00, 0x04, 0x00, 0x00, 0x00, 0xff, 0xff, 0xff, 0xff,
  0x03, 0x00, 0x00, 0x00, 0x02, 0x00, 0x00, 0x00, 0x08, 0x00, 0x00, 0x00,
  0x4c, 0xf8, 0xff, 0xff, 0x08, 0x00, 0x00, 0x00, 0x10, 0x00, 0x00, 0x00,
  0x01, 0x00, 0x00, 0x00, 0x80, 0xff, 0xff, 0xff, 0xff, 0xff, 0xff, 0xff,
  0x01, 0x00, 0x00, 0x00, 0xb6, 0xc9, 0x0e, 0x3f, 0x24, 0x00, 0x00, 0x00,
  0x73, 0x65, 0x71, 0x75, 0x65, 0x6e, 0x74, 0x69, 0x61, 0x6c, 0x5f, 0x31,
  0x2f, 0x6d, 0x61, 0x78, 0x5f, 0x70, 0x6f, 0x6f, 0x6c, 0x69, 0x6e, 0x67,
  0x32, 0x64, 0x5f, 0x32, 0x2f, 0x4d, 0x61, 0x78, 0x50, 0x6f, 0x6f, 0x6c,
  0x00, 0x00, 0x00, 0x00, 0x04, 0x00, 0x00, 0x00, 0x01, 0x00, 0x00, 0x00,
  0x03, 0x00, 0x00, 0x00, 0x02, 0x00, 0x00, 0x00, 0x08, 0x00, 0x00, 0x00,
  0xf0, 0xf8, 0xff, 0xff, 0x18, 0x00, 0x00, 0x00, 0x28, 0x00, 0x00, 0x00,
  0x48, 0x00, 0x00, 0x00, 0x0b, 0x00, 0x00, 0x00, 0x00, 0x00, 0x00, 0x09,
  0xcc, 0x00, 0x00, 0x00, 0x04, 0x00, 0x00, 0x00, 0xff, 0xff, 0xff, 0xff,
  0x0a, 0x00, 0x00, 0x00, 0x06, 0x00, 0x00, 0x00, 0x08, 0x00, 0x00, 0x00,
  0xdc, 0xf8, 0xff, 0xff, 0x08, 0x00, 0x00, 0x00, 0x14, 0x00, 0x00, 0x00,
  0x01, 0x00, 0x00, 0x00, 0x80, 0xff, 0xff, 0xff, 0xff, 0xff, 0xff, 0xff,
  0x00, 0x00, 0x00, 0x00, 0x01, 0x00, 0x00, 0x00, 0xb6, 0xc9, 0x0e, 0x3f,
  0x8b, 0x00, 0x00, 0x00, 0x73, 0x65, 0x71, 0x75, 0x65, 0x6e, 0x74, 0x69,
  0x61, 0x6c, 0x5f, 0x31, 0x2f, 0x63, 0x6f, 0x6e, 0x76, 0x32, 0x64, 0x5f,
  0x32, 0x2f, 0x52, 0x65, 0x6c, 0x75, 0x3b, 0x73, 0x65, 0x71, 0x75, 0x65,
  0x6e, 0x74, 0x69, 0x61, 0x6c, 0x5f, 0x31, 0x2f, 0x63, 0x6f, 0x6e, 0x76,
  0x32, 0x64, 0x5f, 0x32, 0x2f, 0x42, 0x69, 0x61, 0x73, 0x41, 0x64, 0x64,
  0x3b, 0x73, 0x65, 0x71, 0x75, 0x65, 0x6e, 0x74, 0x69, 0x61, 0x6c, 0x5f,
  0x31, 0x2f, 0x63, 0x6f, 0x6e, 0x76, 0x32, 0x64, 0x5f, 0x32, 0x2f, 0x43,
  0x6f, 0x6e, 0x76, 0x32, 0x44, 0x3b, 0x73, 0x65, 0x71, 0x75, 0x65, 0x6e,
  0x74, 0x69, 0x61, 0x6c, 0x5f, 0x31, 0x2f, 0x63, 0x6f, 0x6e, 0x76, 0x32,
  0x64, 0x5f, 0x32, 0x2f, 0x42, 0x69, 0x61, 0x73, 0x41, 0x64, 0x64, 0x2f,
  0x52, 0x65, 0x61, 0x64, 0x56, 0x61, 0x72, 0x69, 0x61, 0x62, 0x6c, 0x65,
  0x4f, 0x70, 0x2f, 0x72, 0x65, 0x73, 0x6f, 0x75, 0x72, 0x63, 0x65, 0x00,
  0x04, 0x00, 0x00, 0x00, 0x01, 0x00, 0x00, 0x00, 0x0a, 0x00, 0x00, 0x00,
  0x06, 0x00, 0x00, 0x00, 0x08, 0x00, 0x00, 0x00, 0x42, 0xfa, 0xff, 0xff,
  0x14, 0x00, 0x00, 0x00, 0x34, 0x00, 0x00, 0x00, 0x0a, 0x00, 0x00, 0x00,
  0x00, 0x00, 0x00, 0x02, 0x64, 0x00, 0x00, 0x00, 0xbc, 0xf9, 0xff, 0xff,
  0x08, 0x00, 0x00, 0x00, 0x14, 0x00, 0x00, 0x00, 0x01, 0x00, 0x00, 0x00,
  0x00, 0x00, 0x00, 0x00, 0x00, 0x00, 0x00, 0x00, 0x00, 0x00, 0x00, 0x00,
  0x01, 0x00, 0x00, 0x00, 0x52, 0x77, 0xf9, 0x3a, 0x34, 0x00, 0x00, 0x00,
  0x73, 0x65, 0x71, 0x75, 0x65, 0x6e, 0x74, 0x69, 0x61, 0x6c, 0x5f, 0x31,
  0x2f, 0x64, 0x65, 0x6e, 0x73, 0x65, 0x5f, 0x33, 0x2f, 0x42, 0x69, 0x61,
  0x73, 0x41, 0x64, 0x64, 0x2f, 0x52, 0x65, 0x61, 0x64, 0x56, 0x61, 0x72,
  0x69, 0x61, 0x62, 0x6c, 0x65, 0x4f, 0x70, 0x2f, 0x72, 0x65, 0x73, 0x6f,
  0x75, 0x72, 0x63, 0x65, 0x00, 0x00, 0x00, 0x00, 0x01, 0x00, 0x00, 0x00,
  0x06, 0x00, 0x00, 0x00, 0xc2, 0xfa, 0xff, 0xff, 0x14, 0x00, 0x00, 0x00,
  0x34, 0x00, 0x00, 0x00, 0x09, 0x00, 0x00, 0x00, 0x00, 0x00, 0x00, 0x09,
  0x48, 0x00, 0x00, 0x00, 0x3c, 0xfa, 0xff, 0xff, 0x08, 0x00, 0x00, 0x00,
  0x14, 0x00, 0x00, 0x00, 0x01, 0x00, 0x00, 0x00, 0x00, 0x00, 0x00, 0x00,
  0x00, 0x00, 0x00, 0x00, 0x00, 0x00, 0x00, 0x00, 0x01, 0x00, 0x00, 0x00,
  0xdc, 0xee, 0xaa, 0x3b, 0x1b, 0x00, 0x00, 0x00, 0x73, 0x65, 0x71, 0x75,
  0x65, 0x6e, 0x74, 0x69, 0x61, 0x6c, 0x5f, 0x31, 0x2f, 0x64, 0x65, 0x6e,
  0x73, 0x65, 0x5f, 0x33, 0x2f, 0x4d, 0x61, 0x74, 0x4d, 0x75, 0x6c, 0x00,
  0x02, 0x00, 0x00, 0x00, 0x06, 0x00, 0x00, 0x00, 0x10, 0x00, 0x00, 0x00,
  0x2a, 0xfb, 0xff, 0xff, 0x14, 0x00, 0x00, 0x00, 0x34, 0x00, 0x00, 0x00,
  0x08, 0x00, 0x00, 0x00, 0x00, 0x00, 0x00, 0x02, 0x64, 0x00, 0x00, 0x00,
  0xa4, 0xfa, 0xff, 0xff, 0x08, 0x00, 0x00, 0x00, 0x14, 0x00, 0x00, 0x00,
  0x01, 0x00, 0x00, 0x00, 0x00, 0x00, 0x00, 0x00, 0x00, 0x00, 0x00, 0x00,
  0x00, 0x00, 0x00, 0x00, 0x01, 0x00, 0x00, 0x00, 0x51, 0xd4, 0xe4, 0x3a,
  0x34, 0x00, 0x00, 0x00, 0x73, 0x65, 0x71, 0x75, 0x65, 0x6e, 0x74, 0x69,
  0x61, 0x6c, 0x5f, 0x31, 0x2f, 0x64, 0x65, 0x6e, 0x73, 0x65, 0x5f, 0x32,
  0x2f, 0x42, 0x69, 0x61, 0x73, 0x41, 0x64, 0x64, 0x2f, 0x52, 0x65, 0x61,
  0x64, 0x56, 0x61, 0x72, 0x69, 0x61, 0x62, 0x6c, 0x65, 0x4f, 0x70, 0x2f,
  0x72, 0x65, 0x73, 0x6f, 0x75, 0x72, 0x63, 0x65, 0x00, 0x00, 0x00, 0x00,
  0x01, 0x00, 0x00, 0x00, 0x10, 0x00, 0x00, 0x00, 0xaa, 0xfb, 0xff, 0xff,
  0x14, 0x00, 0x00, 0x00, 0x34, 0x00, 0x00, 0x00, 0x07, 0x00, 0x00, 0x00,
  0x00, 0x00, 0x00, 0x09, 0x48, 0x00, 0x00, 0x00, 0x24, 0xfb, 0xff, 0xff,
  0x08, 0x00, 0x00, 0x00, 0x14, 0x00, 0x00, 0x00, 0x01, 0x00, 0x00, 0x00,
  0x00, 0x00, 0x00, 0x00, 0x00, 0x00, 0x00, 0x00, 0x00, 0x00, 0x00, 0x00,
  0x01, 0x00, 0x00, 0x00, 0xf2, 0xb3, 0xb0, 0x3b, 0x1b, 0x00, 0x00, 0x00,
  0x73, 0x65, 0x71, 0x75, 0x65, 0x6e, 0x74, 0x69, 0x61, 0x6c, 0x5f, 0x31,
  0x2f, 0x64, 0x65, 0x6e, 0x73, 0x65, 0x5f, 0x32, 0x2f, 0x4d, 0x61, 0x74,
  0x4d, 0x75, 0x6c, 0x00, 0x02, 0x00, 0x00, 0x00, 0x10, 0x00, 0x00, 0x00,
  0x20, 0x00, 0x00, 0x00, 0x12, 0xfc, 0xff, 0xff, 0x14, 0x00, 0x00, 0x00,
  0xe4, 0x00, 0x00, 0x00, 0x06, 0x00, 0x00, 0x00, 0x00, 0x00, 0x00, 0x02,
  0x14, 0x01, 0x00, 0x00, 0x8c, 0xfb, 0xff, 0xff, 0x08, 0x00, 0x00, 0x00,
  0x88, 0x00, 0x00, 0x00, 0x10, 0x00, 0x00, 0x00, 0x00, 0x00, 0x00, 0x00,
  0x00, 0x00, 0x00, 0x00, 0x00, 0x00, 0x00, 0x00, 0x00, 0x00, 0x00, 0x00,
  0x00, 0x00, 0x00, 0x00, 0x00, 0x00, 0x00, 0x00, 0x00, 0x00, 0x00, 0x00,
  0x00, 0x00, 0x00, 0x00, 0x00, 0x00, 0x00, 0x00, 0x00, 0x00, 0x00, 0x00,
  0x00, 0x00, 0x00, 0x00, 0x00, 0x00, 0x00, 0x00, 0x00, 0x00, 0x00, 0x00,
  0x00, 0x00, 0x00, 0x00, 0x00, 0x00, 0x00, 0x00, 0x00, 0x00, 0x00, 0x00,
  0x00, 0x00, 0x00, 0x00, 0x00, 0x00, 0x00, 0x00, 0x00, 0x00, 0x00, 0x00,
  0x00, 0x00, 0x00, 0x00, 0x00, 0x00, 0x00, 0x00, 0x00, 0x00, 0x00, 0x00,
  0x00, 0x00, 0x00, 0x00, 0x00, 0x00, 0x00, 0x00, 0x00, 0x00, 0x00, 0x00,
  0x00, 0x00, 0x00, 0x00, 0x00, 0x00, 0x00, 0x00, 0x00, 0x00, 0x00, 0x00,
  0x00, 0x00, 0x00, 0x00, 0x00, 0x00, 0x00, 0x00, 0x00, 0x00, 0x00, 0x00,
  0x00, 0x00, 0x00, 0x00, 0x10, 0x00, 0x00, 0x00, 0xb5, 0x6d, 0x07, 0x3b,
  0xf5, 0xdc, 0xb9, 0x3a, 0x1b, 0x64, 0xcc, 0x3a, 0x38, 0x48, 0xda, 0x3a,
  0xba, 0x13, 0xc4, 0x3a, 0x7d, 0xd3, 0x11, 0x3b, 0x9d, 0xd8, 0xad, 0x3a,
  0x2d, 0x17, 0xdf, 0x3a, 0xf0, 0xab, 0x19, 0x3b, 0x86, 0xea, 0xaf, 0x3a,
  0xce, 0x16, 0xa8, 0x3a, 0x5a, 0x32, 0xd0, 0x3a, 0x57, 0x99, 0x06, 0x3b,
  0x5d, 0xbc, 0xaf, 0x3a, 0x16, 0xe8, 0x19, 0x3b, 0xe8, 0xa9, 0x91, 0x3a,
  0x35, 0x00, 0x00, 0x00, 0x73, 0x65, 0x71, 0x75, 0x65, 0x6e, 0x74, 0x69,
  0x61, 0x6c, 0x5f, 0x31, 0x2f, 0x63, 0x6f, 0x6e, 0x76, 0x32, 0x64, 0x5f,
  0x33, 0x2f, 0x42, 0x69, 0x61, 0x73, 0x41, 0x64, 0x64, 0x2f, 0x52, 0x65,
  0x61, 0x64, 0x56, 0x61, 0x72, 0x69, 0x61, 0x62, 0x6c, 0x65, 0x4f, 0x70,
  0x2f, 0x72, 0x65, 0x73, 0x6f, 0x75, 0x72, 0x63, 0x65, 0x00, 0x00, 0x00,
  0x01, 0x00, 0x00, 0x00, 0x10, 0x00, 0x00, 0x00, 0x42, 0xfd, 0xff, 0xff,
  0x14, 0x00, 0x00, 0x00, 0xe8, 0x00, 0x00, 0x00, 0x05, 0x00, 0x00, 0x00,
  0x00, 0x00, 0x00, 0x09, 0x00, 0x01, 0x00, 0x00, 0xbc, 0xfc, 0xff, 0xff,
  0x08, 0x00, 0x00, 0x00, 0x8c, 0x00, 0x00, 0x00, 0x10, 0x00, 0x00, 0x00,
  0x00, 0x00, 0x00, 0x00, 0x00, 0x00, 0x00, 0x00, 0x00, 0x00, 0x00, 0x00,
  0x00, 0x00, 0x00, 0x00, 0x00, 0x00, 0x00, 0x00, 0x00, 0x00, 0x00, 0x00,
  0x00, 0x00, 0x00, 0x00, 0x00, 0x00, 0x00, 0x00, 0x00, 0x00, 0x00, 0x00,
  0x00, 0x00, 0x00, 0x00, 0x00, 0x00, 0x00, 0x00, 0x00, 0x00, 0x00, 0x00,
  0x00, 0x00, 0x00, 0x00, 0x00, 0x00, 0x00, 0x00, 0x00, 0x00, 0x00, 0x00,
  0x00, 0x00, 0x00, 0x00, 0x00, 0x00, 0x00, 0x00, 0x00, 0x00, 0x00, 0x00,
  0x00, 0x00, 0x00, 0x00, 0x00, 0x00, 0x00, 0x00, 0x00, 0x00, 0x00, 0x00,
  0x00, 0x00, 0x00, 0x00, 0x00, 0x00, 0x00, 0x00, 0x00, 0x00, 0x00, 0x00,
  0x00, 0x00, 0x00, 0x00, 0x00, 0x00, 0x00, 0x00, 0x00, 0x00, 0x00, 0x00,
  0x00, 0x00, 0x00, 0x00, 0x00, 0x00, 0x00, 0x00, 0x00, 0x00, 0x00, 0x00,
  0x00, 0x00, 0x00, 0x00, 0x00, 0x00, 0x00, 0x00, 0x00, 0x00, 0x00, 0x00,
  0x10, 0x00, 0x00, 0x00, 0x3a, 0xce, 0x72, 0x3b, 0x34, 0x9d, 0x26, 0x3b,
  0x1f, 0x39, 0x37, 0x3b, 0xf2, 0xac, 0x43, 0x3b, 0x2c, 0xc5, 0x2f, 0x3b,
  0x3a, 0xb9, 0x82, 0x3b, 0x76, 0xd7, 0x1b, 0x3b, 0x6b, 0xfc, 0x47, 0x3b,
  0xab, 0xc1, 0x89, 0x3b, 0x7e, 0xb2, 0x1d, 0x3b, 0x4a, 0xae, 0x16, 0x3b,
  0x78, 0xa2, 0x3a, 0x3b, 0x7b, 0x51, 0x71, 0x3b, 0x1d, 0x89, 0x1d, 0x3b,
  0x97, 0xf7, 0x89, 0x3b, 0xf3, 0x93, 0x02, 0x3b, 0x1c, 0x00, 0x00, 0x00,
  0x73, 0x65, 0x71, 0x75, 0x65, 0x6e, 0x74, 0x69, 0x61, 0x6c, 0x5f, 0x31,
  0x2f, 0x63, 0x6f, 0x6e, 0x76, 0x32, 0x64, 0x5f, 0x33, 0x2f, 0x43, 0x6f,
  0x6e, 0x76, 0x32, 0x44, 0x00, 0x00, 0x00, 0x00, 0x04, 0x00, 0x00, 0x00,
  0x10, 0x00, 0x00, 0x00, 0x04, 0x00, 0x00, 0x00, 0x01, 0x00, 0x00, 0x00,
  0x08, 0x00, 0x00, 0x00, 0x6a, 0xfe, 0xff, 0xff, 0x14, 0x00, 0x00, 0x00,
  0x84, 0x00, 0x00, 0x00, 0x04, 0x00, 0x00, 0x00, 0x00, 0x00, 0x00, 0x02,
  0xb4, 0x00, 0x00, 0x00, 0xe4, 0xfd, 0xff, 0xff, 0x08, 0x00, 0x00, 0x00,
  0x48, 0x00, 0x00, 0x00, 0x08, 0x00, 0x00, 0x00, 0x00, 0x00, 0x00, 0x00,
  0x00, 0x00, 0x00, 0x00, 0x00, 0x00, 0x00, 0x00, 0x00, 0x00, 0x00, 0x00,
  0x00, 0x00, 0x00, 0x00, 0x00, 0x00, 0x00, 0x00, 0x00, 0x00, 0x00, 0x00,
  0x00, 0x00, 0x00, 0x00, 0x00, 0x00, 0x00, 0x00, 0x00, 0x00, 0x00, 0x00,
  0x00, 0x00, 0x00, 0x00, 0x00, 0x00, 0x00, 0x00, 0x00, 0x00, 0x00, 0x00,
  0x00, 0x00, 0x00, 0x00, 0x00, 0x00, 0x00, 0x00, 0x00, 0x00, 0x00, 0x00,
  0x08, 0x00, 0x00, 0x00, 0x28, 0xe2, 0xf1, 0x3b, 0x51, 0x59, 0x37, 0x3c,
  0xa8, 0x3d, 0xb7, 0x3b, 0xa5, 0x7e, 0xce, 0x3b, 0x6a, 0x29, 0xc0, 0x3b,
  0xf0, 0xf5, 0xd6, 0x3b, 0xda, 0x5e, 0xd4, 0x3b, 0x87, 0x5e, 0x9a, 0x3b,
  0x35, 0x00, 0x00, 0x00, 0x73, 0x65, 0x71, 0x75, 0x65, 0x6e, 0x74, 0x69,
  0x61, 0x6c, 0x5f, 0x31, 0x2f, 0x63, 0x6f, 0x6e, 0x76, 0x32, 0x64, 0x5f,
  0x32, 0x2f, 0x42, 0x69, 0x61, 0x73, 0x41, 0x64, 0x64, 0x2f, 0x52, 0x65,
  0x61, 0x64, 0x56, 0x61, 0x72, 0x69, 0x61, 0x62, 0x6c, 0x65, 0x4f, 0x70,
  0x2f, 0x72, 0x65, 0x73, 0x6f, 0x75, 0x72, 0x63, 0x65, 0x00, 0x00, 0x00,
  0x01, 0x00, 0x00, 0x00, 0x08, 0x00, 0x00, 0x00, 0x3a, 0xff, 0xff, 0xff,
  0x14, 0x00, 0x00, 0x00, 0x84, 0x00, 0x00, 0x00, 0x03, 0x00, 0x00, 0x00,
  0x00, 0x00, 0x00, 0x09, 0x9c, 0x00, 0x00, 0x00, 0xb4, 0xfe, 0xff, 0xff,
  0x08, 0x00, 0x00, 0x00, 0x48, 0x00, 0x00, 0x00, 0x08, 0x00, 0x00, 0x00,
  0x00, 0x00, 0x00, 0x00, 0x00, 0x00, 0x00, 0x00, 0x00, 0x00, 0x00, 0x00,
  0x00, 0x00, 0x00, 0x00, 0x00, 0x00, 0x00, 0x00, 0x00, 0x00, 0x00, 0x00,
  0x00, 0x00, 0x00, 0x00, 0x00, 0x00, 0x00, 0x00, 0x00, 0x00, 0x00, 0x00,
  0x00, 0x00, 0x00, 0x00, 0x00, 0x00, 0x00, 0x00, 0x00, 0x00, 0x00, 0x00,
  0x00, 0x00, 0x00, 0x00, 0x00, 0x00, 0x00, 0x00, 0x00, 0x00, 0x00, 0x00,
  0x00, 0x00, 0x00, 0x00, 0x08, 0x00, 0x00, 0x00, 0xb2, 0x3a, 0x27, 0x3b,
  0x76, 0x85, 0x7d, 0x3b, 0x36, 0x5f, 0xfd, 0x3a, 0x48, 0xc3, 0x0e, 0x3b,
  0x83, 0xda, 0x04, 0x3b, 0xab, 0x9d, 0x14, 0x3b, 0x3c, 0xd3, 0x12, 0x3b,
  0x4e, 0x73, 0xd5, 0x3a, 0x1c, 0x00, 0x00, 0x00, 0x73, 0x65, 0x71, 0x75,
  0x65, 0x6e, 0x74, 0x69, 0x61, 0x6c, 0x5f, 0x31, 0x2f, 0x63, 0x6f, 0x6e,
  0x76, 0x32, 0x64, 0x5f, 0x32, 0x2f, 0x43, 0x6f, 0x6e, 0x76, 0x32, 0x44,
  0x00, 0x00, 0x00, 0x00, 0x04, 0x00, 0x00, 0x00, 0x08, 0x00, 0x00, 0x00,
  0x04, 0x00, 0x00, 0x00, 0x03, 0x00, 0x00, 0x00, 0x01, 0x00, 0x00, 0x00,
  0x00, 0x00, 0x0e, 0x00, 0x18, 0x00, 0x14, 0x00, 0x13, 0x00, 0x0c, 0x00,
  0x08, 0x00, 0x04, 0x00, 0x0e, 0x00, 0x00, 0x00, 0x18, 0x00, 0x00, 0x00,
  0x18, 0x00, 0x00, 0x00, 0x02, 0x00, 0x00, 0x00, 0x00, 0x00, 0x00, 0x02,
  0x30, 0x00, 0x00, 0x00, 0x04, 0x00, 0x04, 0x00, 0x04, 0x00, 0x00, 0x00,
  0x1c, 0x00, 0x00, 0x00, 0x73, 0x65, 0x71, 0x75, 0x65, 0x6e, 0x74, 0x69,
  0x61, 0x6c, 0x5f, 0x31, 0x2f, 0x66, 0x6c, 0x61, 0x74, 0x74, 0x65, 0x6e,
  0x5f, 0x31, 0x2f, 0x43, 0x6f, 0x6e, 0x73, 0x74, 0x00, 0x00, 0x00, 0x00,
  0x01, 0x00, 0x00, 0x00, 0x02, 0x00, 0x00, 0x00, 0x14, 0x00, 0x1c, 0x00,
  0x18, 0x00, 0x17, 0x00, 0x10, 0x00, 0x0c, 0x00, 0x08, 0x00, 0x00, 0x00,
  0x00, 0x00, 0x04, 0x00, 0x14, 0x00, 0x00, 0x00, 0x18, 0x00, 0x00, 0x00,
  0x34, 0x00, 0x00, 0x00, 0x54, 0x00, 0x00, 0x00, 0x01, 0x00, 0x00, 0x00,
  0x00, 0x00, 0x00, 0x09, 0x5c, 0x00, 0x00, 0x00, 0x04, 0x00, 0x00, 0x00,
  0xff, 0xff, 0xff, 0xff, 0x0a, 0x00, 0x00, 0x00, 0x06, 0x00, 0x00, 0x00,
  0x01, 0x00, 0x00, 0x00, 0x0c, 0x00, 0x0c, 0x00, 0x00, 0x00, 0x00, 0x00,
  0x08, 0x00, 0x04, 0x00, 0x0c, 0x00, 0x00, 0x00, 0x08, 0x00, 0x00, 0x00,
  0x14, 0x00, 0x00, 0x00, 0x01, 0x00, 0x00, 0x00, 0xb7, 0xff, 0xff, 0xff,
  0xff, 0xff, 0xff, 0xff, 0x00, 0x00, 0x00, 0x00, 0x01, 0x00, 0x00, 0x00,
  0x39, 0x24, 0x39, 0x40, 0x0e, 0x00, 0x00, 0x00, 0x63, 0x6f, 0x6e, 0x76,
  0x32, 0x64, 0x5f, 0x32, 0x5f, 0x69, 0x6e, 0x70, 0x75, 0x74, 0x00, 0x00,
  0x04, 0x00, 0x00, 0x00, 0x01, 0x00, 0x00, 0x00, 0x0a, 0x00, 0x00, 0x00,
  0x06, 0x00, 0x00, 0x00, 0x01, 0x00, 0x00, 0x00, 0x05, 0x00, 0x00, 0x00,
  0x68, 0x00, 0x00, 0x00, 0x48, 0x00, 0x00, 0x00, 0x38, 0x00, 0x00, 0x00,
  0x18, 0x00, 0x00, 0x00, 0x04, 0x00, 0x00, 0x00, 0xb8, 0xff, 0xff, 0xff,
  0x19, 0x00, 0x00, 0x00, 0x02, 0x00, 0x00, 0x00, 0x00, 0x00, 0x00, 0x19,
  0xc8, 0xff, 0xff, 0xff, 0x09, 0x00, 0x00, 0x00, 0x04, 0x00, 0x00, 0x00,
  0x00, 0x00, 0x00, 0x09, 0x0c, 0x00, 0x0c, 0x00, 0x0b, 0x00, 0x00, 0x00,
  0x00, 0x00, 0x04, 0x00, 0x0c, 0x00, 0x00, 0x00, 0x16, 0x00, 0x00, 0x00,
  0x00, 0x00, 0x00, 0x16, 0xf0, 0xff, 0xff, 0xff, 0x11, 0x00, 0x00, 0x00,
  0x02, 0x00, 0x00, 0x00, 0x00, 0x00, 0x00, 0x11, 0x0c, 0x00, 0x10, 0x00,
  0x0f, 0x00, 0x00, 0x00, 0x08, 0x00, 0x04, 0x00, 0x0c, 0x00, 0x00, 0x00,
  0x03, 0x00, 0x00, 0x00, 0x03, 0x00, 0x00, 0x00, 0x00, 0x00, 0x00, 0x03
};
unsigned int g_model_len = 5712;
