unsigned char g_model[] = {
  0x1c, 0x00, 0x00, 0x00, 0x54, 0x46, 0x4c, 0x33, 0x14, 0x00, 0x20, 0x00,
  0x1c, 0x00, 0x18, 0x00, 0x14, 0x00, 0x10, 0x00, 0x0c, 0x00, 0x00, 0x00,
  0x08, 0x00, 0x04, 0x00, 0x14, 0x00, 0x00, 0x00, 0x1c, 0x00, 0x00, 0x00,
  0x1c, 0x00, 0x00, 0x00, 0x4c, 0x00, 0x00, 0x00, 0x08, 0x07, 0x00, 0x00,
  0x18, 0x07, 0x00, 0x00, 0xd8, 0x15, 0x00, 0x00, 0x03, 0x00, 0x00, 0x00,
  0x00, 0x00, 0x00, 0x00, 0x01, 0x00, 0x00, 0x00, 0x0c, 0x00, 0x00, 0x00,
  0x08, 0x00, 0x0c, 0x00, 0x08, 0x00, 0x04, 0x00, 0x08, 0x00, 0x00, 0x00,
  0x13, 0x00, 0x00, 0x00, 0x04, 0x00, 0x00, 0x00, 0x13, 0x00, 0x00, 0x00,
  0x6d, 0x69, 0x6e, 0x5f, 0x72, 0x75, 0x6e, 0x74, 0x69, 0x6d, 0x65, 0x5f,
  0x76, 0x65, 0x72, 0x73, 0x69, 0x6f, 0x6e, 0x00, 0x14, 0x00, 0x00, 0x00,
  0xb8, 0x06, 0x00, 0x00, 0xb0, 0x06, 0x00, 0x00, 0x98, 0x06, 0x00, 0x00,
  0x28, 0x06, 0x00, 0x00, 0xf8, 0x05, 0x00, 0x00, 0xe8, 0x03, 0x00, 0x00,
  0x98, 0x03, 0x00, 0x00, 0x88, 0x01, 0x00, 0x00, 0x38, 0x01, 0x00, 0x00,
  0x98, 0x00, 0x00, 0x00, 0x64, 0x00, 0x00, 0x00, 0x5c, 0x00, 0x00, 0x00,
  0x54, 0x00, 0x00, 0x00, 0x4c, 0x00, 0x00, 0x00, 0x44, 0x00, 0x00, 0x00,
  0x3c, 0x00, 0x00, 0x00, 0x34, 0x00, 0x00, 0x00, 0x2c, 0x00, 0x00, 0x00,
  0x24, 0x00, 0x00, 0x00, 0x04, 0x00, 0x00, 0x00, 0x06, 0xf9, 0xff, 0xff,
  0x04, 0x00, 0x00, 0x00, 0x10, 0x00, 0x00, 0x00, 0x31, 0x2e, 0x31, 0x34,
  0x2e, 0x30, 0x00, 0x00, 0x00, 0x00, 0x00, 0x00, 0x00, 0x00, 0x00, 0x00,
  0xa8, 0xeb, 0xff, 0xff, 0xac, 0xeb, 0xff, 0xff, 0xb0, 0xeb, 0xff, 0xff,
  0xb4, 0xeb, 0xff, 0xff, 0xb8, 0xeb, 0xff, 0xff, 0xbc, 0xeb, 0xff, 0xff,
  0xc0, 0xeb, 0xff, 0xff, 0xc4, 0xeb, 0xff, 0xff, 0x42, 0xf9, 0xff, 0xff,
  0x04, 0x00, 0x00, 0x00, 0x24, 0x00, 0x00, 0x00, 0x10, 0x01, 0x00, 0x00,
  0x79, 0x01, 0x00, 0x00, 0x01, 0x00, 0x00, 0x00, 0x58, 0xfe, 0xff, 0xff,
  0x25, 0xff, 0xff, 0xff, 0x05, 0xfd, 0xff, 0xff, 0xe0, 0xff, 0xff, 0xff,
  0xe0, 0xff, 0xff, 0xff, 0xb9, 0x01, 0x00, 0x00, 0x72, 0xf9, 0xff, 0xff,
  0x04, 0x00, 0x00, 0x00, 0x90, 0x00, 0x00, 0x00, 0xc0, 0xe8, 0x0e, 0xd9,
  0xd7, 0xa6, 0x7f, 0xb1, 0xf2, 0xbe, 0x7c, 0xda, 0xfe, 0xf7, 0xc0, 0xc2,
  0x03, 0x12, 0xe8, 0xac, 0xf5, 0x25, 0x52, 0x2e, 0x04, 0xfc, 0x47, 0xbb,
  0xda, 0x1c, 0x2e, 0x2e, 0xea, 0x0e, 0xef, 0x0c, 0xac, 0x34, 0x29, 0x3c,
  0x17, 0xca, 0x0a, 0xd9, 0xf9, 0xde, 0xfa, 0x45, 0x2b, 0xc6, 0xec, 0xe4,
  0x38, 0xa5, 0x4b, 0xc8, 0x22, 0x1d, 0xf7, 0x32, 0xe5, 0xcb, 0x12, 0x9f,
  0xfa, 0xca, 0x6b, 0x31, 0x1c, 0xb9, 0x0a, 0xb7, 0x57, 0x16, 0x18, 0xb4,
  0xee, 0xe2, 0x04, 0xac, 0x30, 0x2f, 0xf1, 0x01, 0xeb, 0x40, 0xe1, 0xab,
  0xdc, 0x08, 0xf6, 0xde, 0x4d, 0x06, 0xbe, 0xb4, 0xee, 0x36, 0x04, 0xcb,
  0xa4, 0x38, 0xe5, 0xdd, 0x47, 0xd9, 0xfc, 0xfe, 0x40, 0xb8, 0xe2, 0x45,
  0x29, 0x42, 0xea, 0x25, 0xff, 0x25, 0x14, 0x0c, 0x30, 0x10, 0xdf, 0x16,
  0x23, 0xf5, 0x3d, 0x1b, 0x2f, 0x00, 0xff, 0x09, 0xe3, 0x2b, 0x1a, 0x0d,
  0x07, 0xc6, 0x04, 0xe9, 0x29, 0xf7, 0x06, 0xe1, 0x0e, 0xfa, 0xff, 0xff,
  0x04, 0x00, 0x00, 0x00, 0x40, 0x00, 0x00, 0x00, 0x03, 0x00, 0x00, 0x00,
  0x77, 0xff, 0xff, 0xff, 0x96, 0xff, 0xff, 0xff, 0x7e, 0xff, 0xff, 0xff,
  0xce, 0xff, 0xff, 0xff, 0x1f, 0x00, 0x00, 0x00, 0x95, 0x00, 0x00, 0x00,
  0xcf, 0x00, 0x00, 0x00, 0x0c, 0x00, 0x00, 0x00, 0xdd, 0xff, 0xff, 0xff,
  0x34, 0x00, 0x00, 0x00, 0xd3, 0xff, 0xff, 0xff, 0x75, 0xff, 0xff, 0xff,
  0xf3, 0xff, 0xff, 0xff, 0xd2, 0xff, 0xff, 0xff, 0xd5, 0x00, 0x00, 0x00,
  0x5a, 0xfa, 0xff, 0xff, 0x04, 0x00, 0x00, 0x00, 0x00, 0x02, 0x00, 0x00,
  0x86, 0x91, 0x07, 0x20, 0xd5, 0x14, 0x27, 0x17, 0xe9, 0xfe, 0xfb, 0x29,
  0xbe, 0x1e, 0x1b, 0xe7, 0x12, 0xf2, 0x2a, 0xf5, 0xd2, 0xf4, 0xd3, 0x40,
  0x2b, 0xaf, 0xaa, 0x00, 0xd7, 0x1d, 0x30, 0xfb, 0xbf, 0xbb, 0x15, 0xd8,
  0x18, 0xf6, 0x22, 0xf0, 0xe1, 0xc8, 0x4d, 0xdf, 0x0d, 0xc1, 0x0c, 0xd5,
  0x11, 0xd2, 0xde, 0x28, 0xe5, 0xcd, 0x1a, 0x2b, 0xce, 0x30, 0xe1, 0xde,
  0xdd, 0xfd, 0x00, 0x2f, 0xf4, 0xc5, 0x01, 0x01, 0xe7, 0xb0, 0xe3, 0x0b,
  0xb9, 0xda, 0xd0, 0xe1, 0xd8, 0xfe, 0xe9, 0x1c, 0xf4, 0x23, 0xd5, 0x2a,
  0x32, 0xe3, 0xea, 0xe1, 0xe5, 0x24, 0x1f, 0x25, 0x24, 0xf8, 0x07, 0x24,
  0x35, 0xf4, 0x0f, 0x3b, 0xe5, 0xe3, 0xe5, 0xaa, 0xd9, 0xb3, 0x01, 0x1c,
  0x04, 0xf4, 0xef, 0xe5, 0xe7, 0xf0, 0xfc, 0xfa, 0x21, 0x1a, 0xfb, 0x16,
  0xe4, 0xe3, 0x04, 0x1e, 0xf0, 0x33, 0x09, 0x00, 0xeb, 0xd2, 0x11, 0x2a,
  0xee, 0xd7, 0xf6, 0xda, 0x2d, 0x2a, 0x03, 0xf5, 0xdb, 0x02, 0xeb, 0x06,
  0xdf, 0x08, 0x47, 0x34, 0xfa, 0x04, 0x40, 0x28, 0xf6, 0xda, 0xa9, 0xd7,
  0x25, 0xef, 0xfd, 0x0d, 0x45, 0x45, 0xfd, 0xd2, 0xc5, 0x3f, 0x17, 0x6e,
  0x7f, 0xed, 0x45, 0x10, 0x15, 0xf2, 0x12, 0xb2, 0x14, 0xfa, 0xce, 0x18,
  0x37, 0x35, 0xfd, 0xff, 0xf0, 0xef, 0xe8, 0xfa, 0xe9, 0x05, 0x09, 0x20,
  0xe2, 0xf8, 0x2a, 0x38, 0x63, 0xd0, 0xdd, 0xd6, 0xe7, 0x33, 0xb7, 0x17,
  0xf0, 0xd4, 0xef, 0x3c, 0x0b, 0x0b, 0x42, 0x24, 0x0e, 0xff, 0x1f, 0x25,
  0x05, 0x1f, 0xff, 0xaf, 0x2a, 0xb0, 0xdb, 0xe2, 0xfa, 0x1b, 0x1b, 0xd1,
  0xb8, 0x9e, 0x00, 0xc3, 0xdc, 0xc5, 0xeb, 0xf0, 0xee, 0xbe, 0x20, 0xd8,
  0x1c, 0x17, 0xf8, 0x27, 0xfe, 0x1f, 0x11, 0x2c, 0xee, 0xec, 0x9c, 0xc0,
  0xd0, 0x14, 0xce, 0x20, 0x33, 0x51, 0xea, 0xe0, 0xbd, 0x03, 0xea, 0xfb,
  0xb8, 0xb1, 0x76, 0xdb, 0x4d, 0x00, 0xd6, 0xd8, 0x09, 0xff, 0xfe, 0xee,
  0x10, 0xed, 0xed, 0x01, 0xfd, 0xf5, 0x56, 0xee, 0x30, 0x00, 0x1f, 0x03,
  0x14, 0xc5, 0x06, 0xc6, 0x0c, 0xf4, 0x1a, 0x25, 0xde, 0xd1, 0xff, 0x1e,
  0xf2, 0xe6, 0xe5, 0xfb, 0xf5, 0xee, 0xd9, 0x0d, 0x0b, 0xf3, 0x14, 0xdd,
  0xd3, 0xf7, 0xb8, 0xf2, 0x2f, 0xc6, 0xc2, 0x00, 0xc7, 0xdd, 0xea, 0x2e,
  0x4e, 0xc7, 0x13, 0xaa, 0xf3, 0x4a, 0xae, 0xb6, 0xda, 0xde, 0x08, 0x1d,
  0x3d, 0x08, 0xea, 0xe2, 0xdf, 0xf4, 0x21, 0x11, 0xd3, 0xf9, 0x08, 0xfa,
  0x15, 0xb8, 0xde, 0xf9, 0xe1, 0x2d, 0xea, 0x4e, 0x08, 0xea, 0xf3, 0x0c,
  0xe5, 0x0e, 0x6d, 0xf5, 0x0d, 0xec, 0xfa, 0x1e, 0xdc, 0xd6, 0x51, 0xc8,
  0xce, 0x03, 0xe2, 0x35, 0x16, 0xef, 0xe5, 0xfc, 0xcb, 0xf2, 0x27, 0xd8,
  0xe9, 0x26, 0xe2, 0xf1, 0xf3, 0x2b, 0x31, 0x51, 0x48, 0x3a, 0x4e, 0x3c,
  0x4f, 0x27, 0xd1, 0xe7, 0xe2, 0x06, 0xef, 0x21, 0x57, 0xfe, 0x19, 0xe1,
  0xd5, 0x01, 0xfb, 0xff, 0xed, 0x06, 0x04, 0xf8, 0x04, 0xd6, 0xf6, 0xd9,
  0x10, 0xd9, 0x31, 0xcb, 0x1d, 0xbc, 0xfd, 0xd4, 0xce, 0x10, 0xfc, 0xd4,
  0xca, 0xf0, 0xcb, 0x1a, 0xf4, 0xd9, 0xc5, 0x13, 0xed, 0x27, 0x00, 0xcf,
  0x10, 0xcd, 0xec, 0xd6, 0xff, 0x1f, 0xd4, 0xf5, 0x28, 0xc2, 0xe7, 0xf6,
  0x07, 0xc1, 0xc8, 0xfa, 0xd0, 0xe1, 0xf1, 0x1b, 0xd4, 0xe5, 0x2e, 0xf6,
  0x06, 0xfa, 0xdf, 0xe6, 0xbd, 0xbf, 0xbf, 0xfd, 0x0e, 0x08, 0xbd, 0xfd,
  0x6b, 0x65, 0x11, 0xd9, 0xd5, 0xfe, 0xe9, 0xf8, 0xec, 0xb0, 0x50, 0xc5,
  0x18, 0xce, 0xf9, 0xcb, 0x13, 0x0e, 0xef, 0xea, 0x3e, 0x1e, 0x32, 0xfe,
  0xe6, 0xf8, 0x10, 0xde, 0xfd, 0xde, 0xf7, 0xe6, 0x66, 0xfc, 0xff, 0xff,
  0x04, 0x00, 0x00, 0x00, 0x40, 0x00, 0x00, 0x00, 0x45, 0x00, 0x00, 0x00,
  0xf0, 0xff, 0xff, 0xff, 0xeb, 0xff, 0xff, 0xff, 0x16, 0x00, 0x00, 0x00,
  0x6b, 0x00, 0x00, 0x00, 0x5c, 0xff, 0xff, 0xff, 0x98, 0xff, 0xff, 0xff,
  0x97, 0xff, 0xff, 0xff, 0x13, 0xff, 0xff, 0xff, 0x0a, 0x00, 0x00, 0x00,
  0x1c, 0x00, 0x00, 0x00, 0xe0, 0xfe, 0xff, 0xff, 0xab, 0xff, 0xff, 0xff,
  0xf0, 0xfe, 0xff, 0xff, 0xdf, 0xff, 0xff, 0xff, 0x5f, 0x00, 0x00, 0x00,
  0xb2, 0xfc, 0xff, 0xff, 0x04, 0x00, 0x00, 0x00, 0x00, 0x02, 0x00, 0x00,
  0xd7, 0x82, 0xf8, 0x9e, 0xf8, 0xde, 0x0b, 0xe7, 0x81, 0xca, 0xf9, 0xdb,
  0x3a, 0xba, 0x02, 0xde, 0x88, 0xf2, 0x09, 0xeb, 0xe3, 0xcd, 0xf5, 0x14,
  0x07, 0xf7, 0xcb, 0xc7, 0xe2, 0xb4, 0x08, 0xf3, 0xdd, 0xc8, 0x0f, 0xe1,
  0x4b, 0x14, 0x01, 0x2a, 0xc7, 0xcf, 0xd3, 0x81, 0xe3, 0x07, 0x05, 0xf4,
  0x24, 0x55, 0xd2, 0xa0, 0xff, 0xba, 0x0e, 0x03, 0xf1, 0xe0, 0x1a, 0xc0,
  0x07, 0xf5, 0xf8, 0xf6, 0x04, 0xef, 0xa6, 0x23, 0xeb, 0x99, 0xd5, 0x91,
  0xa9, 0xbd, 0x41, 0x0a, 0xf2, 0xe9, 0xbb, 0xc1, 0x22, 0x9c, 0x2e, 0x15,
  0xf5, 0x81, 0xd9, 0xfb, 0xdc, 0xc4, 0x34, 0x0a, 0xf7, 0x31, 0xdf, 0xb8,
  0x7f, 0x0e, 0xfe, 0xdd, 0xf7, 0xac, 0x29, 0x05, 0xd3, 0xe1, 0xe9, 0x1a,
  0xcf, 0xde, 0xee, 0x08, 0xc9, 0xfe, 0xf6, 0x2f, 0xdc, 0xe3, 0xeb, 0x08,
  0xee, 0x13, 0x19, 0xff, 0xbb, 0xe1, 0xce, 0x21, 0xd5, 0xe5, 0xc7, 0xfd,
  0x14, 0x2e, 0x12, 0xe0, 0xf2, 0x03, 0xde, 0x14, 0xa8, 0xd3, 0x81, 0x22,
  0xc6, 0xfd, 0xdd, 0x2a, 0xb1, 0x05, 0x87, 0x02, 0xc2, 0x1e, 0x0b, 0x1d,
  0x86, 0x01, 0xc7, 0x49, 0xdd, 0xd6, 0x0d, 0xd2, 0xf8, 0x18, 0x04, 0xa4,
  0xba, 0xbd, 0xfe, 0xde, 0xfb, 0xda, 0x7f, 0xd4, 0x07, 0x05, 0xfd, 0x03,
  0x03, 0xc3, 0xf0, 0x4d, 0x23, 0xc8, 0xe1, 0xde, 0xe6, 0x9a, 0x41, 0xde,
  0xf3, 0x42, 0x7f, 0xed, 0xa1, 0x11, 0x35, 0xc8, 0x41, 0x09, 0x0d, 0x12,
  0xdb, 0xfe, 0x2c, 0xd1, 0x5a, 0xff, 0xd8, 0x2c, 0xe8, 0xd0, 0xd5, 0xd7,
  0xba, 0xed, 0xe1, 0x0b, 0x2c, 0x07, 0xfb, 0xe3, 0xbb, 0x81, 0x4b, 0x04,
  0x03, 0x02, 0xe0, 0x1e, 0xef, 0xdf, 0xfa, 0x0d, 0x03, 0x1f, 0x00, 0xc5,
  0xf0, 0x1b, 0x01, 0xf3, 0xfd, 0x19, 0x0a, 0x12, 0x26, 0xf3, 0x01, 0x0c,
  0xe5, 0xf5, 0xe6, 0xf1, 0x0e, 0x03, 0x7d, 0xcd, 0xe7, 0x13, 0xe2, 0x06,
  0xb6, 0x16, 0x13, 0xe1, 0xef, 0xd8, 0x12, 0xd5, 0xee, 0x89, 0x03, 0x1f,
  0xf1, 0x7f, 0x11, 0x14, 0x51, 0xd2, 0xfd, 0xfa, 0xde, 0x0d, 0xdf, 0x01,
  0x17, 0x38, 0x1e, 0xd0, 0xfc, 0xbf, 0x81, 0xdb, 0x55, 0x39, 0x09, 0xed,
  0xb5, 0x2a, 0x93, 0x24, 0xc6, 0x3b, 0x1b, 0x16, 0xae, 0xce, 0x15, 0xf7,
  0x37, 0x24, 0xfb, 0x37, 0xc2, 0x2e, 0xf4, 0x58, 0x44, 0x30, 0xf0, 0xb3,
  0xff, 0xdb, 0xe6, 0xe8, 0x31, 0x3a, 0xb9, 0xc3, 0x05, 0x02, 0xe4, 0x0c,
  0xbb, 0x6a, 0xa2, 0x81, 0x07, 0xb8, 0xf5, 0x1a, 0xf1, 0xf6, 0x00, 0xd8,
  0xff, 0xac, 0x22, 0x42, 0x41, 0x3d, 0xe0, 0xc0, 0xec, 0xe5, 0x27, 0x19,
  0x74, 0x01, 0xf1, 0x63, 0xf2, 0x18, 0xff, 0xf2, 0x65, 0x14, 0x02, 0xe8,
  0xef, 0x58, 0x0f, 0x0d, 0x7f, 0x67, 0xaf, 0xc0, 0x0d, 0x60, 0x1f, 0xfd,
  0xe6, 0xac, 0x17, 0x97, 0xf9, 0xd0, 0xfb, 0xfc, 0x5f, 0x21, 0x08, 0xba,
  0xec, 0x16, 0xca, 0x60, 0x4a, 0xfa, 0xe9, 0xbd, 0x36, 0x81, 0xbc, 0xd7,
  0x36, 0x5a, 0xe8, 0xee, 0x07, 0xd4, 0xf1, 0x04, 0xd7, 0xdc, 0x09, 0x2c,
  0xf9, 0x2a, 0x1b, 0xba, 0x0f, 0x28, 0xed, 0x0f, 0xfb, 0x23, 0xf4, 0x7f,
  0x59, 0xd1, 0xff, 0x02, 0xfb, 0x50, 0x16, 0xdd, 0xab, 0xea, 0xfb, 0x4f,
  0xfd, 0xf8, 0xff, 0xb6, 0x05, 0x3d, 0x19, 0xb5, 0xf4, 0x7f, 0x1e, 0x0c,
  0x7a, 0x0f, 0x06, 0x7b, 0xea, 0x9c, 0xeb, 0xc4, 0x20, 0x4f, 0x4a, 0xd9,
  0xed, 0x29, 0xb0, 0x02, 0x5e, 0xfe, 0xc4, 0x26, 0x3c, 0x25, 0xf0, 0xd6,
  0xed, 0x0c, 0xdd, 0xf8, 0x98, 0xf7, 0x81, 0x38, 0xee, 0x27, 0xb6, 0xe5,
  0x87, 0x09, 0x8d, 0x36, 0x0a, 0x1a, 0x07, 0x3a, 0xae, 0xee, 0xc5, 0x03,
  0xb5, 0x21, 0x00, 0xc5, 0xe6, 0xeb, 0xc2, 0x12, 0xbe, 0xfe, 0xff, 0xff,
  0x04, 0x00, 0x00, 0x00, 0x20, 0x00, 0x00, 0x00, 0x2e, 0x00, 0x00, 0x00,
  0x26, 0x00, 0x00, 0x00, 0x76, 0xff, 0xff, 0xff, 0xdf, 0xff, 0xff, 0xff,
  0xea, 0xff, 0xff, 0xff, 0xb6, 0xff, 0xff, 0xff, 0xed, 0xff, 0xff, 0xff,
  0xce, 0xff, 0xff, 0xff, 0xea, 0xfe, 0xff, 0xff, 0x04, 0x00, 0x00, 0x00,
  0x60, 0x00, 0x00, 0x00, 0x28, 0x26, 0x33, 0xb7, 0xe7, 0xe8, 0x0c, 0xb5,
  0xf8, 0xc3, 0x81, 0x30, 0x29, 0xef, 0xb5, 0xf6, 0x81, 0xe2, 0x0e, 0xd0,
  0xdb, 0x2e, 0xc7, 0x6b, 0xd2, 0x36, 0xa4, 0xf0, 0x7f, 0xe2, 0xb3, 0x33,
  0xbf, 0xcd, 0xba, 0xd4, 0x43, 0x11, 0xf2, 0x81, 0x39, 0xf2, 0xb2, 0x0b,
  0xe2, 0x25, 0xfa, 0xff, 0xf3, 0x07, 0xdc, 0x5b, 0xea, 0xc3, 0x5d, 0xed,
  0xa0, 0x7f, 0xb9, 0xf5, 0xfc, 0xe5, 0x97, 0xf0, 0x49, 0x23, 0xb2, 0x30,
  0xd1, 0x74, 0x81, 0xba, 0x0d, 0xe5, 0xfc, 0x3c, 0xe3, 0xcc, 0x2a, 0x81,
  0xeb, 0x9e, 0x7f, 0x58, 0xfc, 0xaa, 0x2c, 0x18, 0xb2, 0x4a, 0x94, 0x81,
  0x4f, 0x03, 0xb2, 0x30, 0x56, 0xff, 0xff, 0xff, 0x04, 0x00, 0x00, 0x00,
  0x08, 0x00, 0x00, 0x00, 0xff, 0xff, 0xff, 0xff, 0x20, 0x00, 0x00, 0x00,
  0xf0, 0xf1, 0xff, 0xff, 0xf4, 0xf1, 0xff, 0xff, 0x0f, 0x00, 0x00, 0x00,
  0x4d, 0x4c, 0x49, 0x52, 0x20, 0x43, 0x6f, 0x6e, 0x76, 0x65, 0x72, 0x74,
  0x65, 0x64, 0x2e, 0x00, 0x01, 0x00, 0x00, 0x00, 0x14, 0x00, 0x00, 0x00,
  0x00, 0x00, 0x0e, 0x00, 0x18, 0x00, 0x14, 0x00, 0x10, 0x00, 0x0c, 0x00,
  0x08, 0x00, 0x04, 0x00, 0x0e, 0x00, 0x00, 0x00, 0x14, 0x00, 0x00, 0x00,
  0x1c, 0x00, 0x00, 0x00, 0x58, 0x02, 0x00, 0x00, 0x5c, 0x02, 0x00, 0x00,
  0x60, 0x02, 0x00, 0x00, 0x04, 0x00, 0x00, 0x00, 0x6d, 0x61, 0x69, 0x6e,
  0x00, 0x00, 0x00, 0x00, 0x08, 0x00, 0x00, 0x00, 0xf4, 0x01, 0x00, 0x00,
  0x90, 0x01, 0x00, 0x00, 0x40, 0x01, 0x00, 0x00, 0xf0, 0x00, 0x00, 0x00,
  0xc8, 0x00, 0x00, 0x00, 0x78, 0x00, 0x00, 0x00, 0x40, 0x00, 0x00, 0x00,
  0x04, 0x00, 0x00, 0x00, 0x9a, 0xfe, 0xff, 0xff, 0x1c, 0x00, 0x00, 0x00,
  0x00, 0x00, 0x00, 0x09, 0x1c, 0x00, 0x00, 0x00, 0x20, 0x00, 0x00, 0x00,
  0x04, 0x00, 0x00, 0x00, 0x00, 0x00, 0x06, 0x00, 0x08, 0x00, 0x04, 0x00,
  0x06, 0x00, 0x00, 0x00, 0x00, 0x00, 0x80, 0x3f, 0x01, 0x00, 0x00, 0x00,
  0x11, 0x00, 0x00, 0x00, 0x01, 0x00, 0x00, 0x00, 0x10, 0x00, 0x00, 0x00,
  0xd2, 0xfe, 0xff, 0xff, 0x14, 0x00, 0x00, 0x00, 0x00, 0x00, 0x00, 0x08,
  0x10, 0x00, 0x00, 0x00, 0x14, 0x00, 0x00, 0x00, 0x03, 0x00, 0x00, 0x00,
  0xbc, 0xf2, 0xff, 0xff, 0x01, 0x00, 0x00, 0x00, 0x10, 0x00, 0x00, 0x00,
  0x03, 0x00, 0x00, 0x00, 0x0f, 0x00, 0x00, 0x00, 0x08, 0x00, 0x00, 0x00,
  0x09, 0x00, 0x00, 0x00, 0x06, 0xff, 0xff, 0xff, 0x1c, 0x00, 0x00, 0x00,
  0x00, 0x00, 0x00, 0x08, 0x1c, 0x00, 0x00, 0x00, 0x20, 0x00, 0x00, 0x00,
  0x03, 0x00, 0x00, 0x00, 0x00, 0x00, 0x06, 0x00, 0x08, 0x00, 0x07, 0x00,
  0x06, 0x00, 0x00, 0x00, 0x00, 0x00, 0x00, 0x01, 0x01, 0x00, 0x00, 0x00,
  0x0f, 0x00, 0x00, 0x00, 0x03, 0x00, 0x00, 0x00, 0x0e, 0x00, 0x00, 0x00,
  0x06, 0x00, 0x00, 0x00, 0x07, 0x00, 0x00, 0x00, 0x00, 0x00, 0x0a, 0x00,
  0x10, 0x00, 0x0c, 0x00, 0x08, 0x00, 0x04, 0x00, 0x0a, 0x00, 0x00, 0x00,
  0x0c, 0x00, 0x00, 0x00, 0x10, 0x00, 0x00, 0x00, 0x02, 0x00, 0x00, 0x00,
  0x01, 0x00, 0x00, 0x00, 0x0e, 0x00, 0x00, 0x00, 0x02, 0x00, 0x00, 0x00,
  0x0d, 0x00, 0x00, 0x00, 0x01, 0x00, 0x00, 0x00, 0x76, 0xff, 0xff, 0xff,
  0x24, 0x00, 0x00, 0x00, 0x00, 0x00, 0x00, 0x05, 0x30, 0x00, 0x00, 0x00,
  0x34, 0x00, 0x00, 0x00, 0x01, 0x00, 0x00, 0x00, 0x00, 0x00, 0x0e, 0x00,
  0x14, 0x00, 0x00, 0x00, 0x10, 0x00, 0x0c, 0x00, 0x08, 0x00, 0x04, 0x00,
  0x0e, 0x00, 0x00, 0x00, 0x03, 0x00, 0x00, 0x00, 0x01, 0x00, 0x00, 0x00,
  0x03, 0x00, 0x00, 0x00, 0x01, 0x00, 0x00, 0x00, 0x01, 0x00, 0x00, 0x00,
  0x0d, 0x00, 0x00, 0x00, 0x01, 0x00, 0x00, 0x00, 0x0c, 0x00, 0x00, 0x00,
  0x62, 0xff, 0xff, 0xff, 0x10, 0x00, 0x00, 0x00, 0x00, 0x00, 0x00, 0x01,
  0x18, 0x00, 0x00, 0x00, 0x1c, 0x00, 0x00, 0x00, 0x54, 0xff, 0xff, 0xff,
  0x00, 0x00, 0x00, 0x01, 0x01, 0x00, 0x00, 0x00, 0x01, 0x00, 0x00, 0x00,
  0x01, 0x00, 0x00, 0x00, 0x0c, 0x00, 0x00, 0x00, 0x03, 0x00, 0x00, 0x00,
  0x0b, 0x00, 0x00, 0x00, 0x04, 0x00, 0x00, 0x00, 0x05, 0x00, 0x00, 0x00,
  0x00, 0x00, 0x0e, 0x00, 0x1a, 0x00, 0x14, 0x00, 0x10, 0x00, 0x0c, 0x00,
  0x0b, 0x00, 0x04, 0x00, 0x0e, 0x00, 0x00, 0x00, 0x24, 0x00, 0x00, 0x00,
  0x00, 0x00, 0x00, 0x05, 0x34, 0x00, 0x00, 0x00, 0x38, 0x00, 0x00, 0x00,
  0x01, 0x00, 0x00, 0x00, 0x00, 0x00, 0x0e, 0x00, 0x18, 0x00, 0x17, 0x00,
  0x10, 0x00, 0x0c, 0x00, 0x08, 0x00, 0x04, 0x00, 0x0e, 0x00, 0x00, 0x00,
  0x03, 0x00, 0x00, 0x00, 0x03, 0x00, 0x00, 0x00, 0x03, 0x00, 0x00, 0x00,
  0x03, 0x00, 0x00, 0x00, 0x00, 0x00, 0x00, 0x01, 0x01, 0x00, 0x00, 0x00,
  0x0b, 0x00, 0x00, 0x00, 0x01, 0x00, 0x00, 0x00, 0x0a, 0x00, 0x00, 0x00,
  0x00, 0x00, 0x0e, 0x00, 0x14, 0x00, 0x00, 0x00, 0x10, 0x00, 0x0c, 0x00,
  0x0b, 0x00, 0x04, 0x00, 0x0e, 0x00, 0x00, 0x00, 0x1c, 0x00, 0x00, 0x00,
  0x00, 0x00, 0x00, 0x01, 0x24, 0x00, 0x00, 0x00, 0x28, 0x00, 0x00, 0x00,
  0x0c, 0x00, 0x10, 0x00, 0x00, 0x00, 0x0c, 0x00, 0x08, 0x00, 0x07, 0x00,
  0x0c, 0x00, 0x00, 0x00, 0x00, 0x00, 0x00, 0x01, 0x01, 0x00, 0x00, 0x00,
  0x01, 0x00, 0x00, 0x00, 0x01, 0x00, 0x00, 0x00, 0x0a, 0x00, 0x00, 0x00,
  0x03, 0x00, 0x00, 0x00, 0x00, 0x00, 0x00, 0x00, 0x02, 0x00, 0x00, 0x00,
  0x03, 0x00, 0x00, 0x00, 0x01, 0x00, 0x00, 0x00, 0x11, 0x00, 0x00, 0x00,
  0x01, 0x00, 0x00, 0x00, 0x00, 0x00, 0x00, 0x00, 0x12, 0x00, 0x00, 0x00,
  0xac, 0x0b, 0x00, 0x00, 0x48, 0x0b, 0x00, 0x00, 0x70, 0x0a, 0x00, 0x00,
  0x9c, 0x09, 0x00, 0x00, 0x70, 0x08, 0x00, 0x00, 0x3c, 0x07, 0x00, 0x00,
  0xd0, 0x06, 0x00, 0x00, 0x4c, 0x06, 0x00, 0x00, 0xe0, 0x05, 0x00, 0x00,
  0x5c, 0x05, 0x00, 0x00, 0x60, 0x04, 0x00, 0x00, 0xcc, 0x03, 0x00, 0x00,
  0xd0, 0x02, 0x00, 0x00, 0x3c, 0x02, 0x00, 0x00, 0xc0, 0x01, 0x00, 0x00,
  0x0c, 0x01, 0x00, 0x00, 0x70, 0x00, 0x00, 0x00, 0x04, 0x00, 0x00, 0x00,
  0xb0, 0xf4, 0xff, 0xff, 0x18, 0x00, 0x00, 0x00, 0x20, 0x00, 0x00, 0x00,
  0x40, 0x00, 0x00, 0x00, 0x12, 0x00, 0x00, 0x00, 0x00, 0x00, 0x00, 0x09,
  0x44, 0x00, 0x00, 0x00, 0x02, 0x00, 0x00, 0x00, 0xff, 0xff, 0xff, 0xff,
  0x09, 0x00, 0x00, 0x00, 0x94, 0xf4, 0xff, 0xff, 0x08, 0x00, 0x00, 0x00,
  0x14, 0x00, 0x00, 0x00, 0x01, 0x00, 0x00, 0x00, 0x80, 0xff, 0xff, 0xff,
  0xff, 0xff, 0xff, 0xff, 0x00, 0x00, 0x00, 0x00, 0x01, 0x00, 0x00, 0x00,
  0x00, 0x00, 0x80, 0x3b, 0x08, 0x00, 0x00, 0x00, 0x49, 0x64, 0x65, 0x6e,
  0x74, 0x69, 0x74, 0x79, 0x00, 0x00, 0x00, 0x00, 0x02, 0x00, 0x00, 0x00,
  0x01, 0x00, 0x00, 0x00, 0x09, 0x00, 0x00, 0x00, 0x18, 0xf5, 0xff, 0xff,
  0x18, 0x00, 0x00, 0x00, 0x20, 0x00, 0x00, 0x00, 0x40, 0x00, 0x00, 0x00,
  0x11, 0x00, 0x00, 0x00, 0x00, 0x00, 0x00, 0x09, 0x74, 0x00, 0x00, 0x00,
  0x02, 0x00, 0x00, 0x00, 0xff, 0xff, 0xff, 0xff, 0x09, 0x00, 0x00, 0x00,
  0xfc, 0xf4, 0xff, 0xff, 0x08, 0x00, 0x00, 0x00, 0x14, 0x00, 0x00, 0x00,
  0x01, 0x00, 0x00, 0x00, 0xf5, 0xff, 0xff, 0xff, 0xff, 0xff, 0xff, 0xff,
  0x00, 0x00, 0x00, 0x00, 0x01, 0x00, 0x00, 0x00, 0xe8, 0xb5, 0xf1, 0x3e,
  0x3a, 0x00, 0x00, 0x00, 0x73, 0x65, 0x71, 0x75, 0x65, 0x6e, 0x74, 0x69,
  0x61, 0x6c, 0x5f, 0x37, 0x2f, 0x64, 0x65, 0x6e, 0x73, 0x65, 0x5f, 0x31,
  0x35, 0x2f, 0x4d, 0x61, 0x74, 0x4d, 0x75, 0x6c, 0x3b, 0x73, 0x65, 0x71,
  0x75, 0x65, 0x6e, 0x74, 0x69, 0x61, 0x6c, 0x5f, 0x37, 0x2f, 0x64, 0x65,
  0x6e, 0x73, 0x65, 0x5f, 0x31, 0x35, 0x2f, 0x42, 0x69, 0x61, 0x73, 0x41,
  0x64, 0x64, 0x00, 0x00, 0x02, 0x00, 0x00, 0x00, 0x01, 0x00, 0x00, 0x00,
  0x09, 0x00, 0x00, 0x00, 0xb0, 0xf5, 0xff, 0xff, 0x18, 0x00, 0x00, 0x00,
  0x20, 0x00, 0x00, 0x00, 0x3c, 0x00, 0x00, 0x00, 0x10, 0x00, 0x00, 0x00,
  0x00, 0x00, 0x00, 0x09, 0x8c, 0x00, 0x00, 0x00, 0x02, 0x00, 0x00, 0x00,
  0xff, 0xff, 0xff, 0xff, 0x10, 0x00, 0x00, 0x00, 0x94, 0xf5, 0xff, 0xff,
  0x08, 0x00, 0x00, 0x00, 0x10, 0x00, 0x00, 0x00, 0x01, 0x00, 0x00, 0x00,
  0x80, 0xff, 0xff, 0xff, 0xff, 0xff, 0xff, 0xff, 0x01, 0x00, 0x00, 0x00,
  0xe9, 0x43, 0xab, 0x3e, 0x55, 0x00, 0x00, 0x00, 0x73, 0x65, 0x71, 0x75,
  0x65, 0x6e, 0x74, 0x69, 0x61, 0x6c, 0x5f, 0x37, 0x2f, 0x64, 0x65, 0x6e,
  0x73, 0x65, 0x5f, 0x31, 0x34, 0x2f, 0x4d, 0x61, 0x74, 0x4d, 0x75, 0x6c,
  0x3b, 0x73, 0x65, 0x71, 0x75, 0x65, 0x6e, 0x74, 0x69, 0x61, 0x6c, 0x5f,
  0x37, 0x2f, 0x64, 0x65, 0x6e, 0x73, 0x65, 0x5f, 0x31, 0x34, 0x2f, 0x52,
  0x65, 0x6c, 0x75, 0x3b, 0x73, 0x65, 0x71, 0x75, 0x65, 0x6e, 0x74, 0x69,
  0x61, 0x6c, 0x5f, 0x37, 0x2f, 0x64, 0x65, 0x6e, 0x73, 0x65, 0x5f, 0x31,
  0x34, 0x2f, 0x42, 0x69, 0x61, 0x73, 0x41, 0x64, 0x64, 0x00, 0x00, 0x00,
  0x02, 0x00, 0x00, 0x00, 0x01, 0x00, 0x00, 0x00, 0x10, 0x00, 0x00, 0x00,
  0x60, 0xf6, 0xff, 0xff, 0x18, 0x00, 0x00, 0x00, 0x20, 0x00, 0x00, 0x00,
  0x3c, 0x00, 0x00, 0x00, 0x0f, 0x00, 0x00, 0x00, 0x00, 0x00, 0x00, 0x09,
  0x54, 0x00, 0x00, 0x00, 0x02, 0x00, 0x00, 0x00, 0xff, 0xff, 0xff, 0xff,
  0x20, 0x00, 0x00, 0x00, 0x44, 0xf6, 0xff, 0xff, 0x08, 0x00, 0x00, 0x00,
  0x10, 0x00, 0x00, 0x00, 0x01, 0x00, 0x00, 0x00, 0x80, 0xff, 0xff, 0xff,
  0xff, 0xff, 0xff, 0xff, 0x01, 0x00, 0x00, 0x00, 0xd8, 0x5a, 0x0a, 0x3f,
  0x1e, 0x00, 0x00, 0x00, 0x73, 0x65, 0x71, 0x75, 0x65, 0x6e, 0x74, 0x69,
  0x61, 0x6c, 0x5f, 0x37, 0x2f, 0x66, 0x6c, 0x61, 0x74, 0x74, 0x65, 0x6e,
  0x5f, 0x37, 0x2f, 0x52, 0x65, 0x73, 0x68, 0x61, 0x70, 0x65, 0x00, 0x00,
  0x02, 0x00, 0x00, 0x00, 0x01, 0x00, 0x00, 0x00, 0x20, 0x00, 0x00, 0x00,
  0xd8, 0xf6, 0xff, 0xff, 0x18, 0x00, 0x00, 0x00, 0x28, 0x00, 0x00, 0x00,
  0x44, 0x00, 0x00, 0x00, 0x0e, 0x00, 0x00, 0x00, 0x00, 0x00, 0x00, 0x09,
  0x64, 0x00, 0x00, 0x00, 0x04, 0x00, 0x00, 0x00, 0xff, 0xff, 0xff, 0xff,
  0x01, 0x00, 0x00, 0x00, 0x02, 0x00, 0x00, 0x00, 0x10, 0x00, 0x00, 0x00,
  0xc4, 0xf6, 0xff, 0xff, 0x08, 0x00, 0x00, 0x00, 0x10, 0x00, 0x00, 0x00,
  0x01, 0x00, 0x00, 0x00, 0x80, 0xff, 0xff, 0xff, 0xff, 0xff, 0xff, 0xff,
  0x01, 0x00, 0x00, 0x00, 0xd8, 0x5a, 0x0a, 0x3f, 0x25, 0x00, 0x00, 0x00,
  0x73, 0x65, 0x71, 0x75, 0x65, 0x6e, 0x74, 0x69, 0x61, 0x6c, 0x5f, 0x37,
  0x2f, 0x6d, 0x61, 0x78, 0x5f, 0x70, 0x6f, 0x6f, 0x6c, 0x69, 0x6e, 0x67,
  0x32, 0x64, 0x5f, 0x31, 0x35, 0x2f, 0x4d, 0x61, 0x78, 0x50, 0x6f, 0x6f,
  0x6c, 0x00, 0x00, 0x00, 0x04, 0x00, 0x00, 0x00, 0x01, 0x00, 0x00, 0x00,
  0x01, 0x00, 0x00, 0x00, 0x02, 0x00, 0x00, 0x00, 0x10, 0x00, 0x00, 0x00,
  0x68, 0xf7, 0xff, 0xff, 0x18, 0x00, 0x00, 0x00, 0x28, 0x00, 0x00, 0x00,
  0x44, 0x00, 0x00, 0x00, 0x0d, 0x00, 0x00, 0x00, 0x00, 0x00, 0x00, 0x09,
  0xcc, 0x00, 0x00, 0x00, 0x04, 0x00, 0x00, 0x00, 0xff, 0xff, 0xff, 0xff,
  0x03, 0x00, 0x00, 0x00, 0x02, 0x00, 0x00, 0x00, 0x10, 0x00, 0x00, 0x00,
  0x54, 0xf7, 0xff, 0xff, 0x08, 0x00, 0x00, 0x00, 0x10, 0x00, 0x00, 0x00,
  0x01, 0x00, 0x00, 0x00, 0x80, 0xff, 0xff, 0xff, 0xff, 0xff, 0xff, 0xff,
  0x01, 0x00, 0x00, 0x00, 0xd8, 0x5a, 0x0a, 0x3f, 0x8f, 0x00, 0x00, 0x00,
  0x73, 0x65, 0x71, 0x75, 0x65, 0x6e, 0x74, 0x69, 0x61, 0x6c, 0x5f, 0x37,
  0x2f, 0x63, 0x6f, 0x6e, 0x76, 0x32, 0x64, 0x5f, 0x31, 0x35, 0x2f, 0x52,
  0x65, 0x6c, 0x75, 0x3b, 0x73, 0x65, 0x71, 0x75, 0x65, 0x6e, 0x74, 0x69,
  0x61, 0x6c, 0x5f, 0x37, 0x2f, 0x63, 0x6f, 0x6e, 0x76, 0x32, 0x64, 0x5f,
  0x31, 0x35, 0x2f, 0x42, 0x69, 0x61, 0x73, 0x41, 0x64, 0x64, 0x3b, 0x73,
  0x65, 0x71, 0x75, 0x65, 0x6e, 0x74, 0x69, 0x61, 0x6c, 0x5f, 0x37, 0x2f,
  0x63, 0x6f, 0x6e, 0x76, 0x32, 0x64, 0x5f, 0x31, 0x35, 0x2f, 0x43, 0x6f,
  0x6e, 0x76, 0x32, 0x44, 0x3b, 0x73, 0x65, 0x71, 0x75, 0x65, 0x6e, 0x74,
  0x69, 0x61, 0x6c, 0x5f, 0x37, 0x2f, 0x63, 0x6f, 0x6e, 0x76, 0x32, 0x64,
  0x5f, 0x31, 0x35, 0x2f, 0x42, 0x69, 0x61, 0x73, 0x41, 0x64, 0x64, 0x2f,
  0x52, 0x65, 0x61, 0x64, 0x56, 0x61, 0x72, 0x69, 0x61, 0x62, 0x6c, 0x65,
  0x4f, 0x70, 0x2f, 0x72, 0x65, 0x73, 0x6f, 0x75, 0x72, 0x63, 0x65, 0x00,
  0x04, 0x00, 0x00, 0x00, 0x01, 0x00, 0x00, 0x00, 0x03, 0x00, 0x00, 0x00,
  0x02, 0x00, 0x00, 0x00, 0x10, 0x00, 0x00, 0x00, 0x60, 0xf8, 0xff, 0xff,
  0x18, 0x00, 0x00, 0x00, 0x28, 0x00, 0x00, 0x00, 0x44, 0x00, 0x00, 0x00,
  0x0c, 0x00, 0x00, 0x00, 0x00, 0x00, 0x00, 0x09, 0x64, 0x00, 0x00, 0x00,
  0x04, 0x00, 0x00, 0x00, 0xff, 0xff, 0xff, 0xff, 0x03, 0x00, 0x00, 0x00,
  0x02, 0x00, 0x00, 0x00, 0x08, 0x00, 0x00, 0x00, 0x4c, 0xf8, 0xff, 0xff,
  0x08, 0x00, 0x00, 0x00, 0x10, 0x00, 0x00, 0x00, 0x01, 0x00, 0x00, 0x00,
  0x80, 0xff, 0xff, 0xff, 0xff, 0xff, 0xff, 0xff, 0x01, 0x00, 0x00, 0x00,
  0xb5, 0x8e, 0x4a, 0x3f, 0x25, 0x00, 0x00, 0x00, 0x73, 0x65, 0x71, 0x75,
  0x65, 0x6e, 0x74, 0x69, 0x61, 0x6c, 0x5f, 0x37, 0x2f, 0x6d, 0x61, 0x78,
  0x5f, 0x70, 0x6f, 0x6f, 0x6c, 0x69, 0x6e, 0x67, 0x32, 0x64, 0x5f, 0x31,
  0x34, 0x2f, 0x4d, 0x61, 0x78, 0x50, 0x6f, 0x6f, 0x6c, 0x00, 0x00, 0x00,
  0x04, 0x00, 0x00, 0x00, 0x01, 0x00, 0x00, 0x00, 0x03, 0x00, 0x00, 0x00,
  0x02, 0x00, 0x00, 0x00, 0x08, 0x00, 0x00, 0x00, 0xf0, 0xf8, 0xff, 0xff,
  0x18, 0x00, 0x00, 0x00, 0x28, 0x00, 0x00, 0x00, 0x44, 0x00, 0x00, 0x00,
  0x0b, 0x00, 0x00, 0x00, 0x00, 0x00, 0x00, 0x09, 0xcc, 0x00, 0x00, 0x00,
  0x04, 0x00, 0x00, 0x00, 0xff, 0xff, 0xff, 0xff, 0x0a, 0x00, 0x00, 0x00,
  0x06, 0x00, 0x00, 0x00, 0x08, 0x00, 0x00, 0x00, 0xdc, 0xf8, 0xff, 0xff,
  0x08, 0x00, 0x00, 0x00, 0x10, 0x00, 0x00, 0x00, 0x01, 0x00, 0x00, 0x00,
  0x80, 0xff, 0xff, 0xff, 0xff, 0xff, 0xff, 0xff, 0x01, 0x00, 0x00, 0x00,
  0xb5, 0x8e, 0x4a, 0x3f, 0x8f, 0x00, 0x00, 0x00, 0x73, 0x65, 0x71, 0x75,
  0x65, 0x6e, 0x74, 0x69, 0x61, 0x6c, 0x5f, 0x37, 0x2f, 0x63, 0x6f, 0x6e,
  0x76, 0x32, 0x64, 0x5f, 0x31, 0x34, 0x2f, 0x52, 0x65, 0x6c, 0x75, 0x3b,
  0x73, 0x65, 0x71, 0x75, 0x65, 0x6e, 0x74, 0x69, 0x61, 0x6c, 0x5f, 0x37,
  0x2f, 0x63, 0x6f, 0x6e, 0x76, 0x32, 0x64, 0x5f, 0x31, 0x34, 0x2f, 0x42,
  0x69, 0x61, 0x73, 0x41, 0x64, 0x64, 0x3b, 0x73, 0x65, 0x71, 0x75, 0x65,
  0x6e, 0x74, 0x69, 0x61, 0x6c, 0x5f, 0x37, 0x2f, 0x63, 0x6f, 0x6e, 0x76,
  0x32, 0x64, 0x5f, 0x31, 0x34, 0x2f, 0x43, 0x6f, 0x6e, 0x76, 0x32, 0x44,
  0x3b, 0x73, 0x65, 0x71, 0x75, 0x65, 0x6e, 0x74, 0x69, 0x61, 0x6c, 0x5f,
  0x37, 0x2f, 0x63, 0x6f, 0x6e, 0x76, 0x32, 0x64, 0x5f, 0x31, 0x34, 0x2f,
  0x42, 0x69, 0x61, 0x73, 0x41, 0x64, 0x64, 0x2f, 0x52, 0x65, 0x61, 0x64,
  0x56, 0x61, 0x72, 0x69, 0x61, 0x62, 0x6c, 0x65, 0x4f, 0x70, 0x2f, 0x72,
  0x65, 0x73, 0x6f, 0x75, 0x72, 0x63, 0x65, 0x00, 0x04, 0x00, 0x00, 0x00,
  0x01, 0x00, 0x00, 0x00, 0x0a, 0x00, 0x00, 0x00, 0x06, 0x00, 0x00, 0x00,
  0x08, 0x00, 0x00, 0x00, 0x42, 0xfa, 0xff, 0xff, 0x14, 0x00, 0x00, 0x00,
  0x34, 0x00, 0x00, 0x00, 0x0a, 0x00, 0x00, 0x00, 0x00, 0x00, 0x00, 0x02,
  0x64, 0x00, 0x00, 0x00, 0xbc, 0xf9, 0xff, 0xff, 0x08, 0x00, 0x00, 0x00,
  0x14, 0x00, 0x00, 0x00, 0x01, 0x00, 0x00, 0x00, 0x00, 0x00, 0x00, 0x00,
  0x00, 0x00, 0x00, 0x00, 0x00, 0x00, 0x00, 0x00, 0x01, 0x00, 0x00, 0x00,
  0xe0, 0x56, 0xf7, 0x3a, 0x35, 0x00, 0x00, 0x00, 0x73, 0x65, 0x71, 0x75,
  0x65, 0x6e, 0x74, 0x69, 0x61, 0x6c, 0x5f, 0x37, 0x2f, 0x64, 0x65, 0x6e,
  0x73, 0x65, 0x5f, 0x31, 0x35, 0x2f, 0x42, 0x69, 0x61, 0x73, 0x41, 0x64,
  0x64, 0x2f, 0x52, 0x65, 0x61, 0x64, 0x56, 0x61, 0x72, 0x69, 0x61, 0x62,
  0x6c, 0x65, 0x4f, 0x70, 0x2f, 0x72, 0x65, 0x73, 0x6f, 0x75, 0x72, 0x63,
  0x65, 0x00, 0x00, 0x00, 0x01, 0x00, 0x00, 0x00, 0x09, 0x00, 0x00, 0x00,
  0xc2, 0xfa, 0xff, 0xff, 0x14, 0x00, 0x00, 0x00, 0x30, 0x00, 0x00, 0x00,
  0x09, 0x00, 0x00, 0x00, 0x00, 0x00, 0x00, 0x09, 0x48, 0x00, 0x00, 0x00,
  0x3c, 0xfa, 0xff, 0xff, 0x08, 0x00, 0x00, 0x00, 0x10, 0x00, 0x00, 0x00,
  0x01, 0x00, 0x00, 0x00, 0x00, 0x00, 0x00, 0x00, 0x00, 0x00, 0x00, 0x00,
  0x01, 0x00, 0x00, 0x00, 0x2c, 0xdb, 0xb8, 0x3b, 0x1c, 0x00, 0x00, 0x00,
  0x73, 0x65, 0x71, 0x75, 0x65, 0x6e, 0x74, 0x69, 0x61, 0x6c, 0x5f, 0x37,
  0x2f, 0x64, 0x65, 0x6e, 0x73, 0x65, 0x5f, 0x31, 0x35, 0x2f, 0x4d, 0x61,
  0x74, 0x4d, 0x75, 0x6c, 0x00, 0x00, 0x00, 0x00, 0x02, 0x00, 0x00, 0x00,
  0x09, 0x00, 0x00, 0x00, 0x10, 0x00, 0x00, 0x00, 0x2a, 0xfb, 0xff, 0xff,
  0x14, 0x00, 0x00, 0x00, 0x34, 0x00, 0x00, 0x00, 0x08, 0x00, 0x00, 0x00,
  0x00, 0x00, 0x00, 0x02, 0x64, 0x00, 0x00, 0x00, 0xa4, 0xfa, 0xff, 0xff,
  0x08, 0x00, 0x00, 0x00, 0x14, 0x00, 0x00, 0x00, 0x01, 0x00, 0x00, 0x00,
  0x00, 0x00, 0x00, 0x00, 0x00, 0x00, 0x00, 0x00, 0x00, 0x00, 0x00, 0x00,
  0x01, 0x00, 0x00, 0x00, 0x82, 0x02, 0x46, 0x3b, 0x35, 0x00, 0x00, 0x00,
  0x73, 0x65, 0x71, 0x75, 0x65, 0x6e, 0x74, 0x69, 0x61, 0x6c, 0x5f, 0x37,
  0x2f, 0x64, 0x65, 0x6e, 0x73, 0x65, 0x5f, 0x31, 0x34, 0x2f, 0x42, 0x69,
  0x61, 0x73, 0x41, 0x64, 0x64, 0x2f, 0x52, 0x65, 0x61, 0x64, 0x56, 0x61,
  0x72, 0x69, 0x61, 0x62, 0x6c, 0x65, 0x4f, 0x70, 0x2f, 0x72, 0x65, 0x73,
  0x6f, 0x75, 0x72, 0x63, 0x65, 0x00, 0x00, 0x00, 0x01, 0x00, 0x00, 0x00,
  0x10, 0x00, 0x00, 0x00, 0xaa, 0xfb, 0xff, 0xff, 0x14, 0x00, 0x00, 0x00,
  0x30, 0x00, 0x00, 0x00, 0x07, 0x00, 0x00, 0x00, 0x00, 0x00, 0x00, 0x09,
  0x48, 0x00, 0x00, 0x00, 0x24, 0xfb, 0xff, 0xff, 0x08, 0x00, 0x00, 0x00,
  0x10, 0x00, 0x00, 0x00, 0x01, 0x00, 0x00, 0x00, 0x00, 0x00, 0x00, 0x00,
  0x00, 0x00, 0x00, 0x00, 0x01, 0x00, 0x00, 0x00, 0xb1, 0x30, 0xb7, 0x3b,
  0x1c, 0x00, 0x00, 0x00, 0x73, 0x65, 0x71, 0x75, 0x65, 0x6e, 0x74, 0x69,
  0x61, 0x6c, 0x5f, 0x37, 0x2f, 0x64, 0x65, 0x6e, 0x73, 0x65, 0x5f, 0x31,
  0x34, 0x2f, 0x4d, 0x61, 0x74, 0x4d, 0x75, 0x6c, 0x00, 0x00, 0x00, 0x00,
  0x02, 0x00, 0x00, 0x00, 0x10, 0x00, 0x00, 0x00, 0x20, 0x00, 0x00, 0x00,
  0x12, 0xfc, 0xff, 0xff, 0x14, 0x00, 0x00, 0x00, 0xe4, 0x00, 0x00, 0x00,
  0x06, 0x00, 0x00, 0x00, 0x00, 0x00, 0x00, 0x02, 0x14, 0x01, 0x00, 0x00,
  0x8c, 0xfb, 0xff, 0xff, 0x08, 0x00, 0x00, 0x00, 0x88, 0x00, 0x00, 0x00,
  0x10, 0x00, 0x00, 0x00, 0x00, 0x00, 0x00, 0x00, 0x00, 0x00, 0x00, 0x00,
  0x00, 0x00, 0x00, 0x00, 0x00, 0x00, 0x00, 0x00, 0x00, 0x00, 0x00, 0x00,
  0x00, 0x00, 0x00, 0x00, 0x00, 0x00, 0x00, 0x00, 0x00, 0x00, 0x00, 0x00,
  0x00, 0x00, 0x00, 0x00, 0x00, 0x00, 0x00, 0x00, 0x00, 0x00, 0x00, 0x00,
  0x00, 0x00, 0x00, 0x00, 0x00, 0x00, 0x00, 0x00, 0x00, 0x00, 0x00, 0x00,
  0x00, 0x00, 0x00, 0x00, 0x00, 0x00, 0x00, 0x00, 0x00, 0x00, 0x00, 0x00,
  0x00, 0x00, 0x00, 0x00, 0x00, 0x00, 0x00, 0x00, 0x00, 0x00, 0x00, 0x00,
  0x00, 0x00, 0x00, 0x00, 0x00, 0x00, 0x00, 0x00, 0x00, 0x00, 0x00, 0x00,
  0x00, 0x00, 0x00, 0x00, 0x00, 0x00, 0x00, 0x00, 0x00, 0x00, 0x00, 0x00,
  0x00, 0x00, 0x00, 0x00, 0x00, 0x00, 0x00, 0x00, 0x00, 0x00, 0x00, 0x00,
  0x00, 0x00, 0x00, 0x00, 0x00, 0x00, 0x00, 0x00, 0x00, 0x00, 0x00, 0x00,
  0x10, 0x00, 0x00, 0x00, 0xc7, 0xc1, 0x33, 0x3b, 0x2d, 0x1d, 0x3c, 0x3b,
  0x6a, 0x3d, 0x3c, 0x3b, 0x8e, 0x9e, 0x55, 0x3b, 0xab, 0x8a, 0x4a, 0x3b,
  0xdd, 0x74, 0x49, 0x3b, 0x6f, 0xbf, 0x12, 0x3b, 0x41, 0xbc, 0xa5, 0x3b,
  0x57, 0x97, 0x57, 0x3b, 0x37, 0x49, 0x43, 0x3b, 0x55, 0xd2, 0x62, 0x3b,
  0xa0, 0x09, 0x1b, 0x3b, 0x1b, 0xbd, 0x28, 0x3b, 0x62, 0x86, 0x33, 0x3b,
  0x46, 0x2a, 0x09, 0x3b, 0x5d, 0x9c, 0x28, 0x3b, 0x36, 0x00, 0x00, 0x00,
  0x73, 0x65, 0x71, 0x75, 0x65, 0x6e, 0x74, 0x69, 0x61, 0x6c, 0x5f, 0x37,
  0x2f, 0x63, 0x6f, 0x6e, 0x76, 0x32, 0x64, 0x5f, 0x31, 0x35, 0x2f, 0x42,
  0x69, 0x61, 0x73, 0x41, 0x64, 0x64, 0x2f, 0x52, 0x65, 0x61, 0x64, 0x56,
  0x61, 0x72, 0x69, 0x61, 0x62, 0x6c, 0x65, 0x4f, 0x70, 0x2f, 0x72, 0x65,
  0x73, 0x6f, 0x75, 0x72, 0x63, 0x65, 0x00, 0x00, 0x01, 0x00, 0x00, 0x00,
  0x10, 0x00, 0x00, 0x00, 0x42, 0xfd, 0xff, 0xff, 0x14, 0x00, 0x00, 0x00,
  0xe8, 0x00, 0x00, 0x00, 0x05, 0x00, 0x00, 0x00, 0x00, 0x00, 0x00, 0x09,
  0x00, 0x01, 0x00, 0x00, 0xbc, 0xfc, 0xff, 0xff, 0x08, 0x00, 0x00, 0x00,
  0x8c, 0x00, 0x00, 0x00, 0x10, 0x00, 0x00, 0x00, 0x00, 0x00, 0x00, 0x00,
  0x00, 0x00, 0x00, 0x00, 0x00, 0x00, 0x00, 0x00, 0x00, 0x00, 0x00, 0x00,
  0x00, 0x00, 0x00, 0x00, 0x00, 0x00, 0x00, 0x00, 0x00, 0x00, 0x00, 0x00,
  0x00, 0x00, 0x00, 0x00, 0x00, 0x00, 0x00, 0x00, 0x00, 0x00, 0x00, 0x00,
  0x00, 0x00, 0x00, 0x00, 0x00, 0x00, 0x00, 0x00, 0x00, 0x00, 0x00, 0x00,
  0x00, 0x00, 0x00, 0x00, 0x00, 0x00, 0x00, 0x00, 0x00, 0x00, 0x00, 0x00,
  0x00, 0x00, 0x00, 0x00, 0x00, 0x00, 0x00, 0x00, 0x00, 0x00, 0x00, 0x00,
  0x00, 0x00, 0x00, 0x00, 0x00, 0x00, 0x00, 0x00, 0x00, 0x00, 0x00, 0x00,
  0x00, 0x00, 0x00, 0x00, 0x00, 0x00, 0x00, 0x00, 0x00, 0x00, 0x00, 0x00,
  0x00, 0x00, 0x00, 0x00, 0x00, 0x00, 0x00, 0x00, 0x00, 0x00, 0x00, 0x00,
  0x00, 0x00, 0x00, 0x00, 0x00, 0x00, 0x00, 0x00, 0x00, 0x00, 0x00, 0x00,
  0x00, 0x00, 0x00, 0x00, 0x00, 0x00, 0x00, 0x00, 0x10, 0x00, 0x00, 0x00,
  0x10, 0x2f, 0x63, 0x3b, 0xea, 0xbe, 0x6d, 0x3b, 0xa9, 0xe7, 0x6d, 0x3b,
  0x80, 0xfd, 0x86, 0x3b, 0xe5, 0xfa, 0x7f, 0x3b, 0xcb, 0x9b, 0x7e, 0x3b,
  0x30, 0x77, 0x39, 0x3b, 0x7b, 0x76, 0xd1, 0x3b, 0x7c, 0x3c, 0x88, 0x3b,
  0x60, 0xcf, 0x76, 0x3b, 0x3f, 0x55, 0x8f, 0x3b, 0x4c, 0xf1, 0x43, 0x3b,
  0x2f, 0x42, 0x55, 0x3b, 0xff, 0xe3, 0x62, 0x3b, 0xc9, 0x5a, 0x2d, 0x3b,
  0xce, 0x18, 0x55, 0x3b, 0x1d, 0x00, 0x00, 0x00, 0x73, 0x65, 0x71, 0x75,
  0x65, 0x6e, 0x74, 0x69, 0x61, 0x6c, 0x5f, 0x37, 0x2f, 0x63, 0x6f, 0x6e,
  0x76, 0x32, 0x64, 0x5f, 0x31, 0x35, 0x2f, 0x43, 0x6f, 0x6e, 0x76, 0x32,
  0x44, 0x00, 0x00, 0x00, 0x04, 0x00, 0x00, 0x00, 0x10, 0x00, 0x00, 0x00,
  0x04, 0x00, 0x00, 0x00, 0x01, 0x00, 0x00, 0x00, 0x08, 0x00, 0x00, 0x00,
  0x6a, 0xfe, 0xff, 0xff, 0x14, 0x00, 0x00, 0x00, 0x84, 0x00, 0x00, 0x00,
  0x04, 0x00, 0x00, 0x00, 0x00, 0x00, 0x00, 0x02, 0xb4, 0x00, 0x00, 0x00,
  0xe4, 0xfd, 0xff, 0xff, 0x08, 0x00, 0x00, 0x00, 0x48, 0x00, 0x00, 0x00,
  0x08, 0x00, 0x00, 0x00, 0x00, 0x00, 0x00, 0x00, 0x00, 0x00, 0x00, 0x00,
  0x00, 0x00, 0x00, 0x00, 0x00, 0x00, 0x00, 0x00, 0x00, 0x00, 0x00, 0x00,
  0x00, 0x00, 0x00, 0x00, 0x00, 0x00, 0x00, 0x00, 0x00, 0x00, 0x00, 0x00,
  0x00, 0x00, 0x00, 0x00, 0x00, 0x00, 0x00, 0x00, 0x00, 0x00, 0x00, 0x00,
  0x00, 0x00, 0x00, 0x00, 0x00, 0x00, 0x00, 0x00, 0x00, 0x00, 0x00, 0x00,
  0x00, 0x00, 0x00, 0x00, 0x00, 0x00, 0x00, 0x00, 0x08, 0x00, 0x00, 0x00,
  0x0f, 0x7c, 0x5d, 0x3c, 0x57, 0x23, 0x10, 0x3c, 0xac, 0xa6, 0xce, 0x3b,
  0x8d, 0xa8, 0x1f, 0x3c, 0xfd, 0xa2, 0x90, 0x3b, 0x71, 0x1f, 0xd0, 0x3b,
  0xb7, 0xb7, 0xd7, 0x3b, 0xcc, 0xa0, 0xb5, 0x3b, 0x36, 0x00, 0x00, 0x00,
  0x73, 0x65, 0x71, 0x75, 0x65, 0x6e, 0x74, 0x69, 0x61, 0x6c, 0x5f, 0x37,
  0x2f, 0x63, 0x6f, 0x6e, 0x76, 0x32, 0x64, 0x5f, 0x31, 0x34, 0x2f, 0x42,
  0x69, 0x61, 0x73, 0x41, 0x64, 0x64, 0x2f, 0x52, 0x65, 0x61, 0x64, 0x56,
  0x61, 0x72, 0x69, 0x61, 0x62, 0x6c, 0x65, 0x4f, 0x70, 0x2f, 0x72, 0x65,
  0x73, 0x6f, 0x75, 0x72, 0x63, 0x65, 0x00, 0x00, 0x01, 0x00, 0x00, 0x00,
  0x08, 0x00, 0x00, 0x00, 0x3a, 0xff, 0xff, 0xff, 0x14, 0x00, 0x00, 0x00,
  0x84, 0x00, 0x00, 0x00, 0x03, 0x00, 0x00, 0x00, 0x00, 0x00, 0x00, 0x09,
  0x9c, 0x00, 0x00, 0x00, 0xb4, 0xfe, 0xff, 0xff, 0x08, 0x00, 0x00, 0x00,
  0x48, 0x00, 0x00, 0x00, 0x08, 0x00, 0x00, 0x00, 0x00, 0x00, 0x00, 0x00,
  0x00, 0x00, 0x00, 0x00, 0x00, 0x00, 0x00, 0x00, 0x00, 0x00, 0x00, 0x00,
  0x00, 0x00, 0x00, 0x00, 0x00, 0x00, 0x00, 0x00, 0x00, 0x00, 0x00, 0x00,
  0x00, 0x00, 0x00, 0x00, 0x00, 0x00, 0x00, 0x00, 0x00, 0x00, 0x00, 0x00,
  0x00, 0x00, 0x00, 0x00, 0x00, 0x00, 0x00, 0x00, 0x00, 0x00, 0x00, 0x00,
  0x00, 0x00, 0x00, 0x00, 0x00, 0x00, 0x00, 0x00, 0x00, 0x00, 0x00, 0x00,
  0x08, 0x00, 0x00, 0x00, 0x54, 0x82, 0x89, 0x3b, 0x09, 0xfa, 0x32, 0x3b,
  0xb7, 0x4c, 0x00, 0x3b, 0x96, 0x3f, 0x46, 0x3b, 0x89, 0x98, 0xb3, 0x3a,
  0xa2, 0x36, 0x01, 0x3b, 0xbd, 0xed, 0x05, 0x3b, 0x3b, 0x87, 0xe1, 0x3a,
  0x1d, 0x00, 0x00, 0x00, 0x73, 0x65, 0x71, 0x75, 0x65, 0x6e, 0x74, 0x69,
  0x61, 0x6c, 0x5f, 0x37, 0x2f, 0x63, 0x6f, 0x6e, 0x76, 0x32, 0x64, 0x5f,
  0x31, 0x34, 0x2f, 0x43, 0x6f, 0x6e, 0x76, 0x32, 0x44, 0x00, 0x00, 0x00,
  0x04, 0x00, 0x00, 0x00, 0x08, 0x00, 0x00, 0x00, 0x04, 0x00, 0x00, 0x00,
  0x03, 0x00, 0x00, 0x00, 0x01, 0x00, 0x00, 0x00, 0x00, 0x00, 0x0e, 0x00,
  0x18, 0x00, 0x14, 0x00, 0x13, 0x00, 0x0c, 0x00, 0x08, 0x00, 0x04, 0x00,
  0x0e, 0x00, 0x00, 0x00, 0x18, 0x00, 0x00, 0x00, 0x18, 0x00, 0x00, 0x00,
  0x02, 0x00, 0x00, 0x00, 0x00, 0x00, 0x00, 0x02, 0x30, 0x00, 0x00, 0x00,
  0x04, 0x00, 0x04, 0x00, 0x04, 0x00, 0x00, 0x00, 0x1c, 0x00, 0x00, 0x00,
  0x73, 0x65, 0x71, 0x75, 0x65, 0x6e, 0x74, 0x69, 0x61, 0x6c, 0x5f, 0x37,
  0x2f, 0x66, 0x6c, 0x61, 0x74, 0x74, 0x65, 0x6e, 0x5f, 0x37, 0x2f, 0x43,
  0x6f, 0x6e, 0x73, 0x74, 0x00, 0x00, 0x00, 0x00, 0x01, 0x00, 0x00, 0x00,
  0x02, 0x00, 0x00, 0x00, 0x14, 0x00, 0x1c, 0x00, 0x18, 0x00, 0x17, 0x00,
  0x10, 0x00, 0x0c, 0x00, 0x08, 0x00, 0x00, 0x00, 0x00, 0x00, 0x04, 0x00,
  0x14, 0x00, 0x00, 0x00, 0x18, 0x00, 0x00, 0x00, 0x34, 0x00, 0x00, 0x00,
  0x54, 0x00, 0x00, 0x00, 0x01, 0x00, 0x00, 0x00, 0x00, 0x00, 0x00, 0x09,
  0x5c, 0x00, 0x00, 0x00, 0x04, 0x00, 0x00, 0x00, 0xff, 0xff, 0xff, 0xff,
  0x0a, 0x00, 0x00, 0x00, 0x06, 0x00, 0x00, 0x00, 0x01, 0x00, 0x00, 0x00,
  0x0c, 0x00, 0x0c, 0x00, 0x00, 0x00, 0x00, 0x00, 0x08, 0x00, 0x04, 0x00,
  0x0c, 0x00, 0x00, 0x00, 0x08, 0x00, 0x00, 0x00, 0x14, 0x00, 0x00, 0x00,
  0x01, 0x00, 0x00, 0x00, 0xbd, 0xff, 0xff, 0xff, 0xff, 0xff, 0xff, 0xff,
  0x00, 0x00, 0x00, 0x00, 0x01, 0x00, 0x00, 0x00, 0x1c, 0x2b, 0x4e, 0x40,
  0x0f, 0x00, 0x00, 0x00, 0x63, 0x6f, 0x6e, 0x76, 0x32, 0x64, 0x5f, 0x31,
  0x34, 0x5f, 0x69, 0x6e, 0x70, 0x75, 0x74, 0x00, 0x04, 0x00, 0x00, 0x00,
  0x01, 0x00, 0x00, 0x00, 0x0a, 0x00, 0x00, 0x00, 0x06, 0x00, 0x00, 0x00,
  0x01, 0x00, 0x00, 0x00, 0x05, 0x00, 0x00, 0x00, 0x68, 0x00, 0x00, 0x00,
  0x48, 0x00, 0x00, 0x00, 0x38, 0x00, 0x00, 0x00, 0x18, 0x00, 0x00, 0x00,
  0x04, 0x00, 0x00, 0x00, 0xb8, 0xff, 0xff, 0xff, 0x19, 0x00, 0x00, 0x00,
  0x02, 0x00, 0x00, 0x00, 0x00, 0x00, 0x00, 0x19, 0xc8, 0xff, 0xff, 0xff,
  0x09, 0x00, 0x00, 0x00, 0x04, 0x00, 0x00, 0x00, 0x00, 0x00, 0x00, 0x09,
  0x0c, 0x00, 0x0c, 0x00, 0x0b, 0x00, 0x00, 0x00, 0x00, 0x00, 0x04, 0x00,
  0x0c, 0x00, 0x00, 0x00, 0x16, 0x00, 0x00, 0x00, 0x00, 0x00, 0x00, 0x16,
  0xf0, 0xff, 0xff, 0xff, 0x11, 0x00, 0x00, 0x00, 0x02, 0x00, 0x00, 0x00,
  0x00, 0x00, 0x00, 0x11, 0x0c, 0x00, 0x10, 0x00, 0x0f, 0x00, 0x00, 0x00,
  0x08, 0x00, 0x04, 0x00, 0x0c, 0x00, 0x00, 0x00, 0x03, 0x00, 0x00, 0x00,
  0x03, 0x00, 0x00, 0x00, 0x00, 0x00, 0x00, 0x03
};
unsigned int g_model_len = 5768;
