unsigned char g_model[] = {
  0x1c, 0x00, 0x00, 0x00, 0x54, 0x46, 0x4c, 0x33, 0x14, 0x00, 0x20, 0x00,
  0x1c, 0x00, 0x18, 0x00, 0x14, 0x00, 0x10, 0x00, 0x0c, 0x00, 0x00, 0x00,
  0x08, 0x00, 0x04, 0x00, 0x14, 0x00, 0x00, 0x00, 0x1c, 0x00, 0x00, 0x00,
  0x1c, 0x00, 0x00, 0x00, 0x4c, 0x00, 0x00, 0x00, 0xe8, 0x08, 0x00, 0x00,
  0xf8, 0x08, 0x00, 0x00, 0x48, 0x18, 0x00, 0x00, 0x03, 0x00, 0x00, 0x00,
  0x00, 0x00, 0x00, 0x00, 0x01, 0x00, 0x00, 0x00, 0x0c, 0x00, 0x00, 0x00,
  0x08, 0x00, 0x0c, 0x00, 0x08, 0x00, 0x04, 0x00, 0x08, 0x00, 0x00, 0x00,
  0x13, 0x00, 0x00, 0x00, 0x04, 0x00, 0x00, 0x00, 0x13, 0x00, 0x00, 0x00,
  0x6d, 0x69, 0x6e, 0x5f, 0x72, 0x75, 0x6e, 0x74, 0x69, 0x6d, 0x65, 0x5f,
  0x76, 0x65, 0x72, 0x73, 0x69, 0x6f, 0x6e, 0x00, 0x14, 0x00, 0x00, 0x00,
  0x98, 0x08, 0x00, 0x00, 0x90, 0x08, 0x00, 0x00, 0x78, 0x08, 0x00, 0x00,
  0xc0, 0x07, 0x00, 0x00, 0x78, 0x07, 0x00, 0x00, 0xe8, 0x03, 0x00, 0x00,
  0x98, 0x03, 0x00, 0x00, 0x88, 0x01, 0x00, 0x00, 0x38, 0x01, 0x00, 0x00,
  0x98, 0x00, 0x00, 0x00, 0x64, 0x00, 0x00, 0x00, 0x5c, 0x00, 0x00, 0x00,
  0x54, 0x00, 0x00, 0x00, 0x4c, 0x00, 0x00, 0x00, 0x44, 0x00, 0x00, 0x00,
  0x3c, 0x00, 0x00, 0x00, 0x34, 0x00, 0x00, 0x00, 0x2c, 0x00, 0x00, 0x00,
  0x24, 0x00, 0x00, 0x00, 0x04, 0x00, 0x00, 0x00, 0x26, 0xf7, 0xff, 0xff,
  0x04, 0x00, 0x00, 0x00, 0x10, 0x00, 0x00, 0x00, 0x31, 0x2e, 0x31, 0x34,
  0x2e, 0x30, 0x00, 0x00, 0x00, 0x00, 0x00, 0x00, 0x00, 0x00, 0x00, 0x00,
  0x38, 0xe9, 0xff, 0xff, 0x3c, 0xe9, 0xff, 0xff, 0x40, 0xe9, 0xff, 0xff,
  0x44, 0xe9, 0xff, 0xff, 0x48, 0xe9, 0xff, 0xff, 0x4c, 0xe9, 0xff, 0xff,
  0x50, 0xe9, 0xff, 0xff, 0x54, 0xe9, 0xff, 0xff, 0x62, 0xf7, 0xff, 0xff,
  0x04, 0x00, 0x00, 0x00, 0x24, 0x00, 0x00, 0x00, 0x4b, 0x00, 0x00, 0x00,
  0x0a, 0x01, 0x00, 0x00, 0x34, 0x01, 0x00, 0x00, 0xf5, 0xfe, 0xff, 0xff,
  0x34, 0xfe, 0xff, 0xff, 0xbe, 0xfc, 0xff, 0xff, 0x31, 0x00, 0x00, 0x00,
  0xb9, 0xff, 0xff, 0xff, 0x8e, 0x00, 0x00, 0x00, 0x92, 0xf7, 0xff, 0xff,
  0x04, 0x00, 0x00, 0x00, 0x90, 0x00, 0x00, 0x00, 0x21, 0x81, 0xee, 0xe0,
  0xbc, 0xd6, 0xf1, 0x0e, 0xd1, 0x1f, 0xf6, 0x39, 0xfb, 0x30, 0x02, 0xb3,
  0x03, 0xed, 0x23, 0xf3, 0xf3, 0x10, 0x26, 0x0f, 0xdd, 0xe6, 0xe8, 0xdf,
  0x0f, 0xea, 0xfe, 0xf2, 0x15, 0xf4, 0xf3, 0xde, 0xfa, 0x10, 0xd5, 0xdd,
  0x11, 0x03, 0xef, 0xf2, 0x1b, 0xdb, 0xe7, 0x0d, 0xdd, 0x09, 0xe4, 0xd4,
  0x20, 0xcf, 0x18, 0xcd, 0x0d, 0xfc, 0xcd, 0x39, 0x0b, 0xf1, 0x0e, 0x06,
  0xd5, 0xe9, 0xdd, 0x20, 0xcc, 0xe4, 0xfa, 0xdc, 0x25, 0xe2, 0x12, 0xd3,
  0xd3, 0xef, 0x18, 0x2d, 0xd9, 0xd2, 0x0f, 0x22, 0x1f, 0x21, 0xd5, 0x1f,
  0x20, 0xea, 0x05, 0xff, 0xd7, 0xf0, 0xdf, 0x08, 0xde, 0xd0, 0xfc, 0x1d,
  0xe7, 0x1f, 0x04, 0x1c, 0xfc, 0x08, 0xd6, 0xe8, 0x0a, 0x09, 0xbe, 0xf5,
  0x12, 0xf8, 0xe1, 0x07, 0x19, 0x1b, 0x14, 0xe9, 0xdf, 0xed, 0x21, 0x17,
  0xed, 0xf5, 0xfe, 0x25, 0xfa, 0xbd, 0x03, 0x19, 0xf6, 0x1b, 0xd2, 0xdc,
  0xf2, 0xd2, 0x2c, 0xf8, 0xeb, 0xd5, 0x0e, 0x02, 0x2e, 0xf8, 0xff, 0xff,
  0x04, 0x00, 0x00, 0x00, 0x40, 0x00, 0x00, 0x00, 0xb6, 0x00, 0x00, 0x00,
  0x2f, 0x00, 0x00, 0x00, 0xd2, 0xff, 0xff, 0xff, 0x3d, 0xff, 0xff, 0xff,
  0xde, 0xfe, 0xff, 0xff, 0xbf, 0xff, 0xff, 0xff, 0x86, 0xff, 0xff, 0xff,
  0x6d, 0xff, 0xff, 0xff, 0x78, 0xfe, 0xff, 0xff, 0x79, 0x00, 0x00, 0x00,
  0xdf, 0xff, 0xff, 0xff, 0x16, 0x00, 0x00, 0x00, 0xf0, 0x00, 0x00, 0x00,
  0xf5, 0xff, 0xff, 0xff, 0xe6, 0xff, 0xff, 0xff, 0xdb, 0xff, 0xff, 0xff,
  0x7a, 0xf8, 0xff, 0xff, 0x04, 0x00, 0x00, 0x00, 0x00, 0x02, 0x00, 0x00,
  0x9d, 0xd0, 0xef, 0x0f, 0xb4, 0x32, 0xc5, 0x22, 0x0f, 0x1e, 0x16, 0x51,
  0x1e, 0xe6, 0xbd, 0x17, 0xfc, 0xf0, 0x21, 0xfc, 0x10, 0xf8, 0x4a, 0xb9,
  0xde, 0x42, 0xe0, 0xee, 0xaf, 0xff, 0xcb, 0xfe, 0xac, 0xcf, 0x0a, 0xf0,
  0xc2, 0x21, 0xe7, 0x05, 0xff, 0xf1, 0xff, 0x0e, 0xff, 0x37, 0xe6, 0x16,
  0xf6, 0xfa, 0x0c, 0x27, 0x10, 0xc8, 0xd2, 0xe3, 0x41, 0xd9, 0x2d, 0xfc,
  0x03, 0x0b, 0x11, 0x4a, 0xe5, 0xdb, 0x3d, 0xa4, 0x18, 0xdb, 0x12, 0x0b,
  0xe9, 0xe2, 0x27, 0x04, 0x22, 0x4e, 0xf0, 0xc8, 0xe5, 0xcb, 0xf3, 0x11,
  0xe8, 0xf2, 0xd6, 0xe2, 0x1a, 0x13, 0xe5, 0xf6, 0x2b, 0xb3, 0x07, 0xfe,
  0x37, 0x37, 0xf6, 0x41, 0x48, 0xf3, 0x0a, 0x09, 0x01, 0x4e, 0xf2, 0xac,
  0xe9, 0x14, 0x01, 0x08, 0x01, 0x01, 0xef, 0x29, 0xdc, 0x46, 0xe3, 0x18,
  0xfa, 0xff, 0xee, 0x23, 0x22, 0x0e, 0x07, 0xe1, 0xfa, 0xe5, 0x11, 0xe9,
  0xf3, 0x2c, 0xe8, 0x39, 0xff, 0xfa, 0xf2, 0x16, 0x0a, 0x1c, 0x07, 0xfc,
  0x21, 0xc6, 0x2c, 0x06, 0x00, 0xed, 0x00, 0x07, 0x19, 0x15, 0x42, 0xe6,
  0xfd, 0x0e, 0x08, 0x24, 0x62, 0x2f, 0x29, 0x47, 0x4b, 0x30, 0xf7, 0x42,
  0x0b, 0x0b, 0xf0, 0xad, 0xdf, 0x26, 0x00, 0x16, 0x0e, 0xd1, 0x1f, 0xcf,
  0x1d, 0x02, 0xec, 0x0c, 0x96, 0xf5, 0xba, 0xf5, 0x24, 0x1c, 0x0a, 0xed,
  0xfa, 0x20, 0x06, 0xf7, 0xfb, 0xd1, 0x17, 0x0d, 0xe0, 0x02, 0xcf, 0x01,
  0xf6, 0xf2, 0xe5, 0xe5, 0xe4, 0x23, 0xd7, 0xef, 0xec, 0x19, 0xfe, 0xf7,
  0xeb, 0x05, 0xf5, 0xdf, 0xd0, 0xe7, 0xe0, 0xf7, 0x29, 0xd4, 0x3c, 0xef,
  0x0d, 0xfb, 0xe6, 0xe1, 0x08, 0xe2, 0xf9, 0x1e, 0xfd, 0x37, 0x5d, 0x04,
  0xe4, 0xf9, 0x27, 0x0c, 0xdb, 0x17, 0x7d, 0x02, 0xdc, 0x3e, 0xc1, 0xf8,
  0x04, 0xbd, 0x31, 0xbd, 0x44, 0x1b, 0x0b, 0xfb, 0x00, 0xe7, 0x02, 0x25,
  0xd6, 0xee, 0xed, 0x10, 0xff, 0x16, 0x2b, 0xe3, 0x00, 0x3d, 0xfb, 0x1a,
  0x06, 0x0d, 0x0a, 0x04, 0x42, 0xe2, 0x27, 0x12, 0x0b, 0xfc, 0x01, 0x0d,
  0x03, 0x28, 0xdb, 0x38, 0xf6, 0xe6, 0xfb, 0xe6, 0xf0, 0x0f, 0x0f, 0xe3,
  0xfc, 0xdc, 0x19, 0x25, 0xe3, 0x10, 0x09, 0xf7, 0x02, 0x0a, 0x51, 0xf4,
  0xee, 0x37, 0x20, 0x11, 0xd5, 0x9c, 0x09, 0xe5, 0xc4, 0xed, 0xc9, 0x15,
  0x1e, 0xe6, 0x17, 0x2d, 0xf5, 0x38, 0x07, 0xed, 0xf9, 0xd8, 0xe8, 0x01,
  0x0b, 0xa0, 0x04, 0x25, 0x17, 0xd8, 0xc4, 0x1a, 0xd0, 0xd5, 0xc7, 0x0c,
  0x06, 0x2d, 0xd4, 0xfa, 0xc2, 0xf7, 0xcf, 0xd3, 0x98, 0x04, 0x08, 0x18,
  0x02, 0x42, 0x09, 0x27, 0x00, 0xbc, 0xf8, 0xeb, 0xca, 0xe6, 0x45, 0xca,
  0xd9, 0x0d, 0x4d, 0x96, 0x20, 0x36, 0x37, 0xf9, 0xc3, 0xdd, 0x09, 0xef,
  0x01, 0xf7, 0x07, 0x05, 0x00, 0xf3, 0x07, 0xb1, 0x29, 0x84, 0x1b, 0x10,
  0x25, 0xfb, 0xdb, 0xfc, 0x9d, 0xc3, 0xed, 0xd8, 0xe5, 0x0a, 0x81, 0xfa,
  0x06, 0xbc, 0x21, 0x07, 0xf1, 0xc7, 0x09, 0x18, 0x03, 0xf0, 0xd9, 0xf5,
  0xf7, 0xef, 0xe8, 0xec, 0xea, 0x30, 0xef, 0xe3, 0xfe, 0xdc, 0xf6, 0x02,
  0xcf, 0x4f, 0x15, 0xd6, 0xeb, 0x0c, 0x3c, 0xc4, 0xe0, 0x3a, 0x01, 0x03,
  0xfa, 0xf0, 0xda, 0x04, 0xb3, 0xe9, 0x09, 0xec, 0xfc, 0xe3, 0x7c, 0xe3,
  0xff, 0x4c, 0x21, 0x16, 0x13, 0xd4, 0xf1, 0xf7, 0x00, 0xd4, 0xd8, 0x16,
  0x11, 0x00, 0x48, 0x09, 0x61, 0x19, 0x47, 0x26, 0x0d, 0x1d, 0xf8, 0xfa,
  0xce, 0x04, 0x0d, 0x06, 0xd0, 0x05, 0xc2, 0x23, 0x0a, 0xf2, 0xf4, 0xed,
  0xf5, 0xd6, 0xfe, 0x0d, 0x23, 0x0b, 0x1f, 0x5c, 0xf3, 0x0c, 0xd9, 0xcd,
  0x03, 0xd9, 0xde, 0x2b, 0x06, 0x19, 0xd5, 0x10, 0x86, 0xfa, 0xff, 0xff,
  0x04, 0x00, 0x00, 0x00, 0x40, 0x00, 0x00, 0x00, 0x18, 0xfd, 0xff, 0xff,
  0xca, 0xfe, 0xff, 0xff, 0xec, 0x00, 0x00, 0x00, 0x09, 0x00, 0x00, 0x00,
  0x70, 0xff, 0xff, 0xff, 0x42, 0xff, 0xff, 0xff, 0x31, 0x01, 0x00, 0x00,
  0xb5, 0xfe, 0xff, 0xff, 0x10, 0xff, 0xff, 0xff, 0xfd, 0xff, 0xff, 0xff,
  0xd7, 0xff, 0xff, 0xff, 0x74, 0x00, 0x00, 0x00, 0x49, 0xfe, 0xff, 0xff,
  0x95, 0xfd, 0xff, 0xff, 0x5f, 0xff, 0xff, 0xff, 0xb6, 0xfe, 0xff, 0xff,
  0xd2, 0xfa, 0xff, 0xff, 0x04, 0x00, 0x00, 0x00, 0x80, 0x03, 0x00, 0x00,
  0x09, 0x0e, 0x14, 0xf7, 0xfd, 0xf4, 0xfa, 0xe7, 0x0e, 0x05, 0xf0, 0x1a,
  0x27, 0x0e, 0x01, 0x19, 0x7f, 0xf9, 0xa0, 0xed, 0xab, 0x3c, 0x0e, 0xfc,
  0xf0, 0xd1, 0x06, 0x03, 0xf1, 0xf1, 0x13, 0xfb, 0xe9, 0x02, 0x31, 0x39,
  0xcb, 0xfb, 0x5e, 0xe2, 0xdd, 0xc3, 0xe4, 0x15, 0xf2, 0x1a, 0xf1, 0xf2,
  0x14, 0xcd, 0xf8, 0xfb, 0x21, 0xbf, 0x42, 0x02, 0xcf, 0x88, 0x51, 0xe4,
  0xd5, 0x13, 0x10, 0x16, 0x28, 0xd1, 0xef, 0xc6, 0xd7, 0xbd, 0xfa, 0x13,
  0xdd, 0xe0, 0x89, 0x13, 0x5d, 0x0d, 0xeb, 0xa2, 0xdb, 0xaa, 0xfe, 0xea,
  0xdc, 0xf6, 0xd5, 0xe8, 0xf6, 0x21, 0x16, 0x4b, 0x13, 0xd2, 0x28, 0x49,
  0x7f, 0x24, 0xc8, 0xbd, 0xf0, 0xfc, 0xfe, 0xbd, 0x41, 0x39, 0xd0, 0xbc,
  0xec, 0xbc, 0x0a, 0xe9, 0xdf, 0x23, 0xf9, 0xfc, 0xb8, 0x81, 0x0b, 0xea,
  0xea, 0x00, 0x0f, 0x01, 0x1b, 0xfa, 0xff, 0x2e, 0xb9, 0xe9, 0xc0, 0xba,
  0xda, 0xf6, 0xe1, 0xd8, 0xdd, 0xe1, 0x90, 0xcf, 0xfa, 0xba, 0x0b, 0x11,
  0xac, 0xd8, 0xf5, 0x2c, 0xda, 0xfd, 0x20, 0xd4, 0x1c, 0xf2, 0xf7, 0x14,
  0x2b, 0x06, 0xb2, 0x09, 0xe2, 0x3b, 0x30, 0xfc, 0x27, 0xe0, 0x18, 0xee,
  0xc8, 0x01, 0x07, 0xf8, 0xbd, 0xdf, 0xff, 0xdd, 0xd4, 0x25, 0xc6, 0xec,
  0xf9, 0x26, 0x10, 0xbd, 0x27, 0xf7, 0xba, 0x07, 0x15, 0x24, 0x1b, 0x04,
  0x00, 0xef, 0xb4, 0xd8, 0xd9, 0xce, 0xf3, 0xdf, 0xfb, 0x00, 0x4c, 0x22,
  0x04, 0xe0, 0xf4, 0xda, 0xfa, 0xd8, 0xf7, 0xd2, 0xfc, 0xb8, 0xe9, 0x1c,
  0x47, 0x35, 0x1e, 0x81, 0xe8, 0xe0, 0xf0, 0xef, 0xe5, 0x1b, 0xd2, 0xf9,
  0x97, 0xe5, 0xdf, 0xdc, 0x0f, 0x19, 0xe2, 0x06, 0x2f, 0x05, 0xe4, 0x01,
  0x61, 0xff, 0xf9, 0x04, 0xeb, 0x19, 0x01, 0xfe, 0xeb, 0xf9, 0xf3, 0xdf,
  0xee, 0xef, 0x37, 0x17, 0xeb, 0xe2, 0xe1, 0x37, 0x09, 0xfe, 0x31, 0x1e,
  0xd6, 0xe8, 0x19, 0xd9, 0xea, 0x13, 0xe2, 0xed, 0xd9, 0x81, 0xcf, 0x02,
  0x07, 0x3a, 0x13, 0x04, 0xb9, 0xb9, 0x20, 0x06, 0x1b, 0x16, 0x2a, 0x09,
  0x25, 0x23, 0x12, 0x16, 0xd1, 0x17, 0x05, 0xd2, 0xbf, 0xcc, 0xec, 0x26,
  0x7f, 0xcb, 0x23, 0xfa, 0x9c, 0xd9, 0x23, 0x02, 0xff, 0x02, 0xdf, 0xc0,
  0x20, 0x1b, 0x3d, 0xf2, 0x13, 0xd0, 0xd2, 0xde, 0x2c, 0xe1, 0xd6, 0x15,
  0xf9, 0x0f, 0xf9, 0xe8, 0x33, 0x13, 0xf6, 0xb5, 0xe0, 0xf0, 0xf0, 0xde,
  0x91, 0xeb, 0x81, 0x03, 0xc7, 0x0e, 0x10, 0xe6, 0x97, 0xc7, 0x04, 0x11,
  0xe5, 0xc6, 0xe7, 0xda, 0x9d, 0xf7, 0xe7, 0x08, 0x17, 0xcf, 0xe6, 0xb0,
  0xc1, 0x25, 0xd9, 0xb0, 0x09, 0x13, 0xd0, 0xda, 0xf9, 0xeb, 0x26, 0xc4,
  0xd2, 0x03, 0xc3, 0x50, 0x1a, 0x1f, 0xf7, 0x19, 0x0b, 0xda, 0x11, 0xfb,
  0xff, 0x16, 0x12, 0xfd, 0xed, 0x19, 0x16, 0xff, 0x42, 0xfc, 0xdf, 0xf9,
  0xf5, 0x11, 0x18, 0xd3, 0xed, 0xfb, 0xe1, 0x12, 0xf8, 0x1b, 0xf7, 0xea,
  0x01, 0xf5, 0xd1, 0x0c, 0x42, 0x10, 0x21, 0x04, 0xee, 0xd2, 0xe4, 0xe7,
  0xff, 0xfd, 0x0f, 0xf7, 0xe2, 0xe0, 0xdf, 0xff, 0x19, 0x01, 0xfd, 0x9d,
  0x1c, 0xf8, 0x07, 0x07, 0x07, 0xff, 0xb5, 0x99, 0xec, 0x02, 0xeb, 0x81,
  0x28, 0xe1, 0x04, 0xb2, 0xe0, 0x07, 0xb9, 0xf0, 0x39, 0x16, 0x03, 0xa4,
  0xd5, 0x39, 0x02, 0xfa, 0xdb, 0xf8, 0xed, 0xea, 0x45, 0xf1, 0x38, 0xfb,
  0x20, 0x05, 0xed, 0x1a, 0x0f, 0x9c, 0x62, 0xe0, 0xc6, 0x81, 0x22, 0xf1,
  0xea, 0x0e, 0x2f, 0x0b, 0x23, 0xa2, 0xd8, 0xc7, 0x2b, 0xcd, 0xf1, 0xc3,
  0x04, 0xc2, 0x0c, 0x0c, 0x58, 0x36, 0x29, 0x97, 0xfe, 0xef, 0x25, 0xce,
  0x84, 0xcc, 0x81, 0x85, 0xc4, 0x14, 0xec, 0xaa, 0xa5, 0xb0, 0xb8, 0x88,
  0xb6, 0xbd, 0x25, 0xde, 0x99, 0xfe, 0xcd, 0xda, 0xea, 0xda, 0x97, 0xf9,
  0xf6, 0x2f, 0xe3, 0xfb, 0x1f, 0x05, 0xe4, 0x95, 0xe4, 0xcf, 0x1b, 0xf2,
  0xc9, 0xfe, 0xc7, 0x21, 0xb0, 0x3b, 0xe5, 0xfa, 0xbb, 0xd8, 0xfa, 0xf3,
  0xff, 0xe6, 0xcd, 0xfd, 0xee, 0x0d, 0x0d, 0x06, 0xfc, 0x07, 0xcf, 0xfe,
  0x11, 0xbe, 0xfe, 0xce, 0xa9, 0xf1, 0x04, 0x16, 0xf6, 0x02, 0xf2, 0x08,
  0xa6, 0xd3, 0x17, 0xac, 0xe3, 0xb4, 0xbe, 0xdf, 0xfc, 0xfe, 0x32, 0xeb,
  0xef, 0x17, 0xe0, 0xd7, 0x02, 0x9c, 0xd8, 0x9b, 0x81, 0x1e, 0x19, 0x10,
  0xd5, 0xf4, 0xd1, 0xfb, 0xf5, 0xc2, 0xd6, 0xe9, 0x11, 0x10, 0x0a, 0xbd,
  0xf3, 0xf0, 0xf5, 0xfc, 0xfa, 0x2d, 0x1b, 0xe0, 0xd7, 0x2d, 0x43, 0x01,
  0xd9, 0x0b, 0xe4, 0xcc, 0x10, 0xcd, 0xd8, 0x81, 0x1a, 0xb1, 0x01, 0xf3,
  0x0e, 0x31, 0x17, 0x06, 0xdb, 0xc3, 0x03, 0x0e, 0xff, 0xd2, 0x08, 0xde,
  0xf1, 0x24, 0x7c, 0x0b, 0x00, 0xd3, 0xe6, 0xd8, 0x30, 0xf6, 0xe2, 0xcb,
  0x11, 0xcf, 0xf1, 0x20, 0x5b, 0x49, 0x0b, 0xed, 0x02, 0xde, 0xfb, 0xe3,
  0xb9, 0xa5, 0x32, 0xef, 0xd6, 0xdb, 0xf8, 0x31, 0xa7, 0x09, 0xfb, 0xcf,
  0xbb, 0xd9, 0x09, 0x17, 0x81, 0x16, 0x0d, 0x05, 0xdc, 0xce, 0x43, 0x07,
  0x08, 0xdd, 0x08, 0xc9, 0x17, 0x30, 0x17, 0xf5, 0x15, 0x18, 0xbf, 0xf7,
  0x0f, 0x12, 0xd4, 0x14, 0xce, 0xe1, 0xe9, 0xf1, 0x01, 0x06, 0xea, 0x14,
  0xde, 0x1d, 0x03, 0x9f, 0x08, 0xe6, 0xed, 0x3e, 0xe9, 0xf9, 0x2c, 0x01,
  0xec, 0xda, 0x31, 0xd1, 0x04, 0x2b, 0x0a, 0xcc, 0xde, 0xff, 0x01, 0x35,
  0x55, 0xe7, 0xe7, 0xf3, 0x53, 0xfd, 0xea, 0xfe, 0xff, 0xf1, 0xc2, 0xf8,
  0x04, 0x0f, 0x88, 0xfa, 0xcf, 0xee, 0x0f, 0x38, 0x25, 0xd5, 0xf6, 0xd6,
  0x81, 0xcf, 0x01, 0x0e, 0x1e, 0xf6, 0xcb, 0x06, 0x6d, 0x1f, 0xf7, 0xc9,
  0x25, 0x0b, 0xf7, 0xb1, 0x67, 0xe2, 0x8f, 0xe1, 0x9d, 0x0e, 0x08, 0xb8,
  0xed, 0xec, 0xfa, 0xea, 0x1b, 0xcf, 0xee, 0x00, 0xfc, 0xfd, 0x44, 0xbe,
  0xe7, 0x01, 0x81, 0xe1, 0xf9, 0x17, 0xd6, 0x09, 0xea, 0xe3, 0x0c, 0x29,
  0xe1, 0x31, 0xdc, 0xd2, 0x0d, 0xff, 0xe6, 0x04, 0xeb, 0x0e, 0x1d, 0xe5,
  0xcd, 0x02, 0x0b, 0x04, 0x9b, 0x0c, 0x07, 0x09, 0x16, 0x0c, 0xf0, 0x17,
  0xdc, 0xbf, 0xa8, 0xfb, 0xf3, 0x98, 0xc6, 0x82, 0xd8, 0x35, 0x00, 0x84,
  0x4d, 0x0d, 0xf1, 0x0e, 0x00, 0x03, 0x32, 0x08, 0xe3, 0xfa, 0xff, 0xeb,
  0xfe, 0x23, 0xb4, 0x28, 0xf5, 0x08, 0xa8, 0x18, 0x28, 0xb6, 0x07, 0xfc,
  0xe1, 0x02, 0xfa, 0xae, 0x4d, 0x35, 0x04, 0x02, 0xe0, 0xfe, 0x2c, 0xff,
  0xf5, 0xf4, 0x02, 0xf5, 0x21, 0x32, 0x81, 0xf0, 0x5e, 0xfe, 0xff, 0xff,
  0x04, 0x00, 0x00, 0x00, 0x38, 0x00, 0x00, 0x00, 0x75, 0xff, 0xff, 0xff,
  0x4a, 0xff, 0xff, 0xff, 0x14, 0x00, 0x00, 0x00, 0xe7, 0xff, 0xff, 0xff,
  0xab, 0xff, 0xff, 0xff, 0xd9, 0xff, 0xff, 0xff, 0x79, 0x00, 0x00, 0x00,
  0x6a, 0x00, 0x00, 0x00, 0xff, 0xff, 0xff, 0xff, 0x75, 0xff, 0xff, 0xff,
  0xd2, 0xff, 0xff, 0xff, 0x12, 0x00, 0x00, 0x00, 0xb3, 0xff, 0xff, 0xff,
  0x30, 0x00, 0x00, 0x00, 0xa2, 0xfe, 0xff, 0xff, 0x04, 0x00, 0x00, 0x00,
  0xa8, 0x00, 0x00, 0x00, 0x7f, 0x0b, 0x0d, 0x1e, 0x08, 0xdb, 0xa3, 0xcb,
  0x07, 0xc7, 0xe9, 0x37, 0x42, 0x7f, 0xe1, 0xc1, 0x32, 0xd6, 0xb9, 0xad,
  0xe8, 0xe7, 0x09, 0x06, 0x04, 0xe9, 0xcc, 0xdd, 0x81, 0x95, 0x12, 0xce,
  0x3c, 0x32, 0x79, 0xa0, 0x15, 0xe0, 0xd1, 0x8c, 0xee, 0xc2, 0xe8, 0x15,
  0x20, 0x7f, 0x07, 0x4a, 0xc8, 0x33, 0x81, 0xda, 0x04, 0xad, 0xcf, 0x13,
  0xd7, 0xe6, 0x5a, 0xc1, 0x0e, 0x81, 0xea, 0x72, 0xbe, 0xf0, 0x26, 0xc9,
  0xbb, 0x25, 0xa9, 0xdb, 0x33, 0x81, 0xb6, 0x19, 0xb1, 0x06, 0x06, 0x9c,
  0xb4, 0xfe, 0x03, 0x8e, 0x04, 0x10, 0xae, 0x0e, 0x18, 0x81, 0x12, 0xa8,
  0x70, 0x36, 0xac, 0xb1, 0x59, 0xed, 0x10, 0x3a, 0xd2, 0xd0, 0xde, 0xbe,
  0x81, 0x00, 0xfd, 0x25, 0xf2, 0xeb, 0x24, 0xff, 0xbf, 0x70, 0x8f, 0xe6,
  0x5a, 0x81, 0x8f, 0xc2, 0xae, 0x0a, 0x0f, 0xfa, 0x81, 0xf6, 0x37, 0x17,
  0xea, 0x01, 0x79, 0xb6, 0xf5, 0xdd, 0xe4, 0x81, 0x4e, 0xfd, 0xe7, 0x42,
  0xce, 0xc8, 0x1f, 0xb4, 0x23, 0xca, 0xcc, 0x81, 0xd5, 0x64, 0xeb, 0x97,
  0x6b, 0xe2, 0xdc, 0xbe, 0x85, 0x1f, 0x1f, 0xfd, 0xe2, 0x0c, 0x62, 0x81,
  0x33, 0xd7, 0x83, 0x46, 0x56, 0xff, 0xff, 0xff, 0x04, 0x00, 0x00, 0x00,
  0x08, 0x00, 0x00, 0x00, 0xff, 0xff, 0xff, 0xff, 0x20, 0x00, 0x00, 0x00,
  0x60, 0xf1, 0xff, 0xff, 0x64, 0xf1, 0xff, 0xff, 0x0f, 0x00, 0x00, 0x00,
  0x4d, 0x4c, 0x49, 0x52, 0x20, 0x43, 0x6f, 0x6e, 0x76, 0x65, 0x72, 0x74,
  0x65, 0x64, 0x2e, 0x00, 0x01, 0x00, 0x00, 0x00, 0x14, 0x00, 0x00, 0x00,
  0x00, 0x00, 0x0e, 0x00, 0x18, 0x00, 0x14, 0x00, 0x10, 0x00, 0x0c, 0x00,
  0x08, 0x00, 0x04, 0x00, 0x0e, 0x00, 0x00, 0x00, 0x14, 0x00, 0x00, 0x00,
  0x1c, 0x00, 0x00, 0x00, 0x58, 0x02, 0x00, 0x00, 0x5c, 0x02, 0x00, 0x00,
  0x60, 0x02, 0x00, 0x00, 0x04, 0x00, 0x00, 0x00, 0x6d, 0x61, 0x69, 0x6e,
  0x00, 0x00, 0x00, 0x00, 0x08, 0x00, 0x00, 0x00, 0xf4, 0x01, 0x00, 0x00,
  0x90, 0x01, 0x00, 0x00, 0x40, 0x01, 0x00, 0x00, 0xf0, 0x00, 0x00, 0x00,
  0xc8, 0x00, 0x00, 0x00, 0x78, 0x00, 0x00, 0x00, 0x40, 0x00, 0x00, 0x00,
  0x04, 0x00, 0x00, 0x00, 0x9a, 0xfe, 0xff, 0xff, 0x1c, 0x00, 0x00, 0x00,
  0x00, 0x00, 0x00, 0x09, 0x1c, 0x00, 0x00, 0x00, 0x20, 0x00, 0x00, 0x00,
  0x04, 0x00, 0x00, 0x00, 0x00, 0x00, 0x06, 0x00, 0x08, 0x00, 0x04, 0x00,
  0x06, 0x00, 0x00, 0x00, 0x00, 0x00, 0x80, 0x3f, 0x01, 0x00, 0x00, 0x00,
  0x11, 0x00, 0x00, 0x00, 0x01, 0x00, 0x00, 0x00, 0x10, 0x00, 0x00, 0x00,
  0xd2, 0xfe, 0xff, 0xff, 0x14, 0x00, 0x00, 0x00, 0x00, 0x00, 0x00, 0x08,
  0x10, 0x00, 0x00, 0x00, 0x14, 0x00, 0x00, 0x00, 0x03, 0x00, 0x00, 0x00,
  0x2c, 0xf2, 0xff, 0xff, 0x01, 0x00, 0x00, 0x00, 0x10, 0x00, 0x00, 0x00,
  0x03, 0x00, 0x00, 0x00, 0x0f, 0x00, 0x00, 0x00, 0x08, 0x00, 0x00, 0x00,
  0x09, 0x00, 0x00, 0x00, 0x06, 0xff, 0xff, 0xff, 0x1c, 0x00, 0x00, 0x00,
  0x00, 0x00, 0x00, 0x08, 0x1c, 0x00, 0x00, 0x00, 0x20, 0x00, 0x00, 0x00,
  0x03, 0x00, 0x00, 0x00, 0x00, 0x00, 0x06, 0x00, 0x08, 0x00, 0x07, 0x00,
  0x06, 0x00, 0x00, 0x00, 0x00, 0x00, 0x00, 0x01, 0x01, 0x00, 0x00, 0x00,
  0x0f, 0x00, 0x00, 0x00, 0x03, 0x00, 0x00, 0x00, 0x0e, 0x00, 0x00, 0x00,
  0x06, 0x00, 0x00, 0x00, 0x07, 0x00, 0x00, 0x00, 0x00, 0x00, 0x0a, 0x00,
  0x10, 0x00, 0x0c, 0x00, 0x08, 0x00, 0x04, 0x00, 0x0a, 0x00, 0x00, 0x00,
  0x0c, 0x00, 0x00, 0x00, 0x10, 0x00, 0x00, 0x00, 0x02, 0x00, 0x00, 0x00,
  0x01, 0x00, 0x00, 0x00, 0x0e, 0x00, 0x00, 0x00, 0x02, 0x00, 0x00, 0x00,
  0x0d, 0x00, 0x00, 0x00, 0x01, 0x00, 0x00, 0x00, 0x76, 0xff, 0xff, 0xff,
  0x24, 0x00, 0x00, 0x00, 0x00, 0x00, 0x00, 0x05, 0x30, 0x00, 0x00, 0x00,
  0x34, 0x00, 0x00, 0x00, 0x01, 0x00, 0x00, 0x00, 0x00, 0x00, 0x0e, 0x00,
  0x14, 0x00, 0x00, 0x00, 0x10, 0x00, 0x0c, 0x00, 0x08, 0x00, 0x04, 0x00,
  0x0e, 0x00, 0x00, 0x00, 0x03, 0x00, 0x00, 0x00, 0x01, 0x00, 0x00, 0x00,
  0x03, 0x00, 0x00, 0x00, 0x01, 0x00, 0x00, 0x00, 0x01, 0x00, 0x00, 0x00,
  0x0d, 0x00, 0x00, 0x00, 0x01, 0x00, 0x00, 0x00, 0x0c, 0x00, 0x00, 0x00,
  0x62, 0xff, 0xff, 0xff, 0x10, 0x00, 0x00, 0x00, 0x00, 0x00, 0x00, 0x01,
  0x18, 0x00, 0x00, 0x00, 0x1c, 0x00, 0x00, 0x00, 0x54, 0xff, 0xff, 0xff,
  0x00, 0x00, 0x00, 0x01, 0x01, 0x00, 0x00, 0x00, 0x01, 0x00, 0x00, 0x00,
  0x01, 0x00, 0x00, 0x00, 0x0c, 0x00, 0x00, 0x00, 0x03, 0x00, 0x00, 0x00,
  0x0b, 0x00, 0x00, 0x00, 0x04, 0x00, 0x00, 0x00, 0x05, 0x00, 0x00, 0x00,
  0x00, 0x00, 0x0e, 0x00, 0x1a, 0x00, 0x14, 0x00, 0x10, 0x00, 0x0c, 0x00,
  0x0b, 0x00, 0x04, 0x00, 0x0e, 0x00, 0x00, 0x00, 0x24, 0x00, 0x00, 0x00,
  0x00, 0x00, 0x00, 0x05, 0x34, 0x00, 0x00, 0x00, 0x38, 0x00, 0x00, 0x00,
  0x01, 0x00, 0x00, 0x00, 0x00, 0x00, 0x0e, 0x00, 0x18, 0x00, 0x17, 0x00,
  0x10, 0x00, 0x0c, 0x00, 0x08, 0x00, 0x04, 0x00, 0x0e, 0x00, 0x00, 0x00,
  0x03, 0x00, 0x00, 0x00, 0x03, 0x00, 0x00, 0x00, 0x03, 0x00, 0x00, 0x00,
  0x03, 0x00, 0x00, 0x00, 0x00, 0x00, 0x00, 0x01, 0x01, 0x00, 0x00, 0x00,
  0x0b, 0x00, 0x00, 0x00, 0x01, 0x00, 0x00, 0x00, 0x0a, 0x00, 0x00, 0x00,
  0x00, 0x00, 0x0e, 0x00, 0x14, 0x00, 0x00, 0x00, 0x10, 0x00, 0x0c, 0x00,
  0x0b, 0x00, 0x04, 0x00, 0x0e, 0x00, 0x00, 0x00, 0x1c, 0x00, 0x00, 0x00,
  0x00, 0x00, 0x00, 0x01, 0x24, 0x00, 0x00, 0x00, 0x28, 0x00, 0x00, 0x00,
  0x0c, 0x00, 0x10, 0x00, 0x00, 0x00, 0x0c, 0x00, 0x08, 0x00, 0x07, 0x00,
  0x0c, 0x00, 0x00, 0x00, 0x00, 0x00, 0x00, 0x01, 0x01, 0x00, 0x00, 0x00,
  0x01, 0x00, 0x00, 0x00, 0x01, 0x00, 0x00, 0x00, 0x0a, 0x00, 0x00, 0x00,
  0x03, 0x00, 0x00, 0x00, 0x00, 0x00, 0x00, 0x00, 0x02, 0x00, 0x00, 0x00,
  0x03, 0x00, 0x00, 0x00, 0x01, 0x00, 0x00, 0x00, 0x11, 0x00, 0x00, 0x00,
  0x01, 0x00, 0x00, 0x00, 0x00, 0x00, 0x00, 0x00, 0x12, 0x00, 0x00, 0x00,
  0x3c, 0x0c, 0x00, 0x00, 0xd8, 0x0b, 0x00, 0x00, 0xb8, 0x0a, 0x00, 0x00,
  0x9c, 0x09, 0x00, 0x00, 0x70, 0x08, 0x00, 0x00, 0x3c, 0x07, 0x00, 0x00,
  0xd0, 0x06, 0x00, 0x00, 0x4c, 0x06, 0x00, 0x00, 0xe0, 0x05, 0x00, 0x00,
  0x5c, 0x05, 0x00, 0x00, 0x60, 0x04, 0x00, 0x00, 0xcc, 0x03, 0x00, 0x00,
  0xd0, 0x02, 0x00, 0x00, 0x3c, 0x02, 0x00, 0x00, 0xc0, 0x01, 0x00, 0x00,
  0x0c, 0x01, 0x00, 0x00, 0x70, 0x00, 0x00, 0x00, 0x04, 0x00, 0x00, 0x00,
  0x20, 0xf4, 0xff, 0xff, 0x18, 0x00, 0x00, 0x00, 0x20, 0x00, 0x00, 0x00,
  0x40, 0x00, 0x00, 0x00, 0x12, 0x00, 0x00, 0x00, 0x00, 0x00, 0x00, 0x09,
  0x44, 0x00, 0x00, 0x00, 0x02, 0x00, 0x00, 0x00, 0xff, 0xff, 0xff, 0xff,
  0x09, 0x00, 0x00, 0x00, 0x04, 0xf4, 0xff, 0xff, 0x08, 0x00, 0x00, 0x00,
  0x14, 0x00, 0x00, 0x00, 0x01, 0x00, 0x00, 0x00, 0x80, 0xff, 0xff, 0xff,
  0xff, 0xff, 0xff, 0xff, 0x00, 0x00, 0x00, 0x00, 0x01, 0x00, 0x00, 0x00,
  0x00, 0x00, 0x80, 0x3b, 0x08, 0x00, 0x00, 0x00, 0x49, 0x64, 0x65, 0x6e,
  0x74, 0x69, 0x74, 0x79, 0x00, 0x00, 0x00, 0x00, 0x02, 0x00, 0x00, 0x00,
  0x01, 0x00, 0x00, 0x00, 0x09, 0x00, 0x00, 0x00, 0x88, 0xf4, 0xff, 0xff,
  0x18, 0x00, 0x00, 0x00, 0x20, 0x00, 0x00, 0x00, 0x40, 0x00, 0x00, 0x00,
  0x11, 0x00, 0x00, 0x00, 0x00, 0x00, 0x00, 0x09, 0x74, 0x00, 0x00, 0x00,
  0x02, 0x00, 0x00, 0x00, 0xff, 0xff, 0xff, 0xff, 0x09, 0x00, 0x00, 0x00,
  0x6c, 0xf4, 0xff, 0xff, 0x08, 0x00, 0x00, 0x00, 0x14, 0x00, 0x00, 0x00,
  0x01, 0x00, 0x00, 0x00, 0x0c, 0x00, 0x00, 0x00, 0x00, 0x00, 0x00, 0x00,
  0x00, 0x00, 0x00, 0x00, 0x01, 0x00, 0x00, 0x00, 0x2a, 0x64, 0xb4, 0x3f,
  0x3a, 0x00, 0x00, 0x00, 0x73, 0x65, 0x71, 0x75, 0x65, 0x6e, 0x74, 0x69,
  0x61, 0x6c, 0x5f, 0x36, 0x2f, 0x64, 0x65, 0x6e, 0x73, 0x65, 0x5f, 0x31,
  0x33, 0x2f, 0x4d, 0x61, 0x74, 0x4d, 0x75, 0x6c, 0x3b, 0x73, 0x65, 0x71,
  0x75, 0x65, 0x6e, 0x74, 0x69, 0x61, 0x6c, 0x5f, 0x36, 0x2f, 0x64, 0x65,
  0x6e, 0x73, 0x65, 0x5f, 0x31, 0x33, 0x2f, 0x42, 0x69, 0x61, 0x73, 0x41,
  0x64, 0x64, 0x00, 0x00, 0x02, 0x00, 0x00, 0x00, 0x01, 0x00, 0x00, 0x00,
  0x09, 0x00, 0x00, 0x00, 0x20, 0xf5, 0xff, 0xff, 0x18, 0x00, 0x00, 0x00,
  0x20, 0x00, 0x00, 0x00, 0x3c, 0x00, 0x00, 0x00, 0x10, 0x00, 0x00, 0x00,
  0x00, 0x00, 0x00, 0x09, 0x8c, 0x00, 0x00, 0x00, 0x02, 0x00, 0x00, 0x00,
  0xff, 0xff, 0xff, 0xff, 0x10, 0x00, 0x00, 0x00, 0x04, 0xf5, 0xff, 0xff,
  0x08, 0x00, 0x00, 0x00, 0x10, 0x00, 0x00, 0x00, 0x01, 0x00, 0x00, 0x00,
  0x80, 0xff, 0xff, 0xff, 0xff, 0xff, 0xff, 0xff, 0x01, 0x00, 0x00, 0x00,
  0x13, 0xa0, 0x01, 0x3f, 0x55, 0x00, 0x00, 0x00, 0x73, 0x65, 0x71, 0x75,
  0x65, 0x6e, 0x74, 0x69, 0x61, 0x6c, 0x5f, 0x36, 0x2f, 0x64, 0x65, 0x6e,
  0x73, 0x65, 0x5f, 0x31, 0x32, 0x2f, 0x4d, 0x61, 0x74, 0x4d, 0x75, 0x6c,
  0x3b, 0x73, 0x65, 0x71, 0x75, 0x65, 0x6e, 0x74, 0x69, 0x61, 0x6c, 0x5f,
  0x36, 0x2f, 0x64, 0x65, 0x6e, 0x73, 0x65, 0x5f, 0x31, 0x32, 0x2f, 0x52,
  0x65, 0x6c, 0x75, 0x3b, 0x73, 0x65, 0x71, 0x75, 0x65, 0x6e, 0x74, 0x69,
  0x61, 0x6c, 0x5f, 0x36, 0x2f, 0x64, 0x65, 0x6e, 0x73, 0x65, 0x5f, 0x31,
  0x32, 0x2f, 0x42, 0x69, 0x61, 0x73, 0x41, 0x64, 0x64, 0x00, 0x00, 0x00,
  0x02, 0x00, 0x00, 0x00, 0x01, 0x00, 0x00, 0x00, 0x10, 0x00, 0x00, 0x00,
  0xd0, 0xf5, 0xff, 0xff, 0x18, 0x00, 0x00, 0x00, 0x20, 0x00, 0x00, 0x00,
  0x3c, 0x00, 0x00, 0x00, 0x0f, 0x00, 0x00, 0x00, 0x00, 0x00, 0x00, 0x09,
  0x54, 0x00, 0x00, 0x00, 0x02, 0x00, 0x00, 0x00, 0xff, 0xff, 0xff, 0xff,
  0x20, 0x00, 0x00, 0x00, 0xb4, 0xf5, 0xff, 0xff, 0x08, 0x00, 0x00, 0x00,
  0x10, 0x00, 0x00, 0x00, 0x01, 0x00, 0x00, 0x00, 0x80, 0xff, 0xff, 0xff,
  0xff, 0xff, 0xff, 0xff, 0x01, 0x00, 0x00, 0x00, 0x78, 0x2f, 0x14, 0x3f,
  0x1e, 0x00, 0x00, 0x00, 0x73, 0x65, 0x71, 0x75, 0x65, 0x6e, 0x74, 0x69,
  0x61, 0x6c, 0x5f, 0x36, 0x2f, 0x66, 0x6c, 0x61, 0x74, 0x74, 0x65, 0x6e,
  0x5f, 0x36, 0x2f, 0x52, 0x65, 0x73, 0x68, 0x61, 0x70, 0x65, 0x00, 0x00,
  0x02, 0x00, 0x00, 0x00, 0x01, 0x00, 0x00, 0x00, 0x20, 0x00, 0x00, 0x00,
  0x48, 0xf6, 0xff, 0xff, 0x18, 0x00, 0x00, 0x00, 0x28, 0x00, 0x00, 0x00,
  0x44, 0x00, 0x00, 0x00, 0x0e, 0x00, 0x00, 0x00, 0x00, 0x00, 0x00, 0x09,
  0x64, 0x00, 0x00, 0x00, 0x04, 0x00, 0x00, 0x00, 0xff, 0xff, 0xff, 0xff,
  0x01, 0x00, 0x00, 0x00, 0x02, 0x00, 0x00, 0x00, 0x10, 0x00, 0x00, 0x00,
  0x34, 0xf6, 0xff, 0xff, 0x08, 0x00, 0x00, 0x00, 0x10, 0x00, 0x00, 0x00,
  0x01, 0x00, 0x00, 0x00, 0x80, 0xff, 0xff, 0xff, 0xff, 0xff, 0xff, 0xff,
  0x01, 0x00, 0x00, 0x00, 0x78, 0x2f, 0x14, 0x3f, 0x25, 0x00, 0x00, 0x00,
  0x73, 0x65, 0x71, 0x75, 0x65, 0x6e, 0x74, 0x69, 0x61, 0x6c, 0x5f, 0x36,
  0x2f, 0x6d, 0x61, 0x78, 0x5f, 0x70, 0x6f, 0x6f, 0x6c, 0x69, 0x6e, 0x67,
  0x32, 0x64, 0x5f, 0x31, 0x33, 0x2f, 0x4d, 0x61, 0x78, 0x50, 0x6f, 0x6f,
  0x6c, 0x00, 0x00, 0x00, 0x04, 0x00, 0x00, 0x00, 0x01, 0x00, 0x00, 0x00,
  0x01, 0x00, 0x00, 0x00, 0x02, 0x00, 0x00, 0x00, 0x10, 0x00, 0x00, 0x00,
  0xd8, 0xf6, 0xff, 0xff, 0x18, 0x00, 0x00, 0x00, 0x28, 0x00, 0x00, 0x00,
  0x44, 0x00, 0x00, 0x00, 0x0d, 0x00, 0x00, 0x00, 0x00, 0x00, 0x00, 0x09,
  0xcc, 0x00, 0x00, 0x00, 0x04, 0x00, 0x00, 0x00, 0xff, 0xff, 0xff, 0xff,
  0x03, 0x00, 0x00, 0x00, 0x02, 0x00, 0x00, 0x00, 0x10, 0x00, 0x00, 0x00,
  0xc4, 0xf6, 0xff, 0xff, 0x08, 0x00, 0x00, 0x00, 0x10, 0x00, 0x00, 0x00,
  0x01, 0x00, 0x00, 0x00, 0x80, 0xff, 0xff, 0xff, 0xff, 0xff, 0xff, 0xff,
  0x01, 0x00, 0x00, 0x00, 0x78, 0x2f, 0x14, 0x3f, 0x8f, 0x00, 0x00, 0x00,
  0x73, 0x65, 0x71, 0x75, 0x65, 0x6e, 0x74, 0x69, 0x61, 0x6c, 0x5f, 0x36,
  0x2f, 0x63, 0x6f, 0x6e, 0x76, 0x32, 0x64, 0x5f, 0x31, 0x33, 0x2f, 0x52,
  0x65, 0x6c, 0x75, 0x3b, 0x73, 0x65, 0x71, 0x75, 0x65, 0x6e, 0x74, 0x69,
  0x61, 0x6c, 0x5f, 0x36, 0x2f, 0x63, 0x6f, 0x6e, 0x76, 0x32, 0x64, 0x5f,
  0x31, 0x33, 0x2f, 0x42, 0x69, 0x61, 0x73, 0x41, 0x64, 0x64, 0x3b, 0x73,
  0x65, 0x71, 0x75, 0x65, 0x6e, 0x74, 0x69, 0x61, 0x6c, 0x5f, 0x36, 0x2f,
  0x63, 0x6f, 0x6e, 0x76, 0x32, 0x64, 0x5f, 0x31, 0x33, 0x2f, 0x43, 0x6f,
  0x6e, 0x76, 0x32, 0x44, 0x3b, 0x73, 0x65, 0x71, 0x75, 0x65, 0x6e, 0x74,
  0x69, 0x61, 0x6c, 0x5f, 0x36, 0x2f, 0x63, 0x6f, 0x6e, 0x76, 0x32, 0x64,
  0x5f, 0x31, 0x33, 0x2f, 0x42, 0x69, 0x61, 0x73, 0x41, 0x64, 0x64, 0x2f,
  0x52, 0x65, 0x61, 0x64, 0x56, 0x61, 0x72, 0x69, 0x61, 0x62, 0x6c, 0x65,
  0x4f, 0x70, 0x2f, 0x72, 0x65, 0x73, 0x6f, 0x75, 0x72, 0x63, 0x65, 0x00,
  0x04, 0x00, 0x00, 0x00, 0x01, 0x00, 0x00, 0x00, 0x03, 0x00, 0x00, 0x00,
  0x02, 0x00, 0x00, 0x00, 0x10, 0x00, 0x00, 0x00, 0xd0, 0xf7, 0xff, 0xff,
  0x18, 0x00, 0x00, 0x00, 0x28, 0x00, 0x00, 0x00, 0x44, 0x00, 0x00, 0x00,
  0x0c, 0x00, 0x00, 0x00, 0x00, 0x00, 0x00, 0x09, 0x64, 0x00, 0x00, 0x00,
  0x04, 0x00, 0x00, 0x00, 0xff, 0xff, 0xff, 0xff, 0x03, 0x00, 0x00, 0x00,
  0x02, 0x00, 0x00, 0x00, 0x0e, 0x00, 0x00, 0x00, 0xbc, 0xf7, 0xff, 0xff,
  0x08, 0x00, 0x00, 0x00, 0x10, 0x00, 0x00, 0x00, 0x01, 0x00, 0x00, 0x00,
  0x80, 0xff, 0xff, 0xff, 0xff, 0xff, 0xff, 0xff, 0x01, 0x00, 0x00, 0x00,
  0x57, 0x23, 0xfb, 0x3e, 0x25, 0x00, 0x00, 0x00, 0x73, 0x65, 0x71, 0x75,
  0x65, 0x6e, 0x74, 0x69, 0x61, 0x6c, 0x5f, 0x36, 0x2f, 0x6d, 0x61, 0x78,
  0x5f, 0x70, 0x6f, 0x6f, 0x6c, 0x69, 0x6e, 0x67, 0x32, 0x64, 0x5f, 0x31,
  0x32, 0x2f, 0x4d, 0x61, 0x78, 0x50, 0x6f, 0x6f, 0x6c, 0x00, 0x00, 0x00,
  0x04, 0x00, 0x00, 0x00, 0x01, 0x00, 0x00, 0x00, 0x03, 0x00, 0x00, 0x00,
  0x02, 0x00, 0x00, 0x00, 0x0e, 0x00, 0x00, 0x00, 0x60, 0xf8, 0xff, 0xff,
  0x18, 0x00, 0x00, 0x00, 0x28, 0x00, 0x00, 0x00, 0x44, 0x00, 0x00, 0x00,
  0x0b, 0x00, 0x00, 0x00, 0x00, 0x00, 0x00, 0x09, 0xcc, 0x00, 0x00, 0x00,
  0x04, 0x00, 0x00, 0x00, 0xff, 0xff, 0xff, 0xff, 0x0a, 0x00, 0x00, 0x00,
  0x06, 0x00, 0x00, 0x00, 0x0e, 0x00, 0x00, 0x00, 0x4c, 0xf8, 0xff, 0xff,
  0x08, 0x00, 0x00, 0x00, 0x10, 0x00, 0x00, 0x00, 0x01, 0x00, 0x00, 0x00,
  0x80, 0xff, 0xff, 0xff, 0xff, 0xff, 0xff, 0xff, 0x01, 0x00, 0x00, 0x00,
  0x57, 0x23, 0xfb, 0x3e, 0x8f, 0x00, 0x00, 0x00, 0x73, 0x65, 0x71, 0x75,
  0x65, 0x6e, 0x74, 0x69, 0x61, 0x6c, 0x5f, 0x36, 0x2f, 0x63, 0x6f, 0x6e,
  0x76, 0x32, 0x64, 0x5f, 0x31, 0x32, 0x2f, 0x52, 0x65, 0x6c, 0x75, 0x3b,
  0x73, 0x65, 0x71, 0x75, 0x65, 0x6e, 0x74, 0x69, 0x61, 0x6c, 0x5f, 0x36,
  0x2f, 0x63, 0x6f, 0x6e, 0x76, 0x32, 0x64, 0x5f, 0x31, 0x32, 0x2f, 0x42,
  0x69, 0x61, 0x73, 0x41, 0x64, 0x64, 0x3b, 0x73, 0x65, 0x71, 0x75, 0x65,
  0x6e, 0x74, 0x69, 0x61, 0x6c, 0x5f, 0x36, 0x2f, 0x63, 0x6f, 0x6e, 0x76,
  0x32, 0x64, 0x5f, 0x31, 0x32, 0x2f, 0x43, 0x6f, 0x6e, 0x76, 0x32, 0x44,
  0x3b, 0x73, 0x65, 0x71, 0x75, 0x65, 0x6e, 0x74, 0x69, 0x61, 0x6c, 0x5f,
  0x36, 0x2f, 0x63, 0x6f, 0x6e, 0x76, 0x32, 0x64, 0x5f, 0x31, 0x32, 0x2f,
  0x42, 0x69, 0x61, 0x73, 0x41, 0x64, 0x64, 0x2f, 0x52, 0x65, 0x61, 0x64,
  0x56, 0x61, 0x72, 0x69, 0x61, 0x62, 0x6c, 0x65, 0x4f, 0x70, 0x2f, 0x72,
  0x65, 0x73, 0x6f, 0x75, 0x72, 0x63, 0x65, 0x00, 0x04, 0x00, 0x00, 0x00,
  0x01, 0x00, 0x00, 0x00, 0x0a, 0x00, 0x00, 0x00, 0x06, 0x00, 0x00, 0x00,
  0x0e, 0x00, 0x00, 0x00, 0xb2, 0xf9, 0xff, 0xff, 0x14, 0x00, 0x00, 0x00,
  0x34, 0x00, 0x00, 0x00, 0x0a, 0x00, 0x00, 0x00, 0x00, 0x00, 0x00, 0x02,
  0x64, 0x00, 0x00, 0x00, 0x2c, 0xf9, 0xff, 0xff, 0x08, 0x00, 0x00, 0x00,
  0x14, 0x00, 0x00, 0x00, 0x01, 0x00, 0x00, 0x00, 0x00, 0x00, 0x00, 0x00,
  0x00, 0x00, 0x00, 0x00, 0x00, 0x00, 0x00, 0x00, 0x01, 0x00, 0x00, 0x00,
  0x54, 0x2c, 0xab, 0x3b, 0x35, 0x00, 0x00, 0x00, 0x73, 0x65, 0x71, 0x75,
  0x65, 0x6e, 0x74, 0x69, 0x61, 0x6c, 0x5f, 0x36, 0x2f, 0x64, 0x65, 0x6e,
  0x73, 0x65, 0x5f, 0x31, 0x33, 0x2f, 0x42, 0x69, 0x61, 0x73, 0x41, 0x64,
  0x64, 0x2f, 0x52, 0x65, 0x61, 0x64, 0x56, 0x61, 0x72, 0x69, 0x61, 0x62,
  0x6c, 0x65, 0x4f, 0x70, 0x2f, 0x72, 0x65, 0x73, 0x6f, 0x75, 0x72, 0x63,
  0x65, 0x00, 0x00, 0x00, 0x01, 0x00, 0x00, 0x00, 0x09, 0x00, 0x00, 0x00,
  0x32, 0xfa, 0xff, 0xff, 0x14, 0x00, 0x00, 0x00, 0x30, 0x00, 0x00, 0x00,
  0x09, 0x00, 0x00, 0x00, 0x00, 0x00, 0x00, 0x09, 0x48, 0x00, 0x00, 0x00,
  0xac, 0xf9, 0xff, 0xff, 0x08, 0x00, 0x00, 0x00, 0x10, 0x00, 0x00, 0x00,
  0x01, 0x00, 0x00, 0x00, 0x00, 0x00, 0x00, 0x00, 0x00, 0x00, 0x00, 0x00,
  0x01, 0x00, 0x00, 0x00, 0xe5, 0x06, 0x29, 0x3c, 0x1c, 0x00, 0x00, 0x00,
  0x73, 0x65, 0x71, 0x75, 0x65, 0x6e, 0x74, 0x69, 0x61, 0x6c, 0x5f, 0x36,
  0x2f, 0x64, 0x65, 0x6e, 0x73, 0x65, 0x5f, 0x31, 0x33, 0x2f, 0x4d, 0x61,
  0x74, 0x4d, 0x75, 0x6c, 0x00, 0x00, 0x00, 0x00, 0x02, 0x00, 0x00, 0x00,
  0x09, 0x00, 0x00, 0x00, 0x10, 0x00, 0x00, 0x00, 0x9a, 0xfa, 0xff, 0xff,
  0x14, 0x00, 0x00, 0x00, 0x34, 0x00, 0x00, 0x00, 0x08, 0x00, 0x00, 0x00,
  0x00, 0x00, 0x00, 0x02, 0x64, 0x00, 0x00, 0x00, 0x14, 0xfa, 0xff, 0xff,
  0x08, 0x00, 0x00, 0x00, 0x14, 0x00, 0x00, 0x00, 0x01, 0x00, 0x00, 0x00,
  0x00, 0x00, 0x00, 0x00, 0x00, 0x00, 0x00, 0x00, 0x00, 0x00, 0x00, 0x00,
  0x01, 0x00, 0x00, 0x00, 0x48, 0xfb, 0x82, 0x3b, 0x35, 0x00, 0x00, 0x00,
  0x73, 0x65, 0x71, 0x75, 0x65, 0x6e, 0x74, 0x69, 0x61, 0x6c, 0x5f, 0x36,
  0x2f, 0x64, 0x65, 0x6e, 0x73, 0x65, 0x5f, 0x31, 0x32, 0x2f, 0x42, 0x69,
  0x61, 0x73, 0x41, 0x64, 0x64, 0x2f, 0x52, 0x65, 0x61, 0x64, 0x56, 0x61,
  0x72, 0x69, 0x61, 0x62, 0x6c, 0x65, 0x4f, 0x70, 0x2f, 0x72, 0x65, 0x73,
  0x6f, 0x75, 0x72, 0x63, 0x65, 0x00, 0x00, 0x00, 0x01, 0x00, 0x00, 0x00,
  0x10, 0x00, 0x00, 0x00, 0x1a, 0xfb, 0xff, 0xff, 0x14, 0x00, 0x00, 0x00,
  0x30, 0x00, 0x00, 0x00, 0x07, 0x00, 0x00, 0x00, 0x00, 0x00, 0x00, 0x09,
  0x48, 0x00, 0x00, 0x00, 0x94, 0xfa, 0xff, 0xff, 0x08, 0x00, 0x00, 0x00,
  0x10, 0x00, 0x00, 0x00, 0x01, 0x00, 0x00, 0x00, 0x00, 0x00, 0x00, 0x00,
  0x00, 0x00, 0x00, 0x00, 0x01, 0x00, 0x00, 0x00, 0x7b, 0x47, 0xe2, 0x3b,
  0x1c, 0x00, 0x00, 0x00, 0x73, 0x65, 0x71, 0x75, 0x65, 0x6e, 0x74, 0x69,
  0x61, 0x6c, 0x5f, 0x36, 0x2f, 0x64, 0x65, 0x6e, 0x73, 0x65, 0x5f, 0x31,
  0x32, 0x2f, 0x4d, 0x61, 0x74, 0x4d, 0x75, 0x6c, 0x00, 0x00, 0x00, 0x00,
  0x02, 0x00, 0x00, 0x00, 0x10, 0x00, 0x00, 0x00, 0x20, 0x00, 0x00, 0x00,
  0x82, 0xfb, 0xff, 0xff, 0x14, 0x00, 0x00, 0x00, 0xe4, 0x00, 0x00, 0x00,
  0x06, 0x00, 0x00, 0x00, 0x00, 0x00, 0x00, 0x02, 0x14, 0x01, 0x00, 0x00,
  0xfc, 0xfa, 0xff, 0xff, 0x08, 0x00, 0x00, 0x00, 0x88, 0x00, 0x00, 0x00,
  0x10, 0x00, 0x00, 0x00, 0x00, 0x00, 0x00, 0x00, 0x00, 0x00, 0x00, 0x00,
  0x00, 0x00, 0x00, 0x00, 0x00, 0x00, 0x00, 0x00, 0x00, 0x00, 0x00, 0x00,
  0x00, 0x00, 0x00, 0x00, 0x00, 0x00, 0x00, 0x00, 0x00, 0x00, 0x00, 0x00,
  0x00, 0x00, 0x00, 0x00, 0x00, 0x00, 0x00, 0x00, 0x00, 0x00, 0x00, 0x00,
  0x00, 0x00, 0x00, 0x00, 0x00, 0x00, 0x00, 0x00, 0x00, 0x00, 0x00, 0x00,
  0x00, 0x00, 0x00, 0x00, 0x00, 0x00, 0x00, 0x00, 0x00, 0x00, 0x00, 0x00,
  0x00, 0x00, 0x00, 0x00, 0x00, 0x00, 0x00, 0x00, 0x00, 0x00, 0x00, 0x00,
  0x00, 0x00, 0x00, 0x00, 0x00, 0x00, 0x00, 0x00, 0x00, 0x00, 0x00, 0x00,
  0x00, 0x00, 0x00, 0x00, 0x00, 0x00, 0x00, 0x00, 0x00, 0x00, 0x00, 0x00,
  0x00, 0x00, 0x00, 0x00, 0x00, 0x00, 0x00, 0x00, 0x00, 0x00, 0x00, 0x00,
  0x00, 0x00, 0x00, 0x00, 0x00, 0x00, 0x00, 0x00, 0x00, 0x00, 0x00, 0x00,
  0x10, 0x00, 0x00, 0x00, 0xcb, 0x94, 0x16, 0x3b, 0xdb, 0x27, 0xf8, 0x3a,
  0xad, 0x12, 0x45, 0x3b, 0x96, 0x5f, 0x44, 0x3b, 0x25, 0xdb, 0x68, 0x3b,
  0xe4, 0x52, 0x1c, 0x3b, 0xc6, 0xc3, 0x40, 0x3b, 0x31, 0x43, 0x59, 0x3b,
  0x01, 0x73, 0x0a, 0x3b, 0xd3, 0xcd, 0x41, 0x3b, 0xdc, 0x4d, 0x41, 0x3b,
  0xa8, 0xe0, 0x25, 0x3b, 0x16, 0x2b, 0xff, 0x3a, 0x24, 0x67, 0x1b, 0x3b,
  0xb9, 0x64, 0x28, 0x3b, 0x6b, 0x17, 0x18, 0x3b, 0x36, 0x00, 0x00, 0x00,
  0x73, 0x65, 0x71, 0x75, 0x65, 0x6e, 0x74, 0x69, 0x61, 0x6c, 0x5f, 0x36,
  0x2f, 0x63, 0x6f, 0x6e, 0x76, 0x32, 0x64, 0x5f, 0x31, 0x33, 0x2f, 0x42,
  0x69, 0x61, 0x73, 0x41, 0x64, 0x64, 0x2f, 0x52, 0x65, 0x61, 0x64, 0x56,
  0x61, 0x72, 0x69, 0x61, 0x62, 0x6c, 0x65, 0x4f, 0x70, 0x2f, 0x72, 0x65,
  0x73, 0x6f, 0x75, 0x72, 0x63, 0x65, 0x00, 0x00, 0x01, 0x00, 0x00, 0x00,
  0x10, 0x00, 0x00, 0x00, 0xb2, 0xfc, 0xff, 0xff, 0x14, 0x00, 0x00, 0x00,
  0xe8, 0x00, 0x00, 0x00, 0x05, 0x00, 0x00, 0x00, 0x00, 0x00, 0x00, 0x09,
  0x00, 0x01, 0x00, 0x00, 0x2c, 0xfc, 0xff, 0xff, 0x08, 0x00, 0x00, 0x00,
  0x8c, 0x00, 0x00, 0x00, 0x10, 0x00, 0x00, 0x00, 0x00, 0x00, 0x00, 0x00,
  0x00, 0x00, 0x00, 0x00, 0x00, 0x00, 0x00, 0x00, 0x00, 0x00, 0x00, 0x00,
  0x00, 0x00, 0x00, 0x00, 0x00, 0x00, 0x00, 0x00, 0x00, 0x00, 0x00, 0x00,
  0x00, 0x00, 0x00, 0x00, 0x00, 0x00, 0x00, 0x00, 0x00, 0x00, 0x00, 0x00,
  0x00, 0x00, 0x00, 0x00, 0x00, 0x00, 0x00, 0x00, 0x00, 0x00, 0x00, 0x00,
  0x00, 0x00, 0x00, 0x00, 0x00, 0x00, 0x00, 0x00, 0x00, 0x00, 0x00, 0x00,
  0x00, 0x00, 0x00, 0x00, 0x00, 0x00, 0x00, 0x00, 0x00, 0x00, 0x00, 0x00,
  0x00, 0x00, 0x00, 0x00, 0x00, 0x00, 0x00, 0x00, 0x00, 0x00, 0x00, 0x00,
  0x00, 0x00, 0x00, 0x00, 0x00, 0x00, 0x00, 0x00, 0x00, 0x00, 0x00, 0x00,
  0x00, 0x00, 0x00, 0x00, 0x00, 0x00, 0x00, 0x00, 0x00, 0x00, 0x00, 0x00,
  0x00, 0x00, 0x00, 0x00, 0x00, 0x00, 0x00, 0x00, 0x00, 0x00, 0x00, 0x00,
  0x00, 0x00, 0x00, 0x00, 0x00, 0x00, 0x00, 0x00, 0x10, 0x00, 0x00, 0x00,
  0x16, 0x7f, 0x99, 0x3b, 0xbc, 0xf5, 0x7c, 0x3b, 0x63, 0xe3, 0xc8, 0x3b,
  0xd4, 0x2c, 0xc8, 0x3b, 0x33, 0x5d, 0xed, 0x3b, 0xa5, 0x59, 0x9f, 0x3b,
  0x22, 0x7f, 0xc4, 0x3b, 0xf6, 0x77, 0xdd, 0x3b, 0x2b, 0x21, 0x8d, 0x3b,
  0x55, 0x8e, 0xc5, 0x3b, 0xe4, 0x0b, 0xc5, 0x3b, 0xc2, 0x16, 0xa9, 0x3b,
  0xdc, 0x0d, 0x82, 0x3b, 0x54, 0x69, 0x9e, 0x3b, 0x4b, 0xa7, 0xab, 0x3b,
  0x32, 0x09, 0x9b, 0x3b, 0x1d, 0x00, 0x00, 0x00, 0x73, 0x65, 0x71, 0x75,
  0x65, 0x6e, 0x74, 0x69, 0x61, 0x6c, 0x5f, 0x36, 0x2f, 0x63, 0x6f, 0x6e,
  0x76, 0x32, 0x64, 0x5f, 0x31, 0x33, 0x2f, 0x43, 0x6f, 0x6e, 0x76, 0x32,
  0x44, 0x00, 0x00, 0x00, 0x04, 0x00, 0x00, 0x00, 0x10, 0x00, 0x00, 0x00,
  0x04, 0x00, 0x00, 0x00, 0x01, 0x00, 0x00, 0x00, 0x0e, 0x00, 0x00, 0x00,
  0xda, 0xfd, 0xff, 0xff, 0x14, 0x00, 0x00, 0x00, 0xcc, 0x00, 0x00, 0x00,
  0x04, 0x00, 0x00, 0x00, 0x00, 0x00, 0x00, 0x02, 0xfc, 0x00, 0x00, 0x00,
  0x54, 0xfd, 0xff, 0xff, 0x08, 0x00, 0x00, 0x00, 0x78, 0x00, 0x00, 0x00,
  0x0e, 0x00, 0x00, 0x00, 0x00, 0x00, 0x00, 0x00, 0x00, 0x00, 0x00, 0x00,
  0x00, 0x00, 0x00, 0x00, 0x00, 0x00, 0x00, 0x00, 0x00, 0x00, 0x00, 0x00,
  0x00, 0x00, 0x00, 0x00, 0x00, 0x00, 0x00, 0x00, 0x00, 0x00, 0x00, 0x00,
  0x00, 0x00, 0x00, 0x00, 0x00, 0x00, 0x00, 0x00, 0x00, 0x00, 0x00, 0x00,
  0x00, 0x00, 0x00, 0x00, 0x00, 0x00, 0x00, 0x00, 0x00, 0x00, 0x00, 0x00,
  0x00, 0x00, 0x00, 0x00, 0x00, 0x00, 0x00, 0x00, 0x00, 0x00, 0x00, 0x00,
  0x00, 0x00, 0x00, 0x00, 0x00, 0x00, 0x00, 0x00, 0x00, 0x00, 0x00, 0x00,
  0x00, 0x00, 0x00, 0x00, 0x00, 0x00, 0x00, 0x00, 0x00, 0x00, 0x00, 0x00,
  0x00, 0x00, 0x00, 0x00, 0x00, 0x00, 0x00, 0x00, 0x00, 0x00, 0x00, 0x00,
  0x00, 0x00, 0x00, 0x00, 0x00, 0x00, 0x00, 0x00, 0x0e, 0x00, 0x00, 0x00,
  0x46, 0x7d, 0xcb, 0x3b, 0x1b, 0x3e, 0xb3, 0x3b, 0x49, 0x6d, 0xdf, 0x3b,
  0xc6, 0x24, 0xaf, 0x3b, 0x90, 0x97, 0xfa, 0x3b, 0x34, 0xa3, 0xbe, 0x3b,
  0x6e, 0xc5, 0x21, 0x3c, 0x33, 0x41, 0xf5, 0x3b, 0x60, 0xf5, 0xce, 0x3b,
  0x10, 0x82, 0x7d, 0x3b, 0x2d, 0xe7, 0xa0, 0x3b, 0x57, 0xb5, 0xeb, 0x3b,
  0xa5, 0x3e, 0xb9, 0x3b, 0x8a, 0xed, 0xb9, 0x3b, 0x36, 0x00, 0x00, 0x00,
  0x73, 0x65, 0x71, 0x75, 0x65, 0x6e, 0x74, 0x69, 0x61, 0x6c, 0x5f, 0x36,
  0x2f, 0x63, 0x6f, 0x6e, 0x76, 0x32, 0x64, 0x5f, 0x31, 0x32, 0x2f, 0x42,
  0x69, 0x61, 0x73, 0x41, 0x64, 0x64, 0x2f, 0x52, 0x65, 0x61, 0x64, 0x56,
  0x61, 0x72, 0x69, 0x61, 0x62, 0x6c, 0x65, 0x4f, 0x70, 0x2f, 0x72, 0x65,
  0x73, 0x6f, 0x75, 0x72, 0x63, 0x65, 0x00, 0x00, 0x01, 0x00, 0x00, 0x00,
  0x0e, 0x00, 0x00, 0x00, 0xf2, 0xfe, 0xff, 0xff, 0x14, 0x00, 0x00, 0x00,
  0xcc, 0x00, 0x00, 0x00, 0x03, 0x00, 0x00, 0x00, 0x00, 0x00, 0x00, 0x09,
  0xe4, 0x00, 0x00, 0x00, 0x6c, 0xfe, 0xff, 0xff, 0x08, 0x00, 0x00, 0x00,
  0x78, 0x00, 0x00, 0x00, 0x0e, 0x00, 0x00, 0x00, 0x00, 0x00, 0x00, 0x00,
  0x00, 0x00, 0x00, 0x00, 0x00, 0x00, 0x00, 0x00, 0x00, 0x00, 0x00, 0x00,
  0x00, 0x00, 0x00, 0x00, 0x00, 0x00, 0x00, 0x00, 0x00, 0x00, 0x00, 0x00,
  0x00, 0x00, 0x00, 0x00, 0x00, 0x00, 0x00, 0x00, 0x00, 0x00, 0x00, 0x00,
  0x00, 0x00, 0x00, 0x00, 0x00, 0x00, 0x00, 0x00, 0x00, 0x00, 0x00, 0x00,
  0x00, 0x00, 0x00, 0x00, 0x00, 0x00, 0x00, 0x00, 0x00, 0x00, 0x00, 0x00,
  0x00, 0x00, 0x00, 0x00, 0x00, 0x00, 0x00, 0x00, 0x00, 0x00, 0x00, 0x00,
  0x00, 0x00, 0x00, 0x00, 0x00, 0x00, 0x00, 0x00, 0x00, 0x00, 0x00, 0x00,
  0x00, 0x00, 0x00, 0x00, 0x00, 0x00, 0x00, 0x00, 0x00, 0x00, 0x00, 0x00,
  0x00, 0x00, 0x00, 0x00, 0x00, 0x00, 0x00, 0x00, 0x00, 0x00, 0x00, 0x00,
  0x0e, 0x00, 0x00, 0x00, 0x73, 0x81, 0x29, 0x3b, 0xe9, 0x4e, 0x15, 0x3b,
  0x11, 0x1d, 0x3a, 0x3b, 0xd2, 0xe4, 0x11, 0x3b, 0xf3, 0xbd, 0x50, 0x3b,
  0xd6, 0xcc, 0x1e, 0x3b, 0x31, 0xc1, 0x86, 0x3b, 0xc6, 0x4b, 0x4c, 0x3b,
  0x3c, 0x65, 0x2c, 0x3b, 0xc7, 0x2b, 0xd3, 0x3a, 0x0e, 0x08, 0x06, 0x3b,
  0x0d, 0x58, 0x44, 0x3b, 0xd7, 0x4e, 0x1a, 0x3b, 0x86, 0xe0, 0x1a, 0x3b,
  0x1d, 0x00, 0x00, 0x00, 0x73, 0x65, 0x71, 0x75, 0x65, 0x6e, 0x74, 0x69,
  0x61, 0x6c, 0x5f, 0x36, 0x2f, 0x63, 0x6f, 0x6e, 0x76, 0x32, 0x64, 0x5f,
  0x31, 0x32, 0x2f, 0x43, 0x6f, 0x6e, 0x76, 0x32, 0x44, 0x00, 0x00, 0x00,
  0x04, 0x00, 0x00, 0x00, 0x0e, 0x00, 0x00, 0x00, 0x04, 0x00, 0x00, 0x00,
  0x03, 0x00, 0x00, 0x00, 0x01, 0x00, 0x00, 0x00, 0x00, 0x00, 0x0e, 0x00,
  0x18, 0x00, 0x14, 0x00, 0x13, 0x00, 0x0c, 0x00, 0x08, 0x00, 0x04, 0x00,
  0x0e, 0x00, 0x00, 0x00, 0x18, 0x00, 0x00, 0x00, 0x18, 0x00, 0x00, 0x00,
  0x02, 0x00, 0x00, 0x00, 0x00, 0x00, 0x00, 0x02, 0x30, 0x00, 0x00, 0x00,
  0x04, 0x00, 0x04, 0x00, 0x04, 0x00, 0x00, 0x00, 0x1c, 0x00, 0x00, 0x00,
  0x73, 0x65, 0x71, 0x75, 0x65, 0x6e, 0x74, 0x69, 0x61, 0x6c, 0x5f, 0x36,
  0x2f, 0x66, 0x6c, 0x61, 0x74, 0x74, 0x65, 0x6e, 0x5f, 0x36, 0x2f, 0x43,
  0x6f, 0x6e, 0x73, 0x74, 0x00, 0x00, 0x00, 0x00, 0x01, 0x00, 0x00, 0x00,
  0x02, 0x00, 0x00, 0x00, 0x14, 0x00, 0x1c, 0x00, 0x18, 0x00, 0x17, 0x00,
  0x10, 0x00, 0x0c, 0x00, 0x08, 0x00, 0x00, 0x00, 0x00, 0x00, 0x04, 0x00,
  0x14, 0x00, 0x00, 0x00, 0x18, 0x00, 0x00, 0x00, 0x34, 0x00, 0x00, 0x00,
  0x54, 0x00, 0x00, 0x00, 0x01, 0x00, 0x00, 0x00, 0x00, 0x00, 0x00, 0x09,
  0x5c, 0x00, 0x00, 0x00, 0x04, 0x00, 0x00, 0x00, 0xff, 0xff, 0xff, 0xff,
  0x0a, 0x00, 0x00, 0x00, 0x06, 0x00, 0x00, 0x00, 0x01, 0x00, 0x00, 0x00,
  0x0c, 0x00, 0x0c, 0x00, 0x00, 0x00, 0x00, 0x00, 0x08, 0x00, 0x04, 0x00,
  0x0c, 0x00, 0x00, 0x00, 0x08, 0x00, 0x00, 0x00, 0x14, 0x00, 0x00, 0x00,
  0x01, 0x00, 0x00, 0x00, 0xa0, 0xff, 0xff, 0xff, 0xff, 0xff, 0xff, 0xff,
  0x00, 0x00, 0x00, 0x00, 0x01, 0x00, 0x00, 0x00, 0x8f, 0xa9, 0x19, 0x40,
  0x0f, 0x00, 0x00, 0x00, 0x63, 0x6f, 0x6e, 0x76, 0x32, 0x64, 0x5f, 0x31,
  0x32, 0x5f, 0x69, 0x6e, 0x70, 0x75, 0x74, 0x00, 0x04, 0x00, 0x00, 0x00,
  0x01, 0x00, 0x00, 0x00, 0x0a, 0x00, 0x00, 0x00, 0x06, 0x00, 0x00, 0x00,
  0x01, 0x00, 0x00, 0x00, 0x05, 0x00, 0x00, 0x00, 0x68, 0x00, 0x00, 0x00,
  0x48, 0x00, 0x00, 0x00, 0x38, 0x00, 0x00, 0x00, 0x18, 0x00, 0x00, 0x00,
  0x04, 0x00, 0x00, 0x00, 0xb8, 0xff, 0xff, 0xff, 0x19, 0x00, 0x00, 0x00,
  0x02, 0x00, 0x00, 0x00, 0x00, 0x00, 0x00, 0x19, 0xc8, 0xff, 0xff, 0xff,
  0x09, 0x00, 0x00, 0x00, 0x04, 0x00, 0x00, 0x00, 0x00, 0x00, 0x00, 0x09,
  0x0c, 0x00, 0x0c, 0x00, 0x0b, 0x00, 0x00, 0x00, 0x00, 0x00, 0x04, 0x00,
  0x0c, 0x00, 0x00, 0x00, 0x16, 0x00, 0x00, 0x00, 0x00, 0x00, 0x00, 0x16,
  0xf0, 0xff, 0xff, 0xff, 0x11, 0x00, 0x00, 0x00, 0x02, 0x00, 0x00, 0x00,
  0x00, 0x00, 0x00, 0x11, 0x0c, 0x00, 0x10, 0x00, 0x0f, 0x00, 0x00, 0x00,
  0x08, 0x00, 0x04, 0x00, 0x0c, 0x00, 0x00, 0x00, 0x03, 0x00, 0x00, 0x00,
  0x03, 0x00, 0x00, 0x00, 0x00, 0x00, 0x00, 0x03
};
unsigned int g_model_len = 6392;
