unsigned char g_model[] = {
  0x20, 0x00, 0x00, 0x00, 0x54, 0x46, 0x4c, 0x33, 0x00, 0x00, 0x00, 0x00,
  0x14, 0x00, 0x20, 0x00, 0x1c, 0x00, 0x18, 0x00, 0x14, 0x00, 0x10, 0x00,
  0x0c, 0x00, 0x00, 0x00, 0x08, 0x00, 0x04, 0x00, 0x14, 0x00, 0x00, 0x00,
  0x1c, 0x00, 0x00, 0x00, 0x1c, 0x00, 0x00, 0x00, 0x4c, 0x00, 0x00, 0x00,
  0xcc, 0x06, 0x00, 0x00, 0xdc, 0x06, 0x00, 0x00, 0xbc, 0x15, 0x00, 0x00,
  0x03, 0x00, 0x00, 0x00, 0x00, 0x00, 0x00, 0x00, 0x01, 0x00, 0x00, 0x00,
  0x0c, 0x00, 0x00, 0x00, 0x08, 0x00, 0x0c, 0x00, 0x08, 0x00, 0x04, 0x00,
  0x08, 0x00, 0x00, 0x00, 0x13, 0x00, 0x00, 0x00, 0x04, 0x00, 0x00, 0x00,
  0x13, 0x00, 0x00, 0x00, 0x6d, 0x69, 0x6e, 0x5f, 0x72, 0x75, 0x6e, 0x74,
  0x69, 0x6d, 0x65, 0x5f, 0x76, 0x65, 0x72, 0x73, 0x69, 0x6f, 0x6e, 0x00,
  0x14, 0x00, 0x00, 0x00, 0x7c, 0x06, 0x00, 0x00, 0x74, 0x06, 0x00, 0x00,
  0x5c, 0x06, 0x00, 0x00, 0xec, 0x05, 0x00, 0x00, 0xbc, 0x05, 0x00, 0x00,
  0xac, 0x03, 0x00, 0x00, 0x5c, 0x03, 0x00, 0x00, 0x4c, 0x01, 0x00, 0x00,
  0xfc, 0x00, 0x00, 0x00, 0x8c, 0x00, 0x00, 0x00, 0x64, 0x00, 0x00, 0x00,
  0x5c, 0x00, 0x00, 0x00, 0x54, 0x00, 0x00, 0x00, 0x4c, 0x00, 0x00, 0x00,
  0x44, 0x00, 0x00, 0x00, 0x3c, 0x00, 0x00, 0x00, 0x34, 0x00, 0x00, 0x00,
  0x2c, 0x00, 0x00, 0x00, 0x24, 0x00, 0x00, 0x00, 0x04, 0x00, 0x00, 0x00,
  0x42, 0xf9, 0xff, 0xff, 0x04, 0x00, 0x00, 0x00, 0x10, 0x00, 0x00, 0x00,
  0x31, 0x2e, 0x31, 0x34, 0x2e, 0x30, 0x00, 0x00, 0x00, 0x00, 0x00, 0x00,
  0x00, 0x00, 0x00, 0x00, 0xc4, 0xeb, 0xff, 0xff, 0xc8, 0xeb, 0xff, 0xff,
  0xcc, 0xeb, 0xff, 0xff, 0xd0, 0xeb, 0xff, 0xff, 0xd4, 0xeb, 0xff, 0xff,
  0xd8, 0xeb, 0xff, 0xff, 0xdc, 0xeb, 0xff, 0xff, 0xe0, 0xeb, 0xff, 0xff,
  0x7e, 0xf9, 0xff, 0xff, 0x04, 0x00, 0x00, 0x00, 0x18, 0x00, 0x00, 0x00,
  0x97, 0x00, 0x00, 0x00, 0xfe, 0xff, 0xff, 0xff, 0x53, 0xff, 0xff, 0xff,
  0x93, 0xfe, 0xff, 0xff, 0x4d, 0x00, 0x00, 0x00, 0xbf, 0x00, 0x00, 0x00,
  0xa2, 0xf9, 0xff, 0xff, 0x04, 0x00, 0x00, 0x00, 0x60, 0x00, 0x00, 0x00,
  0x20, 0xc0, 0x91, 0xac, 0xc4, 0xdb, 0x6b, 0x0f, 0x31, 0x3b, 0xbf, 0x9b,
  0x2a, 0x9d, 0x21, 0xdf, 0x04, 0x97, 0xc6, 0xa6, 0xb8, 0x04, 0x1a, 0x22,
  0xf1, 0x5c, 0x37, 0x99, 0xc3, 0x9b, 0xbd, 0xa6, 0x3a, 0xa9, 0xca, 0xee,
  0x4f, 0x45, 0x0c, 0x37, 0xb2, 0xa7, 0xa3, 0xef, 0x27, 0x9b, 0xc9, 0x05,
  0x16, 0xfd, 0x04, 0x0d, 0x9a, 0x71, 0x00, 0x35, 0x1c, 0x40, 0x69, 0xef,
  0xfe, 0x52, 0x54, 0xbf, 0x20, 0x8c, 0x4d, 0xa0, 0x2e, 0xe3, 0xf4, 0xb9,
  0x28, 0x81, 0xef, 0xfd, 0xb6, 0x5e, 0xdd, 0x1c, 0x5f, 0xab, 0x0f, 0xa3,
  0xbb, 0xad, 0x5f, 0x9d, 0xe0, 0xa7, 0xe5, 0xb5, 0xc8, 0x02, 0xc4, 0x34,
  0x0e, 0xfa, 0xff, 0xff, 0x04, 0x00, 0x00, 0x00, 0x40, 0x00, 0x00, 0x00,
  0xdc, 0xff, 0xff, 0xff, 0xb0, 0xff, 0xff, 0xff, 0x33, 0x00, 0x00, 0x00,
  0xde, 0xff, 0xff, 0xff, 0xd7, 0xff, 0xff, 0xff, 0xd6, 0xff, 0xff, 0xff,
  0x08, 0x00, 0x00, 0x00, 0xb8, 0xff, 0xff, 0xff, 0xbf, 0xff, 0xff, 0xff,
  0xfb, 0xff, 0xff, 0xff, 0xba, 0xff, 0xff, 0xff, 0xdf, 0xff, 0xff, 0xff,
  0xda, 0xff, 0xff, 0xff, 0xdf, 0xff, 0xff, 0xff, 0x02, 0x00, 0x00, 0x00,
  0xe5, 0xff, 0xff, 0xff, 0x5a, 0xfa, 0xff, 0xff, 0x04, 0x00, 0x00, 0x00,
  0x00, 0x02, 0x00, 0x00, 0xfb, 0x0b, 0xda, 0xbb, 0xf0, 0xed, 0xb8, 0xb5,
  0xbf, 0xce, 0xc3, 0x17, 0x9c, 0xdd, 0x16, 0x0e, 0xf6, 0xfa, 0x1b, 0xe1,
  0x39, 0xd8, 0x1f, 0xb3, 0xda, 0xe6, 0x06, 0xe9, 0x0f, 0xb6, 0x32, 0xc2,
  0xdb, 0x24, 0xc4, 0x09, 0xff, 0xe3, 0xa7, 0xe3, 0xdd, 0xd7, 0x0b, 0x9f,
  0xa2, 0xbd, 0x14, 0xec, 0xc4, 0x2d, 0x0e, 0x08, 0xdf, 0xd8, 0xf7, 0x3c,
  0xad, 0xdd, 0xf9, 0x95, 0x0c, 0x20, 0x18, 0x1d, 0xe2, 0xb0, 0xf6, 0xf6,
  0xbb, 0xdf, 0xf5, 0x58, 0x3e, 0x1f, 0x5b, 0x38, 0xe7, 0xca, 0x59, 0xed,
  0xda, 0x90, 0x9c, 0x06, 0xcb, 0x1b, 0x50, 0x01, 0xf5, 0x0c, 0x1b, 0x07,
  0x2d, 0x0e, 0x1c, 0xdb, 0xb1, 0x20, 0xb4, 0xc2, 0xfe, 0xb6, 0xb6, 0x2f,
  0x36, 0x10, 0xc5, 0xd2, 0xe0, 0xdd, 0x1d, 0x02, 0x02, 0xd3, 0x1d, 0x31,
  0x01, 0xbf, 0x25, 0xbd, 0xde, 0xe4, 0xe5, 0xb3, 0x10, 0x16, 0x08, 0x0d,
  0x01, 0xdb, 0xd3, 0xca, 0xea, 0xd2, 0x0b, 0xd4, 0xc3, 0xe7, 0x39, 0xf8,
  0xea, 0x13, 0x3d, 0xcc, 0xed, 0xe1, 0xcd, 0x19, 0xd9, 0x1e, 0xd6, 0xc1,
  0xca, 0xe2, 0xa9, 0x02, 0x22, 0x32, 0x1e, 0x20, 0x05, 0xd6, 0xc2, 0x05,
  0xf5, 0xd2, 0xfd, 0xd1, 0xd4, 0x25, 0xe8, 0xf8, 0xab, 0xba, 0xc4, 0x0b,
  0xf9, 0x5a, 0x02, 0x1c, 0xb6, 0xc2, 0x36, 0xf6, 0xb3, 0xd2, 0x04, 0xce,
  0xcd, 0x3b, 0x37, 0x3d, 0xf8, 0xec, 0x7c, 0x3b, 0x20, 0x7e, 0x30, 0x37,
  0xdc, 0xdb, 0xf1, 0xd5, 0xd2, 0x60, 0x23, 0xa5, 0x12, 0xaf, 0xfb, 0x2a,
  0xfb, 0xea, 0xf5, 0xf1, 0xca, 0xfe, 0x03, 0x0a, 0xf5, 0xf2, 0x1b, 0x20,
  0xcf, 0xae, 0xd2, 0xbf, 0xaf, 0xd9, 0xae, 0x10, 0x22, 0x2d, 0xe4, 0xd1,
  0xbc, 0xc7, 0x11, 0xd1, 0xe3, 0xef, 0x19, 0xaf, 0xa8, 0x18, 0xd8, 0xb9,
  0xa2, 0x24, 0x18, 0xf7, 0x31, 0xab, 0x1d, 0xa7, 0xe2, 0xd9, 0xeb, 0xb6,
  0xe7, 0xc9, 0x27, 0xa0, 0xde, 0x00, 0xe1, 0xd0, 0xdf, 0xa5, 0xfc, 0xc3,
  0x08, 0x15, 0x17, 0xc2, 0x1f, 0x1d, 0xfb, 0xd3, 0x10, 0x0e, 0xd8, 0x10,
  0x09, 0xb1, 0xc8, 0x02, 0xf9, 0x06, 0xff, 0xd1, 0x48, 0xe0, 0xf2, 0xf2,
  0x19, 0xfc, 0x17, 0xd1, 0xe5, 0x0f, 0x05, 0xe0, 0x4b, 0x36, 0x7f, 0x03,
  0x2b, 0x37, 0xd5, 0x31, 0xc4, 0x2a, 0xd9, 0x03, 0xb8, 0xc6, 0xe3, 0xdd,
  0x12, 0xa5, 0xe0, 0x20, 0xa6, 0xfc, 0xa1, 0xd6, 0x00, 0xb0, 0xb8, 0xce,
  0xae, 0xd1, 0x8e, 0xfa, 0x0f, 0x09, 0x54, 0xb8, 0xf2, 0xdc, 0x1e, 0x0d,
  0xa6, 0xfa, 0xf0, 0xa6, 0x2b, 0x0d, 0x19, 0x25, 0xbd, 0xec, 0x1f, 0x1e,
  0xf1, 0xbb, 0xf4, 0x25, 0xde, 0x23, 0xf4, 0xaa, 0xf5, 0xd5, 0xba, 0xb7,
  0xaa, 0x39, 0xcc, 0xc9, 0x06, 0xde, 0xe5, 0xc9, 0xec, 0x3b, 0xe3, 0xcd,
  0x21, 0x43, 0x3d, 0x29, 0xd0, 0xa9, 0xd3, 0x1d, 0x20, 0xc5, 0xd4, 0xac,
  0xc4, 0xb3, 0xbc, 0x10, 0x0c, 0x39, 0x20, 0x40, 0xd7, 0x27, 0x23, 0xcd,
  0x0f, 0xdc, 0xef, 0xea, 0x4b, 0xab, 0x46, 0xbb, 0x06, 0x08, 0xdd, 0x2c,
  0xb8, 0x3a, 0x2c, 0x30, 0xd3, 0xeb, 0x30, 0xcd, 0x15, 0x0e, 0xd8, 0xcd,
  0xe1, 0xc3, 0xc7, 0x18, 0xdd, 0xeb, 0xe6, 0xfa, 0xae, 0x1f, 0xf8, 0xfa,
  0x07, 0xdd, 0xb9, 0xeb, 0x29, 0x45, 0xdb, 0xde, 0xf1, 0xd5, 0x17, 0xcf,
  0x64, 0xc9, 0x95, 0xd5, 0x1d, 0xf6, 0x97, 0xe2, 0xc8, 0xce, 0xd5, 0xab,
  0x1d, 0xf7, 0xeb, 0xc1, 0x1f, 0xe7, 0x3c, 0xef, 0xed, 0xd8, 0x49, 0x26,
  0xd9, 0xf8, 0x0c, 0x03, 0xd7, 0x58, 0x49, 0x28, 0xf7, 0xfb, 0xbf, 0x3d,
  0xb1, 0x25, 0x0b, 0x41, 0xd2, 0x40, 0x5c, 0xf0, 0xbe, 0xbc, 0xd2, 0x2f,
  0x24, 0xf4, 0xe9, 0xd4, 0xe3, 0xc9, 0x16, 0x24, 0xef, 0xf2, 0x2d, 0x3d,
  0x66, 0xfc, 0xff, 0xff, 0x04, 0x00, 0x00, 0x00, 0x40, 0x00, 0x00, 0x00,
  0x8b, 0xff, 0xff, 0xff, 0x39, 0xff, 0xff, 0xff, 0xff, 0xff, 0xff, 0xff,
  0xc3, 0xff, 0xff, 0xff, 0x85, 0xff, 0xff, 0xff, 0xa3, 0x00, 0x00, 0x00,
  0x77, 0x00, 0x00, 0x00, 0xe0, 0xff, 0xff, 0xff, 0xba, 0xff, 0xff, 0xff,
  0xac, 0xff, 0xff, 0xff, 0x74, 0x00, 0x00, 0x00, 0x57, 0x00, 0x00, 0x00,
  0x20, 0x00, 0x00, 0x00, 0x73, 0x00, 0x00, 0x00, 0x6c, 0x00, 0x00, 0x00,
  0xcd, 0xff, 0xff, 0xff, 0xb2, 0xfc, 0xff, 0xff, 0x04, 0x00, 0x00, 0x00,
  0x00, 0x02, 0x00, 0x00, 0x38, 0xc8, 0xd5, 0x2c, 0xe8, 0xb3, 0x7f, 0xbd,
  0x62, 0xd6, 0x3c, 0x4a, 0xf5, 0x76, 0xb3, 0x99, 0x74, 0xe4, 0xf5, 0xdb,
  0xe5, 0x54, 0xe3, 0xb0, 0x3e, 0x9a, 0x27, 0xe4, 0xfc, 0xe4, 0xbc, 0x4c,
  0x50, 0x4c, 0x30, 0x52, 0xfe, 0x1d, 0xf6, 0x3b, 0x0f, 0x43, 0xfb, 0xcc,
  0xfc, 0xce, 0x1e, 0x13, 0x7a, 0x7f, 0xf9, 0xd6, 0xf6, 0xd8, 0x31, 0x39,
  0x00, 0x25, 0xb7, 0xbc, 0x12, 0x21, 0x00, 0xcd, 0x69, 0x5b, 0xec, 0x60,
  0xfa, 0x02, 0xea, 0x23, 0x64, 0x5e, 0xed, 0xf1, 0x01, 0xf7, 0xe9, 0xe9,
  0x7f, 0x40, 0xf5, 0xfe, 0x02, 0x47, 0x03, 0xfa, 0x3b, 0x16, 0xfc, 0x08,
  0xfa, 0xc9, 0x3a, 0x18, 0x0c, 0xb9, 0xe9, 0xde, 0x84, 0x81, 0xec, 0xa8,
  0xe6, 0x21, 0x00, 0xfe, 0x1b, 0xe1, 0x11, 0xa2, 0xbb, 0x0e, 0x23, 0xa0,
  0xf1, 0x46, 0x43, 0xd5, 0xfe, 0xd2, 0x22, 0xaa, 0xef, 0x12, 0x17, 0xde,
  0x4d, 0x07, 0xfa, 0xd1, 0xdf, 0xda, 0x7f, 0xba, 0x07, 0xd2, 0xe2, 0xd8,
  0xe6, 0x25, 0x59, 0xe7, 0xc1, 0xb2, 0xe1, 0x38, 0x09, 0xe4, 0x31, 0x6b,
  0x23, 0xa9, 0xf5, 0x0b, 0x17, 0xc5, 0xa7, 0x30, 0xd2, 0xaf, 0x1b, 0x41,
  0xd1, 0x30, 0x40, 0xdd, 0x54, 0xcf, 0xa3, 0x49, 0xd5, 0x57, 0xd8, 0x81,
  0x56, 0x0d, 0x24, 0xa1, 0x90, 0xf7, 0xd3, 0xda, 0xe8, 0xd2, 0x06, 0x0f,
  0xe2, 0xe9, 0x2a, 0x16, 0xf2, 0xf5, 0xd5, 0xf4, 0xfa, 0xde, 0x4b, 0xf6,
  0xaf, 0xb9, 0xdd, 0xe0, 0x0d, 0x33, 0xbd, 0x09, 0x86, 0xc9, 0xed, 0x97,
  0xe6, 0x19, 0x0e, 0xbf, 0x81, 0xb7, 0x09, 0x33, 0x21, 0xfa, 0xea, 0x2b,
  0x7f, 0x45, 0xf1, 0xe3, 0xfa, 0x07, 0x9e, 0x48, 0x09, 0x3b, 0xf9, 0x1c,
  0xff, 0xce, 0xca, 0x43, 0x21, 0x59, 0x32, 0xd8, 0x09, 0x44, 0x17, 0x24,
  0x36, 0x27, 0xc9, 0xfd, 0x02, 0xd3, 0xe2, 0x20, 0x81, 0xce, 0x3a, 0xd6,
  0x04, 0x0a, 0xa3, 0xcd, 0x82, 0xa7, 0xd0, 0x40, 0xfe, 0xe9, 0xf0, 0xf4,
  0x8c, 0xa1, 0x25, 0x32, 0xf8, 0xff, 0x18, 0x20, 0xaa, 0xe1, 0xd6, 0x15,
  0xe9, 0x04, 0x0f, 0x45, 0xbb, 0x2c, 0x02, 0xe0, 0x24, 0xde, 0xaf, 0xbd,
  0xfa, 0x28, 0xfc, 0xf7, 0xd8, 0xe1, 0xdd, 0x53, 0x74, 0xeb, 0x24, 0x8e,
  0xe2, 0xe7, 0xc5, 0xd5, 0x19, 0x81, 0x1a, 0x31, 0x50, 0x1d, 0x1b, 0xff,
  0x81, 0xc5, 0x0b, 0xd8, 0xfe, 0xf4, 0x8f, 0xc3, 0xd1, 0xca, 0x0d, 0xbc,
  0x0b, 0xf9, 0xd3, 0x0e, 0x92, 0xf0, 0x0f, 0x2d, 0x26, 0x06, 0xd5, 0xd6,
  0x9d, 0x1d, 0x1f, 0xec, 0xc4, 0x06, 0xd0, 0x1a, 0xb8, 0xe0, 0xd7, 0xff,
  0x58, 0xf8, 0x13, 0xc9, 0xee, 0xe0, 0x24, 0x81, 0xd2, 0xf8, 0xcf, 0x25,
  0xee, 0xba, 0x13, 0xcb, 0x62, 0x22, 0xd6, 0xbf, 0x0a, 0xb4, 0x10, 0x09,
  0x05, 0xfc, 0xf3, 0xc3, 0xab, 0xb0, 0x19, 0x1e, 0xed, 0xe0, 0x20, 0xe6,
  0x81, 0x3b, 0xde, 0xf9, 0x06, 0xca, 0x08, 0x43, 0xc0, 0x0a, 0x38, 0x17,
  0x19, 0xce, 0x1f, 0x10, 0xb0, 0x24, 0x08, 0xca, 0xae, 0x01, 0x30, 0x19,
  0x06, 0xca, 0xe3, 0x54, 0x0b, 0x4e, 0x2d, 0x5c, 0xe9, 0x50, 0xc2, 0x34,
  0x81, 0xa5, 0xf8, 0x51, 0x3f, 0x6f, 0xfa, 0x24, 0xff, 0xef, 0x5b, 0x03,
  0x3f, 0xe2, 0x2e, 0x04, 0x17, 0x48, 0xc9, 0x13, 0x16, 0x5f, 0xe5, 0x1a,
  0xc4, 0xa2, 0x8c, 0x7e, 0xc2, 0x16, 0x33, 0x2d, 0x1b, 0xa2, 0xb2, 0x45,
  0xa5, 0xf9, 0xd6, 0xca, 0x15, 0xca, 0x51, 0xb7, 0xd3, 0x23, 0xd6, 0xd2,
  0x1f, 0xbc, 0x81, 0x19, 0xad, 0x39, 0xa9, 0xc8, 0x81, 0xfb, 0x1b, 0xd5,
  0xa5, 0x31, 0xda, 0xa9, 0xdb, 0xeb, 0x2a, 0x8a, 0xfd, 0xb3, 0xdc, 0xa7,
  0xe2, 0x11, 0xd6, 0xd0, 0xd1, 0x7b, 0xe9, 0x09, 0x70, 0x55, 0x0d, 0x9d,
  0xbe, 0xfe, 0xff, 0xff, 0x04, 0x00, 0x00, 0x00, 0x20, 0x00, 0x00, 0x00,
  0x17, 0x00, 0x00, 0x00, 0x25, 0x00, 0x00, 0x00, 0xbe, 0xff, 0xff, 0xff,
  0xd2, 0xff, 0xff, 0xff, 0xe0, 0xff, 0xff, 0xff, 0xea, 0xff, 0xff, 0xff,
  0x0d, 0x00, 0x00, 0x00, 0x01, 0x00, 0x00, 0x00, 0xea, 0xfe, 0xff, 0xff,
  0x04, 0x00, 0x00, 0x00, 0x60, 0x00, 0x00, 0x00, 0x27, 0xf0, 0x28, 0xf6,
  0x9a, 0x81, 0x1e, 0xf7, 0xae, 0x18, 0x2a, 0xbd, 0x16, 0x94, 0x04, 0x5a,
  0xe1, 0x86, 0xf6, 0x81, 0x95, 0x2d, 0x12, 0xe4, 0xdc, 0x38, 0xc3, 0x0a,
  0xa1, 0x98, 0xe7, 0x37, 0x51, 0x3a, 0x3e, 0x81, 0xb0, 0x28, 0xd2, 0x0e,
  0x65, 0x49, 0xcf, 0xfe, 0x81, 0xe0, 0xdb, 0x0d, 0x45, 0x1f, 0xab, 0xbe,
  0x09, 0xa9, 0x1f, 0x04, 0x81, 0x4f, 0x08, 0x1f, 0x04, 0x7f, 0x39, 0x06,
  0xa5, 0xd0, 0x9b, 0xd6, 0xbb, 0x5d, 0x0a, 0x22, 0x62, 0xc9, 0x41, 0xd9,
  0x81, 0xb0, 0xaa, 0xa3, 0x75, 0x19, 0x75, 0xf2, 0x04, 0x8f, 0x46, 0x26,
  0x07, 0xe5, 0x33, 0xc9, 0xb7, 0x1a, 0xaf, 0x81, 0x56, 0xff, 0xff, 0xff,
  0x04, 0x00, 0x00, 0x00, 0x08, 0x00, 0x00, 0x00, 0xff, 0xff, 0xff, 0xff,
  0x20, 0x00, 0x00, 0x00, 0xd0, 0xf1, 0xff, 0xff, 0xd4, 0xf1, 0xff, 0xff,
  0x0f, 0x00, 0x00, 0x00, 0x4d, 0x4c, 0x49, 0x52, 0x20, 0x43, 0x6f, 0x6e,
  0x76, 0x65, 0x72, 0x74, 0x65, 0x64, 0x2e, 0x00, 0x01, 0x00, 0x00, 0x00,
  0x14, 0x00, 0x00, 0x00, 0x00, 0x00, 0x0e, 0x00, 0x18, 0x00, 0x14, 0x00,
  0x10, 0x00, 0x0c, 0x00, 0x08, 0x00, 0x04, 0x00, 0x0e, 0x00, 0x00, 0x00,
  0x14, 0x00, 0x00, 0x00, 0x1c, 0x00, 0x00, 0x00, 0x58, 0x02, 0x00, 0x00,
  0x5c, 0x02, 0x00, 0x00, 0x60, 0x02, 0x00, 0x00, 0x04, 0x00, 0x00, 0x00,
  0x6d, 0x61, 0x69, 0x6e, 0x00, 0x00, 0x00, 0x00, 0x08, 0x00, 0x00, 0x00,
  0xf4, 0x01, 0x00, 0x00, 0x90, 0x01, 0x00, 0x00, 0x40, 0x01, 0x00, 0x00,
  0xf0, 0x00, 0x00, 0x00, 0xc8, 0x00, 0x00, 0x00, 0x78, 0x00, 0x00, 0x00,
  0x40, 0x00, 0x00, 0x00, 0x04, 0x00, 0x00, 0x00, 0x9a, 0xfe, 0xff, 0xff,
  0x1c, 0x00, 0x00, 0x00, 0x00, 0x00, 0x00, 0x09, 0x1c, 0x00, 0x00, 0x00,
  0x20, 0x00, 0x00, 0x00, 0x04, 0x00, 0x00, 0x00, 0x00, 0x00, 0x06, 0x00,
  0x08, 0x00, 0x04, 0x00, 0x06, 0x00, 0x00, 0x00, 0x00, 0x00, 0x80, 0x3f,
  0x01, 0x00, 0x00, 0x00, 0x11, 0x00, 0x00, 0x00, 0x01, 0x00, 0x00, 0x00,
  0x10, 0x00, 0x00, 0x00, 0xd2, 0xfe, 0xff, 0xff, 0x14, 0x00, 0x00, 0x00,
  0x00, 0x00, 0x00, 0x08, 0x10, 0x00, 0x00, 0x00, 0x14, 0x00, 0x00, 0x00,
  0x03, 0x00, 0x00, 0x00, 0x9c, 0xf2, 0xff, 0xff, 0x01, 0x00, 0x00, 0x00,
  0x10, 0x00, 0x00, 0x00, 0x03, 0x00, 0x00, 0x00, 0x0f, 0x00, 0x00, 0x00,
  0x08, 0x00, 0x00, 0x00, 0x09, 0x00, 0x00, 0x00, 0x06, 0xff, 0xff, 0xff,
  0x1c, 0x00, 0x00, 0x00, 0x00, 0x00, 0x00, 0x08, 0x1c, 0x00, 0x00, 0x00,
  0x20, 0x00, 0x00, 0x00, 0x03, 0x00, 0x00, 0x00, 0x00, 0x00, 0x06, 0x00,
  0x08, 0x00, 0x07, 0x00, 0x06, 0x00, 0x00, 0x00, 0x00, 0x00, 0x00, 0x01,
  0x01, 0x00, 0x00, 0x00, 0x0f, 0x00, 0x00, 0x00, 0x03, 0x00, 0x00, 0x00,
  0x0e, 0x00, 0x00, 0x00, 0x06, 0x00, 0x00, 0x00, 0x07, 0x00, 0x00, 0x00,
  0x00, 0x00, 0x0a, 0x00, 0x10, 0x00, 0x0c, 0x00, 0x08, 0x00, 0x04, 0x00,
  0x0a, 0x00, 0x00, 0x00, 0x0c, 0x00, 0x00, 0x00, 0x10, 0x00, 0x00, 0x00,
  0x02, 0x00, 0x00, 0x00, 0x01, 0x00, 0x00, 0x00, 0x0e, 0x00, 0x00, 0x00,
  0x02, 0x00, 0x00, 0x00, 0x0d, 0x00, 0x00, 0x00, 0x01, 0x00, 0x00, 0x00,
  0x76, 0xff, 0xff, 0xff, 0x24, 0x00, 0x00, 0x00, 0x00, 0x00, 0x00, 0x05,
  0x30, 0x00, 0x00, 0x00, 0x34, 0x00, 0x00, 0x00, 0x01, 0x00, 0x00, 0x00,
  0x00, 0x00, 0x0e, 0x00, 0x14, 0x00, 0x00, 0x00, 0x10, 0x00, 0x0c, 0x00,
  0x08, 0x00, 0x04, 0x00, 0x0e, 0x00, 0x00, 0x00, 0x03, 0x00, 0x00, 0x00,
  0x01, 0x00, 0x00, 0x00, 0x03, 0x00, 0x00, 0x00, 0x01, 0x00, 0x00, 0x00,
  0x01, 0x00, 0x00, 0x00, 0x0d, 0x00, 0x00, 0x00, 0x01, 0x00, 0x00, 0x00,
  0x0c, 0x00, 0x00, 0x00, 0x62, 0xff, 0xff, 0xff, 0x10, 0x00, 0x00, 0x00,
  0x00, 0x00, 0x00, 0x01, 0x18, 0x00, 0x00, 0x00, 0x1c, 0x00, 0x00, 0x00,
  0x54, 0xff, 0xff, 0xff, 0x00, 0x00, 0x00, 0x01, 0x01, 0x00, 0x00, 0x00,
  0x01, 0x00, 0x00, 0x00, 0x01, 0x00, 0x00, 0x00, 0x0c, 0x00, 0x00, 0x00,
  0x03, 0x00, 0x00, 0x00, 0x0b, 0x00, 0x00, 0x00, 0x04, 0x00, 0x00, 0x00,
  0x05, 0x00, 0x00, 0x00, 0x00, 0x00, 0x0e, 0x00, 0x1a, 0x00, 0x14, 0x00,
  0x10, 0x00, 0x0c, 0x00, 0x0b, 0x00, 0x04, 0x00, 0x0e, 0x00, 0x00, 0x00,
  0x24, 0x00, 0x00, 0x00, 0x00, 0x00, 0x00, 0x05, 0x34, 0x00, 0x00, 0x00,
  0x38, 0x00, 0x00, 0x00, 0x01, 0x00, 0x00, 0x00, 0x00, 0x00, 0x0e, 0x00,
  0x18, 0x00, 0x17, 0x00, 0x10, 0x00, 0x0c, 0x00, 0x08, 0x00, 0x04, 0x00,
  0x0e, 0x00, 0x00, 0x00, 0x03, 0x00, 0x00, 0x00, 0x03, 0x00, 0x00, 0x00,
  0x03, 0x00, 0x00, 0x00, 0x03, 0x00, 0x00, 0x00, 0x00, 0x00, 0x00, 0x01,
  0x01, 0x00, 0x00, 0x00, 0x0b, 0x00, 0x00, 0x00, 0x01, 0x00, 0x00, 0x00,
  0x0a, 0x00, 0x00, 0x00, 0x00, 0x00, 0x0e, 0x00, 0x14, 0x00, 0x00, 0x00,
  0x10, 0x00, 0x0c, 0x00, 0x0b, 0x00, 0x04, 0x00, 0x0e, 0x00, 0x00, 0x00,
  0x1c, 0x00, 0x00, 0x00, 0x00, 0x00, 0x00, 0x01, 0x24, 0x00, 0x00, 0x00,
  0x28, 0x00, 0x00, 0x00, 0x0c, 0x00, 0x10, 0x00, 0x00, 0x00, 0x0c, 0x00,
  0x08, 0x00, 0x07, 0x00, 0x0c, 0x00, 0x00, 0x00, 0x00, 0x00, 0x00, 0x01,
  0x01, 0x00, 0x00, 0x00, 0x01, 0x00, 0x00, 0x00, 0x01, 0x00, 0x00, 0x00,
  0x0a, 0x00, 0x00, 0x00, 0x03, 0x00, 0x00, 0x00, 0x00, 0x00, 0x00, 0x00,
  0x02, 0x00, 0x00, 0x00, 0x03, 0x00, 0x00, 0x00, 0x01, 0x00, 0x00, 0x00,
  0x11, 0x00, 0x00, 0x00, 0x01, 0x00, 0x00, 0x00, 0x00, 0x00, 0x00, 0x00,
  0x12, 0x00, 0x00, 0x00, 0xcc, 0x0b, 0x00, 0x00, 0x68, 0x0b, 0x00, 0x00,
  0x90, 0x0a, 0x00, 0x00, 0xbc, 0x09, 0x00, 0x00, 0x90, 0x08, 0x00, 0x00,
  0x5c, 0x07, 0x00, 0x00, 0xf0, 0x06, 0x00, 0x00, 0x6c, 0x06, 0x00, 0x00,
  0x00, 0x06, 0x00, 0x00, 0x7c, 0x05, 0x00, 0x00, 0x78, 0x04, 0x00, 0x00,
  0xe4, 0x03, 0x00, 0x00, 0xe0, 0x02, 0x00, 0x00, 0x4c, 0x02, 0x00, 0x00,
  0xc8, 0x01, 0x00, 0x00, 0x0c, 0x01, 0x00, 0x00, 0x70, 0x00, 0x00, 0x00,
  0x04, 0x00, 0x00, 0x00, 0x90, 0xf4, 0xff, 0xff, 0x18, 0x00, 0x00, 0x00,
  0x20, 0x00, 0x00, 0x00, 0x40, 0x00, 0x00, 0x00, 0x12, 0x00, 0x00, 0x00,
  0x00, 0x00, 0x00, 0x09, 0x44, 0x00, 0x00, 0x00, 0x02, 0x00, 0x00, 0x00,
  0xff, 0xff, 0xff, 0xff, 0x06, 0x00, 0x00, 0x00, 0x74, 0xf4, 0xff, 0xff,
  0x08, 0x00, 0x00, 0x00, 0x14, 0x00, 0x00, 0x00, 0x01, 0x00, 0x00, 0x00,
  0x80, 0xff, 0xff, 0xff, 0xff, 0xff, 0xff, 0xff, 0x00, 0x00, 0x00, 0x00,
  0x01, 0x00, 0x00, 0x00, 0x00, 0x00, 0x80, 0x3b, 0x08, 0x00, 0x00, 0x00,
  0x49, 0x64, 0x65, 0x6e, 0x74, 0x69, 0x74, 0x79, 0x00, 0x00, 0x00, 0x00,
  0x02, 0x00, 0x00, 0x00, 0x01, 0x00, 0x00, 0x00, 0x06, 0x00, 0x00, 0x00,
  0xf8, 0xf4, 0xff, 0xff, 0x18, 0x00, 0x00, 0x00, 0x20, 0x00, 0x00, 0x00,
  0x3c, 0x00, 0x00, 0x00, 0x11, 0x00, 0x00, 0x00, 0x00, 0x00, 0x00, 0x09,
  0x74, 0x00, 0x00, 0x00, 0x02, 0x00, 0x00, 0x00, 0xff, 0xff, 0xff, 0xff,
  0x06, 0x00, 0x00, 0x00, 0xdc, 0xf4, 0xff, 0xff, 0x08, 0x00, 0x00, 0x00,
  0x10, 0x00, 0x00, 0x00, 0x01, 0x00, 0x00, 0x00, 0x11, 0x00, 0x00, 0x00,
  0x00, 0x00, 0x00, 0x00, 0x01, 0x00, 0x00, 0x00, 0x9e, 0x19, 0x86, 0x3f,
  0x3c, 0x00, 0x00, 0x00, 0x73, 0x65, 0x71, 0x75, 0x65, 0x6e, 0x74, 0x69,
  0x61, 0x6c, 0x5f, 0x31, 0x33, 0x2f, 0x64, 0x65, 0x6e, 0x73, 0x65, 0x5f,
  0x31, 0x39, 0x2f, 0x4d, 0x61, 0x74, 0x4d, 0x75, 0x6c, 0x3b, 0x73, 0x65,
  0x71, 0x75, 0x65, 0x6e, 0x74, 0x69, 0x61, 0x6c, 0x5f, 0x31, 0x33, 0x2f,
  0x64, 0x65, 0x6e, 0x73, 0x65, 0x5f, 0x31, 0x39, 0x2f, 0x42, 0x69, 0x61,
  0x73, 0x41, 0x64, 0x64, 0x00, 0x00, 0x00, 0x00, 0x02, 0x00, 0x00, 0x00,
  0x01, 0x00, 0x00, 0x00, 0x06, 0x00, 0x00, 0x00, 0x90, 0xf5, 0xff, 0xff,
  0x18, 0x00, 0x00, 0x00, 0x20, 0x00, 0x00, 0x00, 0x40, 0x00, 0x00, 0x00,
  0x10, 0x00, 0x00, 0x00, 0x00, 0x00, 0x00, 0x09, 0x94, 0x00, 0x00, 0x00,
  0x02, 0x00, 0x00, 0x00, 0xff, 0xff, 0xff, 0xff, 0x10, 0x00, 0x00, 0x00,
  0x74, 0xf5, 0xff, 0xff, 0x08, 0x00, 0x00, 0x00, 0x14, 0x00, 0x00, 0x00,
  0x01, 0x00, 0x00, 0x00, 0x80, 0xff, 0xff, 0xff, 0xff, 0xff, 0xff, 0xff,
  0x00, 0x00, 0x00, 0x00, 0x01, 0x00, 0x00, 0x00, 0x31, 0xa8, 0x1a, 0x3f,
  0x58, 0x00, 0x00, 0x00, 0x73, 0x65, 0x71, 0x75, 0x65, 0x6e, 0x74, 0x69,
  0x61, 0x6c, 0x5f, 0x31, 0x33, 0x2f, 0x64, 0x65, 0x6e, 0x73, 0x65, 0x5f,
  0x31, 0x38, 0x2f, 0x4d, 0x61, 0x74, 0x4d, 0x75, 0x6c, 0x3b, 0x73, 0x65,
  0x71, 0x75, 0x65, 0x6e, 0x74, 0x69, 0x61, 0x6c, 0x5f, 0x31, 0x33, 0x2f,
  0x64, 0x65, 0x6e, 0x73, 0x65, 0x5f, 0x31, 0x38, 0x2f, 0x52, 0x65, 0x6c,
  0x75, 0x3b, 0x73, 0x65, 0x71, 0x75, 0x65, 0x6e, 0x74, 0x69, 0x61, 0x6c,
  0x5f, 0x31, 0x33, 0x2f, 0x64, 0x65, 0x6e, 0x73, 0x65, 0x5f, 0x31, 0x38,
  0x2f, 0x42, 0x69, 0x61, 0x73, 0x41, 0x64, 0x64, 0x00, 0x00, 0x00, 0x00,
  0x02, 0x00, 0x00, 0x00, 0x01, 0x00, 0x00, 0x00, 0x10, 0x00, 0x00, 0x00,
  0x48, 0xf6, 0xff, 0xff, 0x18, 0x00, 0x00, 0x00, 0x20, 0x00, 0x00, 0x00,
  0x40, 0x00, 0x00, 0x00, 0x0f, 0x00, 0x00, 0x00, 0x00, 0x00, 0x00, 0x09,
  0x5c, 0x00, 0x00, 0x00, 0x02, 0x00, 0x00, 0x00, 0xff, 0xff, 0xff, 0xff,
  0x20, 0x00, 0x00, 0x00, 0x2c, 0xf6, 0xff, 0xff, 0x08, 0x00, 0x00, 0x00,
  0x14, 0x00, 0x00, 0x00, 0x01, 0x00, 0x00, 0x00, 0x80, 0xff, 0xff, 0xff,
  0xff, 0xff, 0xff, 0xff, 0x00, 0x00, 0x00, 0x00, 0x01, 0x00, 0x00, 0x00,
  0xb3, 0x37, 0x39, 0x3f, 0x20, 0x00, 0x00, 0x00, 0x73, 0x65, 0x71, 0x75,
  0x65, 0x6e, 0x74, 0x69, 0x61, 0x6c, 0x5f, 0x31, 0x33, 0x2f, 0x66, 0x6c,
  0x61, 0x74, 0x74, 0x65, 0x6e, 0x5f, 0x31, 0x31, 0x2f, 0x52, 0x65, 0x73,
  0x68, 0x61, 0x70, 0x65, 0x00, 0x00, 0x00, 0x00, 0x02, 0x00, 0x00, 0x00,
  0x01, 0x00, 0x00, 0x00, 0x20, 0x00, 0x00, 0x00, 0xc8, 0xf6, 0xff, 0xff,
  0x18, 0x00, 0x00, 0x00, 0x28, 0x00, 0x00, 0x00, 0x44, 0x00, 0x00, 0x00,
  0x0e, 0x00, 0x00, 0x00, 0x00, 0x00, 0x00, 0x09, 0x64, 0x00, 0x00, 0x00,
  0x04, 0x00, 0x00, 0x00, 0xff, 0xff, 0xff, 0xff, 0x01, 0x00, 0x00, 0x00,
  0x02, 0x00, 0x00, 0x00, 0x10, 0x00, 0x00, 0x00, 0xb4, 0xf6, 0xff, 0xff,
  0x08, 0x00, 0x00, 0x00, 0x10, 0x00, 0x00, 0x00, 0x01, 0x00, 0x00, 0x00,
  0x80, 0xff, 0xff, 0xff, 0xff, 0xff, 0xff, 0xff, 0x01, 0x00, 0x00, 0x00,
  0xb3, 0x37, 0x39, 0x3f, 0x26, 0x00, 0x00, 0x00, 0x73, 0x65, 0x71, 0x75,
  0x65, 0x6e, 0x74, 0x69, 0x61, 0x6c, 0x5f, 0x31, 0x33, 0x2f, 0x6d, 0x61,
  0x78, 0x5f, 0x70, 0x6f, 0x6f, 0x6c, 0x69, 0x6e, 0x67, 0x32, 0x64, 0x5f,
  0x31, 0x31, 0x2f, 0x4d, 0x61, 0x78, 0x50, 0x6f, 0x6f, 0x6c, 0x00, 0x00,
  0x04, 0x00, 0x00, 0x00, 0x01, 0x00, 0x00, 0x00, 0x01, 0x00, 0x00, 0x00,
  0x02, 0x00, 0x00, 0x00, 0x10, 0x00, 0x00, 0x00, 0x58, 0xf7, 0xff, 0xff,
  0x18, 0x00, 0x00, 0x00, 0x28, 0x00, 0x00, 0x00, 0x48, 0x00, 0x00, 0x00,
  0x0d, 0x00, 0x00, 0x00, 0x00, 0x00, 0x00, 0x09, 0xd4, 0x00, 0x00, 0x00,
  0x04, 0x00, 0x00, 0x00, 0xff, 0xff, 0xff, 0xff, 0x03, 0x00, 0x00, 0x00,
  0x02, 0x00, 0x00, 0x00, 0x10, 0x00, 0x00, 0x00, 0x44, 0xf7, 0xff, 0xff,
  0x08, 0x00, 0x00, 0x00, 0x14, 0x00, 0x00, 0x00, 0x01, 0x00, 0x00, 0x00,
  0x80, 0xff, 0xff, 0xff, 0xff, 0xff, 0xff, 0xff, 0x00, 0x00, 0x00, 0x00,
  0x01, 0x00, 0x00, 0x00, 0xb3, 0x37, 0x39, 0x3f, 0x93, 0x00, 0x00, 0x00,
  0x73, 0x65, 0x71, 0x75, 0x65, 0x6e, 0x74, 0x69, 0x61, 0x6c, 0x5f, 0x31,
  0x33, 0x2f, 0x63, 0x6f, 0x6e, 0x76, 0x32, 0x64, 0x5f, 0x31, 0x39, 0x2f,
  0x52, 0x65, 0x6c, 0x75, 0x3b, 0x73, 0x65, 0x71, 0x75, 0x65, 0x6e, 0x74,
  0x69, 0x61, 0x6c, 0x5f, 0x31, 0x33, 0x2f, 0x63, 0x6f, 0x6e, 0x76, 0x32,
  0x64, 0x5f, 0x31, 0x39, 0x2f, 0x42, 0x69, 0x61, 0x73, 0x41, 0x64, 0x64,
  0x3b, 0x73, 0x65, 0x71, 0x75, 0x65, 0x6e, 0x74, 0x69, 0x61, 0x6c, 0x5f,
  0x31, 0x33, 0x2f, 0x63, 0x6f, 0x6e, 0x76, 0x32, 0x64, 0x5f, 0x31, 0x39,
  0x2f, 0x43, 0x6f, 0x6e, 0x76, 0x32, 0x44, 0x3b, 0x73, 0x65, 0x71, 0x75,
  0x65, 0x6e, 0x74, 0x69, 0x61, 0x6c, 0x5f, 0x31, 0x33, 0x2f, 0x63, 0x6f,
  0x6e, 0x76, 0x32, 0x64, 0x5f, 0x31, 0x39, 0x2f, 0x42, 0x69, 0x61, 0x73,
  0x41, 0x64, 0x64, 0x2f, 0x52, 0x65, 0x61, 0x64, 0x56, 0x61, 0x72, 0x69,
  0x61, 0x62, 0x6c, 0x65, 0x4f, 0x70, 0x2f, 0x72, 0x65, 0x73, 0x6f, 0x75,
  0x72, 0x63, 0x65, 0x00, 0x04, 0x00, 0x00, 0x00, 0x01, 0x00, 0x00, 0x00,
  0x03, 0x00, 0x00, 0x00, 0x02, 0x00, 0x00, 0x00, 0x10, 0x00, 0x00, 0x00,
  0x58, 0xf8, 0xff, 0xff, 0x18, 0x00, 0x00, 0x00, 0x28, 0x00, 0x00, 0x00,
  0x44, 0x00, 0x00, 0x00, 0x0c, 0x00, 0x00, 0x00, 0x00, 0x00, 0x00, 0x09,
  0x64, 0x00, 0x00, 0x00, 0x04, 0x00, 0x00, 0x00, 0xff, 0xff, 0xff, 0xff,
  0x03, 0x00, 0x00, 0x00, 0x02, 0x00, 0x00, 0x00, 0x08, 0x00, 0x00, 0x00,
  0x44, 0xf8, 0xff, 0xff, 0x08, 0x00, 0x00, 0x00, 0x10, 0x00, 0x00, 0x00,
  0x01, 0x00, 0x00, 0x00, 0x80, 0xff, 0xff, 0xff, 0xff, 0xff, 0xff, 0xff,
  0x01, 0x00, 0x00, 0x00, 0x06, 0x05, 0xc7, 0x3e, 0x26, 0x00, 0x00, 0x00,
  0x73, 0x65, 0x71, 0x75, 0x65, 0x6e, 0x74, 0x69, 0x61, 0x6c, 0x5f, 0x31,
  0x33, 0x2f, 0x6d, 0x61, 0x78, 0x5f, 0x70, 0x6f, 0x6f, 0x6c, 0x69, 0x6e,
  0x67, 0x32, 0x64, 0x5f, 0x31, 0x30, 0x2f, 0x4d, 0x61, 0x78, 0x50, 0x6f,
  0x6f, 0x6c, 0x00, 0x00, 0x04, 0x00, 0x00, 0x00, 0x01, 0x00, 0x00, 0x00,
  0x03, 0x00, 0x00, 0x00, 0x02, 0x00, 0x00, 0x00, 0x08, 0x00, 0x00, 0x00,
  0xe8, 0xf8, 0xff, 0xff, 0x18, 0x00, 0x00, 0x00, 0x28, 0x00, 0x00, 0x00,
  0x48, 0x00, 0x00, 0x00, 0x0b, 0x00, 0x00, 0x00, 0x00, 0x00, 0x00, 0x09,
  0xd4, 0x00, 0x00, 0x00, 0x04, 0x00, 0x00, 0x00, 0xff, 0xff, 0xff, 0xff,
  0x0a, 0x00, 0x00, 0x00, 0x06, 0x00, 0x00, 0x00, 0x08, 0x00, 0x00, 0x00,
  0xd4, 0xf8, 0xff, 0xff, 0x08, 0x00, 0x00, 0x00, 0x14, 0x00, 0x00, 0x00,
  0x01, 0x00, 0x00, 0x00, 0x80, 0xff, 0xff, 0xff, 0xff, 0xff, 0xff, 0xff,
  0x00, 0x00, 0x00, 0x00, 0x01, 0x00, 0x00, 0x00, 0x06, 0x05, 0xc7, 0x3e,
  0x93, 0x00, 0x00, 0x00, 0x73, 0x65, 0x71, 0x75, 0x65, 0x6e, 0x74, 0x69,
  0x61, 0x6c, 0x5f, 0x31, 0x33, 0x2f, 0x63, 0x6f, 0x6e, 0x76, 0x32, 0x64,
  0x5f, 0x31, 0x38, 0x2f, 0x52, 0x65, 0x6c, 0x75, 0x3b, 0x73, 0x65, 0x71,
  0x75, 0x65, 0x6e, 0x74, 0x69, 0x61, 0x6c, 0x5f, 0x31, 0x33, 0x2f, 0x63,
  0x6f, 0x6e, 0x76, 0x32, 0x64, 0x5f, 0x31, 0x38, 0x2f, 0x42, 0x69, 0x61,
  0x73, 0x41, 0x64, 0x64, 0x3b, 0x73, 0x65, 0x71, 0x75, 0x65, 0x6e, 0x74,
  0x69, 0x61, 0x6c, 0x5f, 0x31, 0x33, 0x2f, 0x63, 0x6f, 0x6e, 0x76, 0x32,
  0x64, 0x5f, 0x31, 0x38, 0x2f, 0x43, 0x6f, 0x6e, 0x76, 0x32, 0x44, 0x3b,
  0x73, 0x65, 0x71, 0x75, 0x65, 0x6e, 0x74, 0x69, 0x61, 0x6c, 0x5f, 0x31,
  0x33, 0x2f, 0x63, 0x6f, 0x6e, 0x76, 0x32, 0x64, 0x5f, 0x31, 0x38, 0x2f,
  0x42, 0x69, 0x61, 0x73, 0x41, 0x64, 0x64, 0x2f, 0x52, 0x65, 0x61, 0x64,
  0x56, 0x61, 0x72, 0x69, 0x61, 0x62, 0x6c, 0x65, 0x4f, 0x70, 0x2f, 0x72,
  0x65, 0x73, 0x6f, 0x75, 0x72, 0x63, 0x65, 0x00, 0x04, 0x00, 0x00, 0x00,
  0x01, 0x00, 0x00, 0x00, 0x0a, 0x00, 0x00, 0x00, 0x06, 0x00, 0x00, 0x00,
  0x08, 0x00, 0x00, 0x00, 0x42, 0xfa, 0xff, 0xff, 0x14, 0x00, 0x00, 0x00,
  0x34, 0x00, 0x00, 0x00, 0x0a, 0x00, 0x00, 0x00, 0x00, 0x00, 0x00, 0x02,
  0x64, 0x00, 0x00, 0x00, 0xbc, 0xf9, 0xff, 0xff, 0x08, 0x00, 0x00, 0x00,
  0x14, 0x00, 0x00, 0x00, 0x01, 0x00, 0x00, 0x00, 0x00, 0x00, 0x00, 0x00,
  0x00, 0x00, 0x00, 0x00, 0x00, 0x00, 0x00, 0x00, 0x01, 0x00, 0x00, 0x00,
  0x0c, 0xf3, 0x29, 0x3b, 0x36, 0x00, 0x00, 0x00, 0x73, 0x65, 0x71, 0x75,
  0x65, 0x6e, 0x74, 0x69, 0x61, 0x6c, 0x5f, 0x31, 0x33, 0x2f, 0x64, 0x65,
  0x6e, 0x73, 0x65, 0x5f, 0x31, 0x39, 0x2f, 0x42, 0x69, 0x61, 0x73, 0x41,
  0x64, 0x64, 0x2f, 0x52, 0x65, 0x61, 0x64, 0x56, 0x61, 0x72, 0x69, 0x61,
  0x62, 0x6c, 0x65, 0x4f, 0x70, 0x2f, 0x72, 0x65, 0x73, 0x6f, 0x75, 0x72,
  0x63, 0x65, 0x00, 0x00, 0x01, 0x00, 0x00, 0x00, 0x06, 0x00, 0x00, 0x00,
  0xc2, 0xfa, 0xff, 0xff, 0x14, 0x00, 0x00, 0x00, 0x30, 0x00, 0x00, 0x00,
  0x09, 0x00, 0x00, 0x00, 0x00, 0x00, 0x00, 0x09, 0x48, 0x00, 0x00, 0x00,
  0x3c, 0xfa, 0xff, 0xff, 0x08, 0x00, 0x00, 0x00, 0x10, 0x00, 0x00, 0x00,
  0x01, 0x00, 0x00, 0x00, 0x00, 0x00, 0x00, 0x00, 0x00, 0x00, 0x00, 0x00,
  0x01, 0x00, 0x00, 0x00, 0x15, 0xa8, 0x8c, 0x3b, 0x1d, 0x00, 0x00, 0x00,
  0x73, 0x65, 0x71, 0x75, 0x65, 0x6e, 0x74, 0x69, 0x61, 0x6c, 0x5f, 0x31,
  0x33, 0x2f, 0x64, 0x65, 0x6e, 0x73, 0x65, 0x5f, 0x31, 0x39, 0x2f, 0x4d,
  0x61, 0x74, 0x4d, 0x75, 0x6c, 0x00, 0x00, 0x00, 0x02, 0x00, 0x00, 0x00,
  0x06, 0x00, 0x00, 0x00, 0x10, 0x00, 0x00, 0x00, 0x2a, 0xfb, 0xff, 0xff,
  0x14, 0x00, 0x00, 0x00, 0x34, 0x00, 0x00, 0x00, 0x08, 0x00, 0x00, 0x00,
  0x00, 0x00, 0x00, 0x02, 0x64, 0x00, 0x00, 0x00, 0xa4, 0xfa, 0xff, 0xff,
  0x08, 0x00, 0x00, 0x00, 0x14, 0x00, 0x00, 0x00, 0x01, 0x00, 0x00, 0x00,
  0x00, 0x00, 0x00, 0x00, 0x00, 0x00, 0x00, 0x00, 0x00, 0x00, 0x00, 0x00,
  0x01, 0x00, 0x00, 0x00, 0x52, 0x9e, 0x5c, 0x3b, 0x36, 0x00, 0x00, 0x00,
  0x73, 0x65, 0x71, 0x75, 0x65, 0x6e, 0x74, 0x69, 0x61, 0x6c, 0x5f, 0x31,
  0x33, 0x2f, 0x64, 0x65, 0x6e, 0x73, 0x65, 0x5f, 0x31, 0x38, 0x2f, 0x42,
  0x69, 0x61, 0x73, 0x41, 0x64, 0x64, 0x2f, 0x52, 0x65, 0x61, 0x64, 0x56,
  0x61, 0x72, 0x69, 0x61, 0x62, 0x6c, 0x65, 0x4f, 0x70, 0x2f, 0x72, 0x65,
  0x73, 0x6f, 0x75, 0x72, 0x63, 0x65, 0x00, 0x00, 0x01, 0x00, 0x00, 0x00,
  0x10, 0x00, 0x00, 0x00, 0xaa, 0xfb, 0xff, 0xff, 0x14, 0x00, 0x00, 0x00,
  0x30, 0x00, 0x00, 0x00, 0x07, 0x00, 0x00, 0x00, 0x00, 0x00, 0x00, 0x09,
  0x48, 0x00, 0x00, 0x00, 0x24, 0xfb, 0xff, 0xff, 0x08, 0x00, 0x00, 0x00,
  0x10, 0x00, 0x00, 0x00, 0x01, 0x00, 0x00, 0x00, 0x00, 0x00, 0x00, 0x00,
  0x00, 0x00, 0x00, 0x00, 0x01, 0x00, 0x00, 0x00, 0xfd, 0x76, 0x98, 0x3b,
  0x1d, 0x00, 0x00, 0x00, 0x73, 0x65, 0x71, 0x75, 0x65, 0x6e, 0x74, 0x69,
  0x61, 0x6c, 0x5f, 0x31, 0x33, 0x2f, 0x64, 0x65, 0x6e, 0x73, 0x65, 0x5f,
  0x31, 0x38, 0x2f, 0x4d, 0x61, 0x74, 0x4d, 0x75, 0x6c, 0x00, 0x00, 0x00,
  0x02, 0x00, 0x00, 0x00, 0x10, 0x00, 0x00, 0x00, 0x20, 0x00, 0x00, 0x00,
  0x12, 0xfc, 0xff, 0xff, 0x14, 0x00, 0x00, 0x00, 0xe4, 0x00, 0x00, 0x00,
  0x06, 0x00, 0x00, 0x00, 0x00, 0x00, 0x00, 0x02, 0x14, 0x01, 0x00, 0x00,
  0x8c, 0xfb, 0xff, 0xff, 0x08, 0x00, 0x00, 0x00, 0x88, 0x00, 0x00, 0x00,
  0x10, 0x00, 0x00, 0x00, 0x00, 0x00, 0x00, 0x00, 0x00, 0x00, 0x00, 0x00,
  0x00, 0x00, 0x00, 0x00, 0x00, 0x00, 0x00, 0x00, 0x00, 0x00, 0x00, 0x00,
  0x00, 0x00, 0x00, 0x00, 0x00, 0x00, 0x00, 0x00, 0x00, 0x00, 0x00, 0x00,
  0x00, 0x00, 0x00, 0x00, 0x00, 0x00, 0x00, 0x00, 0x00, 0x00, 0x00, 0x00,
  0x00, 0x00, 0x00, 0x00, 0x00, 0x00, 0x00, 0x00, 0x00, 0x00, 0x00, 0x00,
  0x00, 0x00, 0x00, 0x00, 0x00, 0x00, 0x00, 0x00, 0x00, 0x00, 0x00, 0x00,
  0x00, 0x00, 0x00, 0x00, 0x00, 0x00, 0x00, 0x00, 0x00, 0x00, 0x00, 0x00,
  0x00, 0x00, 0x00, 0x00, 0x00, 0x00, 0x00, 0x00, 0x00, 0x00, 0x00, 0x00,
  0x00, 0x00, 0x00, 0x00, 0x00, 0x00, 0x00, 0x00, 0x00, 0x00, 0x00, 0x00,
  0x00, 0x00, 0x00, 0x00, 0x00, 0x00, 0x00, 0x00, 0x00, 0x00, 0x00, 0x00,
  0x00, 0x00, 0x00, 0x00, 0x00, 0x00, 0x00, 0x00, 0x00, 0x00, 0x00, 0x00,
  0x10, 0x00, 0x00, 0x00, 0xad, 0xd4, 0x86, 0x3a, 0xb7, 0x1e, 0xaa, 0x3a,
  0x69, 0xca, 0xe5, 0x3a, 0xc1, 0xb5, 0x8e, 0x3a, 0x2e, 0x2a, 0x90, 0x3a,
  0xef, 0x52, 0x7a, 0x3a, 0x62, 0x4d, 0xbd, 0x3a, 0x97, 0xd9, 0xbe, 0x3a,
  0x67, 0x34, 0xb6, 0x3a, 0x3d, 0x55, 0x72, 0x3a, 0x28, 0xc7, 0xcb, 0x3a,
  0x38, 0x3e, 0x93, 0x3a, 0x29, 0x5d, 0xa3, 0x3a, 0x9a, 0xbd, 0xa4, 0x3a,
  0x4b, 0x98, 0x98, 0x3a, 0x86, 0xf9, 0x8d, 0x3a, 0x37, 0x00, 0x00, 0x00,
  0x73, 0x65, 0x71, 0x75, 0x65, 0x6e, 0x74, 0x69, 0x61, 0x6c, 0x5f, 0x31,
  0x33, 0x2f, 0x63, 0x6f, 0x6e, 0x76, 0x32, 0x64, 0x5f, 0x31, 0x39, 0x2f,
  0x42, 0x69, 0x61, 0x73, 0x41, 0x64, 0x64, 0x2f, 0x52, 0x65, 0x61, 0x64,
  0x56, 0x61, 0x72, 0x69, 0x61, 0x62, 0x6c, 0x65, 0x4f, 0x70, 0x2f, 0x72,
  0x65, 0x73, 0x6f, 0x75, 0x72, 0x63, 0x65, 0x00, 0x01, 0x00, 0x00, 0x00,
  0x10, 0x00, 0x00, 0x00, 0x42, 0xfd, 0xff, 0xff, 0x14, 0x00, 0x00, 0x00,
  0xe8, 0x00, 0x00, 0x00, 0x05, 0x00, 0x00, 0x00, 0x00, 0x00, 0x00, 0x09,
  0x00, 0x01, 0x00, 0x00, 0xbc, 0xfc, 0xff, 0xff, 0x08, 0x00, 0x00, 0x00,
  0x8c, 0x00, 0x00, 0x00, 0x10, 0x00, 0x00, 0x00, 0x00, 0x00, 0x00, 0x00,
  0x00, 0x00, 0x00, 0x00, 0x00, 0x00, 0x00, 0x00, 0x00, 0x00, 0x00, 0x00,
  0x00, 0x00, 0x00, 0x00, 0x00, 0x00, 0x00, 0x00, 0x00, 0x00, 0x00, 0x00,
  0x00, 0x00, 0x00, 0x00, 0x00, 0x00, 0x00, 0x00, 0x00, 0x00, 0x00, 0x00,
  0x00, 0x00, 0x00, 0x00, 0x00, 0x00, 0x00, 0x00, 0x00, 0x00, 0x00, 0x00,
  0x00, 0x00, 0x00, 0x00, 0x00, 0x00, 0x00, 0x00, 0x00, 0x00, 0x00, 0x00,
  0x00, 0x00, 0x00, 0x00, 0x00, 0x00, 0x00, 0x00, 0x00, 0x00, 0x00, 0x00,
  0x00, 0x00, 0x00, 0x00, 0x00, 0x00, 0x00, 0x00, 0x00, 0x00, 0x00, 0x00,
  0x00, 0x00, 0x00, 0x00, 0x00, 0x00, 0x00, 0x00, 0x00, 0x00, 0x00, 0x00,
  0x00, 0x00, 0x00, 0x00, 0x00, 0x00, 0x00, 0x00, 0x00, 0x00, 0x00, 0x00,
  0x00, 0x00, 0x00, 0x00, 0x00, 0x00, 0x00, 0x00, 0x00, 0x00, 0x00, 0x00,
  0x00, 0x00, 0x00, 0x00, 0x00, 0x00, 0x00, 0x00, 0x10, 0x00, 0x00, 0x00,
  0xfc, 0x6e, 0x2d, 0x3b, 0x84, 0xd3, 0x5a, 0x3b, 0x5d, 0xca, 0x93, 0x3b,
  0x90, 0x91, 0x37, 0x3b, 0x9e, 0x70, 0x39, 0x3b, 0x1c, 0xff, 0x20, 0x3b,
  0x22, 0x80, 0x73, 0x3b, 0xc7, 0x7d, 0x75, 0x3b, 0xf2, 0x5e, 0x6a, 0x3b,
  0x6a, 0xdb, 0x1b, 0x3b, 0x72, 0x0f, 0x83, 0x3b, 0x46, 0x66, 0x3d, 0x3b,
  0xc8, 0x22, 0x52, 0x3b, 0x21, 0xe8, 0x53, 0x3b, 0x9c, 0x48, 0x44, 0x3b,
  0x71, 0x9f, 0x36, 0x3b, 0x1e, 0x00, 0x00, 0x00, 0x73, 0x65, 0x71, 0x75,
  0x65, 0x6e, 0x74, 0x69, 0x61, 0x6c, 0x5f, 0x31, 0x33, 0x2f, 0x63, 0x6f,
  0x6e, 0x76, 0x32, 0x64, 0x5f, 0x31, 0x39, 0x2f, 0x43, 0x6f, 0x6e, 0x76,
  0x32, 0x44, 0x00, 0x00, 0x04, 0x00, 0x00, 0x00, 0x10, 0x00, 0x00, 0x00,
  0x04, 0x00, 0x00, 0x00, 0x01, 0x00, 0x00, 0x00, 0x08, 0x00, 0x00, 0x00,
  0x6a, 0xfe, 0xff, 0xff, 0x14, 0x00, 0x00, 0x00, 0x84, 0x00, 0x00, 0x00,
  0x04, 0x00, 0x00, 0x00, 0x00, 0x00, 0x00, 0x02, 0xb4, 0x00, 0x00, 0x00,
  0xe4, 0xfd, 0xff, 0xff, 0x08, 0x00, 0x00, 0x00, 0x48, 0x00, 0x00, 0x00,
  0x08, 0x00, 0x00, 0x00, 0x00, 0x00, 0x00, 0x00, 0x00, 0x00, 0x00, 0x00,
  0x00, 0x00, 0x00, 0x00, 0x00, 0x00, 0x00, 0x00, 0x00, 0x00, 0x00, 0x00,
  0x00, 0x00, 0x00, 0x00, 0x00, 0x00, 0x00, 0x00, 0x00, 0x00, 0x00, 0x00,
  0x00, 0x00, 0x00, 0x00, 0x00, 0x00, 0x00, 0x00, 0x00, 0x00, 0x00, 0x00,
  0x00, 0x00, 0x00, 0x00, 0x00, 0x00, 0x00, 0x00, 0x00, 0x00, 0x00, 0x00,
  0x00, 0x00, 0x00, 0x00, 0x00, 0x00, 0x00, 0x00, 0x08, 0x00, 0x00, 0x00,
  0x51, 0x97, 0xba, 0x3b, 0x82, 0x6a, 0xc5, 0x3b, 0x1e, 0x2e, 0x3e, 0x3b,
  0x9c, 0xd0, 0x5c, 0x3b, 0x3a, 0xe9, 0x6c, 0x3b, 0xdb, 0x36, 0x55, 0x3b,
  0xc7, 0xf9, 0x56, 0x3b, 0x32, 0x3b, 0x98, 0x3b, 0x37, 0x00, 0x00, 0x00,
  0x73, 0x65, 0x71, 0x75, 0x65, 0x6e, 0x74, 0x69, 0x61, 0x6c, 0x5f, 0x31,
  0x33, 0x2f, 0x63, 0x6f, 0x6e, 0x76, 0x32, 0x64, 0x5f, 0x31, 0x38, 0x2f,
  0x42, 0x69, 0x61, 0x73, 0x41, 0x64, 0x64, 0x2f, 0x52, 0x65, 0x61, 0x64,
  0x56, 0x61, 0x72, 0x69, 0x61, 0x62, 0x6c, 0x65, 0x4f, 0x70, 0x2f, 0x72,
  0x65, 0x73, 0x6f, 0x75, 0x72, 0x63, 0x65, 0x00, 0x01, 0x00, 0x00, 0x00,
  0x08, 0x00, 0x00, 0x00, 0x3a, 0xff, 0xff, 0xff, 0x14, 0x00, 0x00, 0x00,
  0x84, 0x00, 0x00, 0x00, 0x03, 0x00, 0x00, 0x00, 0x00, 0x00, 0x00, 0x09,
  0x9c, 0x00, 0x00, 0x00, 0xb4, 0xfe, 0xff, 0xff, 0x08, 0x00, 0x00, 0x00,
  0x48, 0x00, 0x00, 0x00, 0x08, 0x00, 0x00, 0x00, 0x00, 0x00, 0x00, 0x00,
  0x00, 0x00, 0x00, 0x00, 0x00, 0x00, 0x00, 0x00, 0x00, 0x00, 0x00, 0x00,
  0x00, 0x00, 0x00, 0x00, 0x00, 0x00, 0x00, 0x00, 0x00, 0x00, 0x00, 0x00,
  0x00, 0x00, 0x00, 0x00, 0x00, 0x00, 0x00, 0x00, 0x00, 0x00, 0x00, 0x00,
  0x00, 0x00, 0x00, 0x00, 0x00, 0x00, 0x00, 0x00, 0x00, 0x00, 0x00, 0x00,
  0x00, 0x00, 0x00, 0x00, 0x00, 0x00, 0x00, 0x00, 0x00, 0x00, 0x00, 0x00,
  0x08, 0x00, 0x00, 0x00, 0xce, 0xef, 0x4d, 0x3b, 0x50, 0xe2, 0x59, 0x3b,
  0xde, 0xe5, 0xd1, 0x3a, 0x77, 0xb5, 0xf3, 0x3a, 0xa7, 0xbc, 0x02, 0x3b,
  0xfa, 0x51, 0xeb, 0x3a, 0xa6, 0x43, 0xed, 0x3a, 0xb5, 0x03, 0x28, 0x3b,
  0x1e, 0x00, 0x00, 0x00, 0x73, 0x65, 0x71, 0x75, 0x65, 0x6e, 0x74, 0x69,
  0x61, 0x6c, 0x5f, 0x31, 0x33, 0x2f, 0x63, 0x6f, 0x6e, 0x76, 0x32, 0x64,
  0x5f, 0x31, 0x38, 0x2f, 0x43, 0x6f, 0x6e, 0x76, 0x32, 0x44, 0x00, 0x00,
  0x04, 0x00, 0x00, 0x00, 0x08, 0x00, 0x00, 0x00, 0x04, 0x00, 0x00, 0x00,
  0x03, 0x00, 0x00, 0x00, 0x01, 0x00, 0x00, 0x00, 0x00, 0x00, 0x0e, 0x00,
  0x18, 0x00, 0x14, 0x00, 0x13, 0x00, 0x0c, 0x00, 0x08, 0x00, 0x04, 0x00,
  0x0e, 0x00, 0x00, 0x00, 0x18, 0x00, 0x00, 0x00, 0x18, 0x00, 0x00, 0x00,
  0x02, 0x00, 0x00, 0x00, 0x00, 0x00, 0x00, 0x02, 0x30, 0x00, 0x00, 0x00,
  0x04, 0x00, 0x04, 0x00, 0x04, 0x00, 0x00, 0x00, 0x1e, 0x00, 0x00, 0x00,
  0x73, 0x65, 0x71, 0x75, 0x65, 0x6e, 0x74, 0x69, 0x61, 0x6c, 0x5f, 0x31,
  0x33, 0x2f, 0x66, 0x6c, 0x61, 0x74, 0x74, 0x65, 0x6e, 0x5f, 0x31, 0x31,
  0x2f, 0x43, 0x6f, 0x6e, 0x73, 0x74, 0x00, 0x00, 0x01, 0x00, 0x00, 0x00,
  0x02, 0x00, 0x00, 0x00, 0x14, 0x00, 0x1c, 0x00, 0x18, 0x00, 0x17, 0x00,
  0x10, 0x00, 0x0c, 0x00, 0x08, 0x00, 0x00, 0x00, 0x00, 0x00, 0x04, 0x00,
  0x14, 0x00, 0x00, 0x00, 0x18, 0x00, 0x00, 0x00, 0x34, 0x00, 0x00, 0x00,
  0x54, 0x00, 0x00, 0x00, 0x01, 0x00, 0x00, 0x00, 0x00, 0x00, 0x00, 0x09,
  0x5c, 0x00, 0x00, 0x00, 0x04, 0x00, 0x00, 0x00, 0xff, 0xff, 0xff, 0xff,
  0x0a, 0x00, 0x00, 0x00, 0x06, 0x00, 0x00, 0x00, 0x01, 0x00, 0x00, 0x00,
  0x0c, 0x00, 0x0c, 0x00, 0x00, 0x00, 0x00, 0x00, 0x08, 0x00, 0x04, 0x00,
  0x0c, 0x00, 0x00, 0x00, 0x08, 0x00, 0x00, 0x00, 0x14, 0x00, 0x00, 0x00,
  0x01, 0x00, 0x00, 0x00, 0xb7, 0xff, 0xff, 0xff, 0xff, 0xff, 0xff, 0xff,
  0x00, 0x00, 0x00, 0x00, 0x01, 0x00, 0x00, 0x00, 0x8f, 0xf3, 0xe7, 0x3f,
  0x0f, 0x00, 0x00, 0x00, 0x63, 0x6f, 0x6e, 0x76, 0x32, 0x64, 0x5f, 0x31,
  0x38, 0x5f, 0x69, 0x6e, 0x70, 0x75, 0x74, 0x00, 0x04, 0x00, 0x00, 0x00,
  0x01, 0x00, 0x00, 0x00, 0x0a, 0x00, 0x00, 0x00, 0x06, 0x00, 0x00, 0x00,
  0x01, 0x00, 0x00, 0x00, 0x05, 0x00, 0x00, 0x00, 0x68, 0x00, 0x00, 0x00,
  0x48, 0x00, 0x00, 0x00, 0x38, 0x00, 0x00, 0x00, 0x18, 0x00, 0x00, 0x00,
  0x04, 0x00, 0x00, 0x00, 0xb8, 0xff, 0xff, 0xff, 0x19, 0x00, 0x00, 0x00,
  0x02, 0x00, 0x00, 0x00, 0x00, 0x00, 0x00, 0x19, 0xc8, 0xff, 0xff, 0xff,
  0x09, 0x00, 0x00, 0x00, 0x04, 0x00, 0x00, 0x00, 0x00, 0x00, 0x00, 0x09,
  0x0c, 0x00, 0x0c, 0x00, 0x0b, 0x00, 0x00, 0x00, 0x00, 0x00, 0x04, 0x00,
  0x0c, 0x00, 0x00, 0x00, 0x16, 0x00, 0x00, 0x00, 0x00, 0x00, 0x00, 0x16,
  0xf0, 0xff, 0xff, 0xff, 0x11, 0x00, 0x00, 0x00, 0x02, 0x00, 0x00, 0x00,
  0x00, 0x00, 0x00, 0x11, 0x0c, 0x00, 0x10, 0x00, 0x0f, 0x00, 0x00, 0x00,
  0x08, 0x00, 0x04, 0x00, 0x0c, 0x00, 0x00, 0x00, 0x03, 0x00, 0x00, 0x00,
  0x03, 0x00, 0x00, 0x00, 0x00, 0x00, 0x00, 0x03
};
unsigned int g_model_len = 5744;
