unsigned char g_model[] = {
  0x1c, 0x00, 0x00, 0x00, 0x54, 0x46, 0x4c, 0x33, 0x14, 0x00, 0x20, 0x00,
  0x1c, 0x00, 0x18, 0x00, 0x14, 0x00, 0x10, 0x00, 0x0c, 0x00, 0x00, 0x00,
  0x08, 0x00, 0x04, 0x00, 0x14, 0x00, 0x00, 0x00, 0x1c, 0x00, 0x00, 0x00,
  0x1c, 0x00, 0x00, 0x00, 0x4c, 0x00, 0x00, 0x00, 0xe8, 0x08, 0x00, 0x00,
  0xf8, 0x08, 0x00, 0x00, 0x48, 0x18, 0x00, 0x00, 0x03, 0x00, 0x00, 0x00,
  0x00, 0x00, 0x00, 0x00, 0x01, 0x00, 0x00, 0x00, 0x0c, 0x00, 0x00, 0x00,
  0x08, 0x00, 0x0c, 0x00, 0x08, 0x00, 0x04, 0x00, 0x08, 0x00, 0x00, 0x00,
  0x13, 0x00, 0x00, 0x00, 0x04, 0x00, 0x00, 0x00, 0x13, 0x00, 0x00, 0x00,
  0x6d, 0x69, 0x6e, 0x5f, 0x72, 0x75, 0x6e, 0x74, 0x69, 0x6d, 0x65, 0x5f,
  0x76, 0x65, 0x72, 0x73, 0x69, 0x6f, 0x6e, 0x00, 0x14, 0x00, 0x00, 0x00,
  0x98, 0x08, 0x00, 0x00, 0x90, 0x08, 0x00, 0x00, 0x78, 0x08, 0x00, 0x00,
  0xc0, 0x07, 0x00, 0x00, 0x78, 0x07, 0x00, 0x00, 0xe8, 0x03, 0x00, 0x00,
  0x98, 0x03, 0x00, 0x00, 0x88, 0x01, 0x00, 0x00, 0x38, 0x01, 0x00, 0x00,
  0x98, 0x00, 0x00, 0x00, 0x64, 0x00, 0x00, 0x00, 0x5c, 0x00, 0x00, 0x00,
  0x54, 0x00, 0x00, 0x00, 0x4c, 0x00, 0x00, 0x00, 0x44, 0x00, 0x00, 0x00,
  0x3c, 0x00, 0x00, 0x00, 0x34, 0x00, 0x00, 0x00, 0x2c, 0x00, 0x00, 0x00,
  0x24, 0x00, 0x00, 0x00, 0x04, 0x00, 0x00, 0x00, 0x26, 0xf7, 0xff, 0xff,
  0x04, 0x00, 0x00, 0x00, 0x10, 0x00, 0x00, 0x00, 0x31, 0x2e, 0x31, 0x34,
  0x2e, 0x30, 0x00, 0x00, 0x00, 0x00, 0x00, 0x00, 0x00, 0x00, 0x00, 0x00,
  0x38, 0xe9, 0xff, 0xff, 0x3c, 0xe9, 0xff, 0xff, 0x40, 0xe9, 0xff, 0xff,
  0x44, 0xe9, 0xff, 0xff, 0x48, 0xe9, 0xff, 0xff, 0x4c, 0xe9, 0xff, 0xff,
  0x50, 0xe9, 0xff, 0xff, 0x54, 0xe9, 0xff, 0xff, 0x62, 0xf7, 0xff, 0xff,
  0x04, 0x00, 0x00, 0x00, 0x24, 0x00, 0x00, 0x00, 0x97, 0x00, 0x00, 0x00,
  0x26, 0x01, 0x00, 0x00, 0x68, 0xfd, 0xff, 0xff, 0xad, 0xfd, 0xff, 0xff,
  0x1e, 0xff, 0xff, 0xff, 0xe8, 0xfd, 0xff, 0xff, 0x5b, 0x00, 0x00, 0x00,
  0x2a, 0x00, 0x00, 0x00, 0xd6, 0x00, 0x00, 0x00, 0x92, 0xf7, 0xff, 0xff,
  0x04, 0x00, 0x00, 0x00, 0x90, 0x00, 0x00, 0x00, 0x08, 0xf5, 0xe3, 0xf0,
  0x03, 0x2c, 0xdc, 0xe0, 0xe8, 0xee, 0x27, 0x04, 0xd4, 0xfb, 0x12, 0xde,
  0xec, 0x16, 0xfd, 0xf4, 0xeb, 0x21, 0x08, 0xf2, 0x0e, 0xf1, 0x00, 0xdb,
  0x07, 0xea, 0xee, 0xf6, 0x81, 0xc7, 0xaa, 0xfb, 0xb1, 0xa1, 0xe1, 0xe9,
  0x89, 0xeb, 0xdf, 0xa4, 0xc5, 0x0a, 0x9c, 0xd9, 0x00, 0xea, 0x19, 0xf7,
  0x06, 0x08, 0x1c, 0x26, 0x16, 0x02, 0x11, 0xdc, 0x03, 0xdc, 0xda, 0xe8,
  0xf4, 0xc0, 0x19, 0xd5, 0xf7, 0xf4, 0x15, 0x05, 0xca, 0xfb, 0xe6, 0x02,
  0xee, 0xec, 0x28, 0x13, 0x11, 0x1a, 0xfe, 0x0e, 0x04, 0x1a, 0xef, 0xf9,
  0x09, 0x16, 0xf9, 0x01, 0xf0, 0xfd, 0xe8, 0xf3, 0xfb, 0x1b, 0x03, 0xf5,
  0x05, 0xf7, 0xf3, 0xe5, 0xe7, 0x12, 0xe5, 0xf4, 0x06, 0x27, 0xff, 0xe3,
  0x13, 0x09, 0xf5, 0xf3, 0x01, 0x0a, 0x20, 0x0b, 0xfe, 0xec, 0x04, 0xd3,
  0x0c, 0xed, 0xf0, 0xed, 0x0f, 0xfb, 0x10, 0xe9, 0xd6, 0xff, 0x19, 0xf1,
  0xfb, 0x00, 0x1d, 0xd6, 0x09, 0xfd, 0x12, 0x03, 0x2e, 0xf8, 0xff, 0xff,
  0x04, 0x00, 0x00, 0x00, 0x40, 0x00, 0x00, 0x00, 0xa1, 0xff, 0xff, 0xff,
  0x03, 0x00, 0x00, 0x00, 0x85, 0xff, 0xff, 0xff, 0x82, 0xff, 0xff, 0xff,
  0xb6, 0xff, 0xff, 0xff, 0xdf, 0x00, 0x00, 0x00, 0x19, 0x00, 0x00, 0x00,
  0x31, 0xff, 0xff, 0xff, 0x36, 0x00, 0x00, 0x00, 0x1d, 0xff, 0xff, 0xff,
  0xe9, 0xff, 0xff, 0xff, 0xa6, 0xff, 0xff, 0xff, 0x82, 0x00, 0x00, 0x00,
  0xa4, 0xff, 0xff, 0xff, 0x07, 0x00, 0x00, 0x00, 0x66, 0x00, 0x00, 0x00,
  0x7a, 0xf8, 0xff, 0xff, 0x04, 0x00, 0x00, 0x00, 0x00, 0x02, 0x00, 0x00,
  0x09, 0xf7, 0x12, 0x03, 0xff, 0xfb, 0x02, 0xed, 0xf6, 0xfe, 0x12, 0xfb,
  0x16, 0x16, 0x09, 0xef, 0x00, 0x0f, 0x11, 0xf2, 0x0a, 0x03, 0xef, 0xfd,
  0xd7, 0xec, 0x1b, 0x16, 0x1d, 0xde, 0x30, 0xe2, 0xe1, 0x0a, 0x30, 0xc7,
  0x44, 0xe9, 0x39, 0x08, 0x06, 0x03, 0xf0, 0x31, 0xea, 0xcf, 0x14, 0x03,
  0x0a, 0xf3, 0xed, 0x00, 0xf9, 0xf9, 0x01, 0xfa, 0x23, 0xf1, 0xef, 0xfe,
  0xd8, 0xe7, 0x13, 0x09, 0x0f, 0xef, 0xd2, 0x09, 0xf1, 0xff, 0xd4, 0xfc,
  0xcb, 0xde, 0xe2, 0x1d, 0xed, 0x38, 0xd5, 0xfa, 0x04, 0xfd, 0x04, 0x4d,
  0x00, 0x02, 0x20, 0xe4, 0xee, 0x20, 0x0a, 0x09, 0x0a, 0xdb, 0xfb, 0x24,
  0xf3, 0x1d, 0xff, 0x0c, 0x0b, 0x09, 0x13, 0xfe, 0xc3, 0xdf, 0xf5, 0xff,
  0x12, 0xfd, 0x06, 0xe9, 0xd2, 0x05, 0xeb, 0xf1, 0x17, 0x02, 0xfc, 0xf4,
  0xe2, 0xf5, 0xfa, 0x0b, 0x05, 0xda, 0xf1, 0xd8, 0xfd, 0xfb, 0x27, 0xfd,
  0x3b, 0x03, 0x09, 0xfa, 0x0b, 0x0b, 0x02, 0xe3, 0x04, 0xeb, 0x0b, 0x07,
  0x06, 0x01, 0x09, 0xcf, 0xf2, 0x03, 0x02, 0x01, 0xe9, 0x38, 0xf8, 0xf8,
  0xe4, 0x37, 0x12, 0x63, 0xf3, 0xdc, 0xd3, 0x06, 0x8e, 0x0e, 0xfb, 0x1d,
  0x0a, 0x0f, 0x1c, 0xf0, 0x15, 0xe7, 0x0b, 0x22, 0x12, 0xc1, 0xef, 0x0d,
  0xd9, 0x08, 0x06, 0xda, 0x14, 0xcb, 0xe0, 0xed, 0xf4, 0x1d, 0xe5, 0x0a,
  0x04, 0xd0, 0xe0, 0x05, 0xb6, 0xff, 0xee, 0xfa, 0x18, 0x02, 0x03, 0xd3,
  0x0b, 0x07, 0x09, 0x01, 0x03, 0x0d, 0x17, 0xd5, 0xef, 0x21, 0xfb, 0x1e,
  0xe0, 0x09, 0x2c, 0x02, 0xee, 0xdb, 0x21, 0xef, 0xe5, 0xf8, 0xad, 0x1e,
  0xe5, 0xfe, 0xc4, 0xfb, 0xec, 0xff, 0x08, 0xdd, 0x0c, 0xe7, 0xf0, 0xfe,
  0x0d, 0xfd, 0xfe, 0xd5, 0x1c, 0x12, 0x05, 0xe1, 0xff, 0x1a, 0x1d, 0xf8,
  0xcf, 0xfb, 0x20, 0x21, 0xf7, 0xdc, 0xe4, 0xee, 0xd8, 0x08, 0x11, 0x0d,
  0xf6, 0xfb, 0x10, 0x0d, 0x17, 0xd3, 0x00, 0x01, 0x26, 0xd5, 0xef, 0x0b,
  0x14, 0x16, 0x0d, 0xe8, 0x0e, 0xf7, 0x0d, 0x0e, 0xd6, 0xe1, 0xd9, 0xfe,
  0x12, 0x2c, 0x1f, 0x02, 0x1b, 0xe4, 0x10, 0xf6, 0x09, 0xf5, 0x0e, 0x22,
  0x14, 0x2b, 0x04, 0xf4, 0xf8, 0x0d, 0xfe, 0xf9, 0x1f, 0xd3, 0x01, 0x0b,
  0xfe, 0xf2, 0x09, 0xf2, 0xf6, 0xf4, 0x05, 0x30, 0x1b, 0x1b, 0xd5, 0x1e,
  0xdf, 0x09, 0xe4, 0x10, 0x0a, 0xf4, 0x24, 0xec, 0x0c, 0x31, 0x06, 0x0b,
  0xe8, 0xf4, 0xf9, 0xdb, 0x0c, 0x08, 0xe9, 0xfc, 0xed, 0xed, 0xf3, 0x0d,
  0x0a, 0x33, 0xf0, 0x25, 0x17, 0x03, 0x12, 0x36, 0x24, 0x0b, 0xf5, 0xf3,
  0xcf, 0x0a, 0x2b, 0xf5, 0x34, 0x04, 0xea, 0xff, 0xda, 0x0a, 0xe5, 0x00,
  0x14, 0xf0, 0xf6, 0x05, 0xe9, 0x12, 0xe7, 0xcf, 0x10, 0x3b, 0xe9, 0x19,
  0xc5, 0xec, 0xfe, 0xd2, 0xfe, 0xe8, 0x02, 0xf2, 0x35, 0x0e, 0xe7, 0xfd,
  0xdc, 0x19, 0x19, 0x03, 0x1d, 0xee, 0x2b, 0xe1, 0xdf, 0x1d, 0x08, 0x17,
  0x01, 0xdc, 0x1b, 0x32, 0xf4, 0xe9, 0x2d, 0xe7, 0xf2, 0xea, 0xf4, 0xf7,
  0xf8, 0xd7, 0x09, 0xc5, 0xf3, 0xfb, 0xdd, 0x02, 0xfd, 0x24, 0xfe, 0xe9,
  0xeb, 0x02, 0xfa, 0x04, 0x0d, 0xea, 0x06, 0x10, 0x18, 0xf2, 0x09, 0xf1,
  0xd8, 0x2c, 0x03, 0x0f, 0xe9, 0xd0, 0xd7, 0x23, 0xe4, 0x04, 0xee, 0xde,
  0xff, 0x07, 0xf0, 0xee, 0xf5, 0x0e, 0xe8, 0xfe, 0xd1, 0x14, 0x00, 0x13,
  0xf4, 0xb0, 0x03, 0x17, 0xfd, 0x0b, 0x0c, 0xe2, 0x0a, 0xf1, 0xf8, 0xdb,
  0x03, 0x26, 0x18, 0x18, 0xd9, 0x0d, 0xd1, 0x03, 0xfb, 0xfa, 0x19, 0xf5,
  0xf7, 0x20, 0x02, 0x09, 0xd6, 0x03, 0xe3, 0x25, 0xea, 0xf7, 0xb4, 0x1c,
  0x01, 0x03, 0x07, 0x0b, 0xfb, 0x81, 0xda, 0x96, 0x86, 0xfa, 0xff, 0xff,
  0x04, 0x00, 0x00, 0x00, 0x40, 0x00, 0x00, 0x00, 0xf7, 0xff, 0xff, 0xff,
  0x03, 0xff, 0xff, 0xff, 0xae, 0xff, 0xff, 0xff, 0x26, 0x00, 0x00, 0x00,
  0xb2, 0xff, 0xff, 0xff, 0x2a, 0x00, 0x00, 0x00, 0xc5, 0xff, 0xff, 0xff,
  0xde, 0xff, 0xff, 0xff, 0x29, 0x00, 0x00, 0x00, 0xa0, 0xfe, 0xff, 0xff,
  0xad, 0xfd, 0xff, 0xff, 0x75, 0xff, 0xff, 0xff, 0xbd, 0xff, 0xff, 0xff,
  0x5b, 0x00, 0x00, 0x00, 0x5f, 0xff, 0xff, 0xff, 0xbb, 0xff, 0xff, 0xff,
  0xd2, 0xfa, 0xff, 0xff, 0x04, 0x00, 0x00, 0x00, 0x80, 0x03, 0x00, 0x00,
  0x21, 0x0c, 0x26, 0xff, 0x81, 0xe2, 0x1c, 0x04, 0xa7, 0xf4, 0xfa, 0xe8,
  0x13, 0xdd, 0xda, 0xe1, 0xfd, 0xd5, 0xa9, 0xda, 0x15, 0xc3, 0xcd, 0x23,
  0xf4, 0xcb, 0x3a, 0xd5, 0x09, 0xfd, 0xe5, 0xdd, 0xfd, 0xe9, 0x1a, 0x31,
  0xff, 0x36, 0xe2, 0x05, 0x0e, 0xf9, 0x2d, 0xf4, 0x01, 0xdc, 0xfd, 0xee,
  0x0f, 0x1c, 0x21, 0x06, 0x11, 0xa1, 0xb2, 0xcf, 0xb7, 0x09, 0xde, 0x0c,
  0xc7, 0xfd, 0x06, 0xe8, 0xf4, 0xd7, 0x20, 0x62, 0xdc, 0xe4, 0xeb, 0x11,
  0x1d, 0x17, 0xff, 0x07, 0xe5, 0xf9, 0x1c, 0xd8, 0xf8, 0x18, 0xea, 0xfd,
  0x08, 0x38, 0xe4, 0xc7, 0xd4, 0x0a, 0x23, 0x19, 0xbe, 0x81, 0xf7, 0x37,
  0x17, 0xad, 0xe3, 0xff, 0xd7, 0xf7, 0x08, 0x2f, 0xae, 0x13, 0x08, 0x27,
  0x26, 0x05, 0xe0, 0x3a, 0xf6, 0x81, 0x3d, 0x12, 0x39, 0xfe, 0xdf, 0xd0,
  0x1b, 0xf2, 0xfb, 0x9b, 0xaa, 0xc3, 0xff, 0x12, 0xff, 0xf2, 0xf4, 0x30,
  0xc4, 0xf1, 0xff, 0xe4, 0xda, 0x1c, 0xe4, 0xee, 0xc8, 0x28, 0xe3, 0xe6,
  0xd7, 0x02, 0x0a, 0x25, 0x4b, 0x1e, 0x33, 0xc7, 0x07, 0xc4, 0xf4, 0xd0,
  0xc8, 0xd9, 0x25, 0xd6, 0x43, 0x8e, 0xc3, 0x14, 0x22, 0xb2, 0xb6, 0x9e,
  0xe6, 0x14, 0xa6, 0xb6, 0xc0, 0x96, 0xe4, 0x05, 0x14, 0xb5, 0xfb, 0x31,
  0xd4, 0x0e, 0xac, 0xfa, 0x08, 0xe3, 0x08, 0x82, 0xe0, 0xf9, 0xfe, 0xf5,
  0xf9, 0x1d, 0xe1, 0x32, 0xa5, 0x0f, 0xb0, 0xff, 0xe3, 0xfb, 0xb1, 0xfa,
  0x1d, 0xb9, 0xf4, 0x27, 0x18, 0x41, 0x9f, 0xe6, 0xec, 0x03, 0xb9, 0xdf,
  0xce, 0xeb, 0x09, 0x81, 0x08, 0x03, 0x1e, 0x37, 0xff, 0xe7, 0x1c, 0x2a,
  0x28, 0x12, 0xe7, 0xcf, 0xf5, 0x04, 0x81, 0xe9, 0xea, 0xb7, 0xf9, 0xdb,
  0xe8, 0xc6, 0xfb, 0x08, 0xdc, 0xeb, 0xa5, 0xef, 0x02, 0xba, 0xe7, 0xe4,
  0xc9, 0xe2, 0xc7, 0xfb, 0xf9, 0xe1, 0x4c, 0xe8, 0xca, 0xdd, 0x21, 0xcc,
  0x10, 0x21, 0xf2, 0x41, 0xf2, 0x08, 0x03, 0x26, 0x52, 0x0b, 0xc2, 0x00,
  0x28, 0xc7, 0x0e, 0xff, 0xc8, 0xf3, 0xdb, 0xd5, 0x35, 0xd0, 0xa3, 0xb2,
  0xb6, 0xa9, 0xe3, 0xf4, 0xf7, 0xbf, 0xf9, 0xf3, 0x15, 0x0b, 0xa0, 0xc9,
  0x04, 0xfb, 0x1d, 0x0a, 0xf8, 0xcd, 0x9c, 0xfe, 0xcc, 0x1f, 0x31, 0xba,
  0xa0, 0x81, 0x30, 0xf8, 0x1c, 0xbf, 0xf9, 0x13, 0xe3, 0xd5, 0x16, 0x04,
  0x10, 0xd3, 0x13, 0xf1, 0xef, 0xf5, 0x19, 0x24, 0x1b, 0xd1, 0xfd, 0xfd,
  0xf5, 0xab, 0x47, 0xfd, 0x32, 0xde, 0x05, 0x2a, 0xbb, 0x12, 0x15, 0xcf,
  0xc3, 0x0c, 0xff, 0xa9, 0x09, 0xe8, 0xfb, 0x18, 0x0a, 0xec, 0xb9, 0xfd,
  0xd5, 0xc6, 0xc5, 0xea, 0xfd, 0x81, 0xe7, 0x02, 0xf9, 0x14, 0x16, 0x0e,
  0xa2, 0xec, 0x2e, 0x86, 0xf6, 0xee, 0xe8, 0xd4, 0xf5, 0x2c, 0xf9, 0x02,
  0x4b, 0xd2, 0xd2, 0x25, 0x53, 0x19, 0x26, 0xe9, 0xe3, 0x10, 0x00, 0xdd,
  0xe9, 0xbb, 0xed, 0x02, 0xf0, 0xf4, 0xf0, 0x45, 0xd7, 0xdf, 0xfc, 0xfb,
  0xba, 0xfe, 0x02, 0xb0, 0xfe, 0x04, 0x44, 0xeb, 0x09, 0x3b, 0xcb, 0x12,
  0x40, 0xc3, 0x20, 0xbf, 0xf3, 0x02, 0xb9, 0x1f, 0x12, 0xf8, 0x15, 0x32,
  0xdb, 0xdc, 0xb0, 0xf4, 0xf7, 0xd9, 0x19, 0xef, 0xd7, 0x1a, 0xdc, 0xf9,
  0xd7, 0x25, 0x0f, 0x7f, 0xaa, 0xa8, 0xc6, 0xc6, 0x05, 0xd0, 0xb4, 0xf3,
  0x03, 0xce, 0xe1, 0xd8, 0x8b, 0xcf, 0xe5, 0xc9, 0xfe, 0x05, 0x00, 0xfc,
  0xf3, 0x10, 0xd2, 0x01, 0xfb, 0x81, 0x45, 0x26, 0x60, 0x9e, 0xfe, 0x20,
  0x13, 0xe7, 0xf9, 0x29, 0xe9, 0x22, 0xf8, 0xc2, 0x8b, 0xfa, 0x07, 0xa4,
  0x0a, 0x5c, 0xfd, 0xff, 0xf5, 0x2f, 0xe9, 0xf0, 0xe4, 0x92, 0xd8, 0xa9,
  0x0c, 0x20, 0x09, 0x16, 0x81, 0xe0, 0x09, 0xc8, 0xe8, 0x2b, 0xe1, 0x3b,
  0x10, 0xb7, 0xfc, 0x0c, 0x17, 0xed, 0xf8, 0x0d, 0xf9, 0xed, 0x3b, 0xdc,
  0xeb, 0x14, 0xde, 0x34, 0x3f, 0xdb, 0x0e, 0xf9, 0x0e, 0xab, 0x21, 0xdb,
  0xf4, 0xeb, 0xec, 0x08, 0xa8, 0x34, 0x18, 0x32, 0xbb, 0x13, 0x3f, 0xcc,
  0xb5, 0xe2, 0xe9, 0xbb, 0xe2, 0x2d, 0x27, 0x74, 0xeb, 0xca, 0x07, 0x9d,
  0x96, 0xc3, 0x09, 0x06, 0x65, 0x0e, 0x00, 0x10, 0xb6, 0xc8, 0xd7, 0x38,
  0x30, 0x1e, 0xbd, 0xfd, 0xf8, 0xe3, 0xcf, 0x0e, 0x0c, 0x8d, 0xdf, 0xda,
  0x06, 0xb1, 0x2f, 0x09, 0xcb, 0x24, 0xdd, 0x06, 0xfe, 0xc2, 0x84, 0x10,
  0xed, 0x9b, 0x2e, 0x53, 0x0c, 0x0c, 0x13, 0x1c, 0x55, 0xd5, 0xe2, 0xde,
  0x81, 0x27, 0xf8, 0xb7, 0x07, 0xd0, 0x44, 0x16, 0x2a, 0xc3, 0xec, 0x01,
  0xe0, 0x1a, 0xbb, 0xe7, 0xb1, 0x0b, 0xa6, 0xf8, 0xf9, 0xda, 0xc8, 0xed,
  0xf6, 0xfc, 0x15, 0xf5, 0x2b, 0xdd, 0xae, 0x02, 0xf8, 0xfc, 0xeb, 0xed,
  0x10, 0xfb, 0x19, 0x01, 0x3a, 0xf0, 0x1a, 0x0a, 0x00, 0xbd, 0x13, 0xe0,
  0xf7, 0xfa, 0x01, 0xfd, 0xf5, 0x08, 0xe5, 0x29, 0x29, 0x81, 0xfe, 0xa6,
  0x33, 0x00, 0x1c, 0xfc, 0x1c, 0x2b, 0x11, 0x00, 0xfb, 0x08, 0x0c, 0xfb,
  0x33, 0x05, 0xe5, 0x1e, 0xf4, 0xd8, 0xed, 0xff, 0xac, 0x02, 0xff, 0xf0,
  0xd0, 0x07, 0xe8, 0xec, 0x88, 0xdd, 0x00, 0xf8, 0xce, 0xe9, 0x81, 0xe0,
  0x94, 0xde, 0x8e, 0x0f, 0xef, 0xec, 0xeb, 0xe9, 0xfc, 0x0c, 0xee, 0xff,
  0x0a, 0x0a, 0xf5, 0xe5, 0xee, 0xd9, 0xd6, 0xe6, 0x00, 0xe4, 0xd8, 0x05,
  0x23, 0xfe, 0x02, 0xff, 0xc7, 0x08, 0xfe, 0xfd, 0xf8, 0x09, 0xda, 0xda,
  0xde, 0xee, 0xf9, 0x81, 0xe2, 0x07, 0xd1, 0xed, 0xcf, 0xed, 0xdf, 0x15,
  0xf9, 0xa9, 0x01, 0xd7, 0xfe, 0xfd, 0x04, 0x07, 0xba, 0x02, 0xd3, 0xd8,
  0xfd, 0x06, 0xfd, 0xdf, 0xfe, 0xf4, 0xf5, 0xfa, 0xfd, 0x03, 0xe2, 0x06,
  0xed, 0xd2, 0xff, 0x00, 0xd7, 0x11, 0x02, 0xf3, 0x3d, 0xf5, 0xf6, 0x14,
  0x15, 0xcc, 0x07, 0xc5, 0xde, 0x17, 0x03, 0xd2, 0xfc, 0xfc, 0xea, 0xd9,
  0x12, 0xc0, 0xe7, 0x0a, 0x0c, 0xcd, 0xb4, 0xe6, 0xdb, 0xc1, 0x09, 0x05,
  0x17, 0x04, 0x04, 0xc5, 0xd3, 0xd0, 0x16, 0xc2, 0xec, 0xf8, 0x08, 0x0b,
  0xf9, 0x07, 0x81, 0x03, 0xb7, 0xec, 0x0a, 0xea, 0x15, 0x36, 0x0e, 0xdd,
  0x43, 0xc0, 0x29, 0x02, 0xcc, 0xba, 0x00, 0xc8, 0x9f, 0xee, 0xe3, 0xe7,
  0xdf, 0x16, 0x10, 0x96, 0x0c, 0x0a, 0x14, 0xea, 0x07, 0xd3, 0x93, 0x0b,
  0x15, 0x11, 0xd5, 0x04, 0x32, 0x09, 0xd0, 0xd6, 0xc2, 0x0b, 0x00, 0x81,
  0xbe, 0xc7, 0xe7, 0xc7, 0xeb, 0xd4, 0x00, 0xd7, 0x16, 0x37, 0xcc, 0xfd,
  0xd0, 0xab, 0x0f, 0x05, 0x1e, 0xe6, 0xca, 0xc5, 0x5e, 0xfe, 0xff, 0xff,
  0x04, 0x00, 0x00, 0x00, 0x38, 0x00, 0x00, 0x00, 0xd4, 0xff, 0xff, 0xff,
  0x6f, 0x00, 0x00, 0x00, 0xc0, 0xfe, 0xff, 0xff, 0x9c, 0xff, 0xff, 0xff,
  0x8c, 0xff, 0xff, 0xff, 0xdc, 0xff, 0xff, 0xff, 0x86, 0xff, 0xff, 0xff,
  0xfa, 0xff, 0xff, 0xff, 0x12, 0x00, 0x00, 0x00, 0xe3, 0xff, 0xff, 0xff,
  0xaf, 0xff, 0xff, 0xff, 0x4f, 0x00, 0x00, 0x00, 0xd0, 0xff, 0xff, 0xff,
  0x01, 0x00, 0x00, 0x00, 0xa2, 0xfe, 0xff, 0xff, 0x04, 0x00, 0x00, 0x00,
  0xa8, 0x00, 0x00, 0x00, 0xf7, 0x2b, 0x81, 0xd5, 0xed, 0xf2, 0xe4, 0x3c,
  0x0b, 0xe6, 0xfc, 0xd0, 0xf6, 0x14, 0x10, 0x66, 0xbd, 0x99, 0x27, 0x96,
  0x81, 0x05, 0xec, 0xe1, 0x52, 0x7f, 0xaa, 0x8d, 0x6e, 0x03, 0x89, 0xfb,
  0x96, 0x0f, 0x9d, 0xcf, 0xf6, 0x81, 0xf7, 0xb8, 0x0f, 0x55, 0xfc, 0xf5,
  0x11, 0x62, 0x97, 0xde, 0x06, 0xbc, 0x24, 0xce, 0xdf, 0x7f, 0xb9, 0xc1,
  0x3a, 0x07, 0xe4, 0xa2, 0x6e, 0x3b, 0xdc, 0x1c, 0x42, 0x04, 0x81, 0x82,
  0x0d, 0xd1, 0xdf, 0x2d, 0xca, 0xeb, 0xeb, 0x96, 0xf4, 0xd4, 0xda, 0x38,
  0xd2, 0x25, 0x7f, 0xd1, 0x33, 0xf5, 0xdb, 0x4a, 0x81, 0xdb, 0xf8, 0xe6,
  0xfd, 0x1b, 0xdd, 0xe6, 0x0b, 0xf6, 0x81, 0x02, 0x98, 0xa9, 0x20, 0xb4,
  0xad, 0x2e, 0x46, 0x8d, 0xd4, 0x95, 0x1f, 0xdc, 0x67, 0xce, 0xd0, 0x7f,
  0xcb, 0xbd, 0xe7, 0xa9, 0xed, 0xe5, 0xf2, 0xc2, 0x81, 0x06, 0x1c, 0x22,
  0xf8, 0x2f, 0x72, 0xee, 0x10, 0x08, 0x83, 0x15, 0xe1, 0x81, 0x1f, 0xb5,
  0xaf, 0xef, 0xc2, 0x94, 0x1d, 0xdf, 0xf6, 0x2d, 0x2a, 0xfb, 0x1b, 0x81,
  0xba, 0xd0, 0x00, 0xf4, 0xe3, 0x81, 0xc1, 0x34, 0xcd, 0xdd, 0x29, 0xdd,
  0xf4, 0x3c, 0x9a, 0xd1, 0x56, 0xff, 0xff, 0xff, 0x04, 0x00, 0x00, 0x00,
  0x08, 0x00, 0x00, 0x00, 0xff, 0xff, 0xff, 0xff, 0x20, 0x00, 0x00, 0x00,
  0x60, 0xf1, 0xff, 0xff, 0x64, 0xf1, 0xff, 0xff, 0x0f, 0x00, 0x00, 0x00,
  0x4d, 0x4c, 0x49, 0x52, 0x20, 0x43, 0x6f, 0x6e, 0x76, 0x65, 0x72, 0x74,
  0x65, 0x64, 0x2e, 0x00, 0x01, 0x00, 0x00, 0x00, 0x14, 0x00, 0x00, 0x00,
  0x00, 0x00, 0x0e, 0x00, 0x18, 0x00, 0x14, 0x00, 0x10, 0x00, 0x0c, 0x00,
  0x08, 0x00, 0x04, 0x00, 0x0e, 0x00, 0x00, 0x00, 0x14, 0x00, 0x00, 0x00,
  0x1c, 0x00, 0x00, 0x00, 0x58, 0x02, 0x00, 0x00, 0x5c, 0x02, 0x00, 0x00,
  0x60, 0x02, 0x00, 0x00, 0x04, 0x00, 0x00, 0x00, 0x6d, 0x61, 0x69, 0x6e,
  0x00, 0x00, 0x00, 0x00, 0x08, 0x00, 0x00, 0x00, 0xf4, 0x01, 0x00, 0x00,
  0x90, 0x01, 0x00, 0x00, 0x40, 0x01, 0x00, 0x00, 0xf0, 0x00, 0x00, 0x00,
  0xc8, 0x00, 0x00, 0x00, 0x78, 0x00, 0x00, 0x00, 0x40, 0x00, 0x00, 0x00,
  0x04, 0x00, 0x00, 0x00, 0x9a, 0xfe, 0xff, 0xff, 0x1c, 0x00, 0x00, 0x00,
  0x00, 0x00, 0x00, 0x09, 0x1c, 0x00, 0x00, 0x00, 0x20, 0x00, 0x00, 0x00,
  0x04, 0x00, 0x00, 0x00, 0x00, 0x00, 0x06, 0x00, 0x08, 0x00, 0x04, 0x00,
  0x06, 0x00, 0x00, 0x00, 0x00, 0x00, 0x80, 0x3f, 0x01, 0x00, 0x00, 0x00,
  0x11, 0x00, 0x00, 0x00, 0x01, 0x00, 0x00, 0x00, 0x10, 0x00, 0x00, 0x00,
  0xd2, 0xfe, 0xff, 0xff, 0x14, 0x00, 0x00, 0x00, 0x00, 0x00, 0x00, 0x08,
  0x10, 0x00, 0x00, 0x00, 0x14, 0x00, 0x00, 0x00, 0x03, 0x00, 0x00, 0x00,
  0x2c, 0xf2, 0xff, 0xff, 0x01, 0x00, 0x00, 0x00, 0x10, 0x00, 0x00, 0x00,
  0x03, 0x00, 0x00, 0x00, 0x0f, 0x00, 0x00, 0x00, 0x08, 0x00, 0x00, 0x00,
  0x09, 0x00, 0x00, 0x00, 0x06, 0xff, 0xff, 0xff, 0x1c, 0x00, 0x00, 0x00,
  0x00, 0x00, 0x00, 0x08, 0x1c, 0x00, 0x00, 0x00, 0x20, 0x00, 0x00, 0x00,
  0x03, 0x00, 0x00, 0x00, 0x00, 0x00, 0x06, 0x00, 0x08, 0x00, 0x07, 0x00,
  0x06, 0x00, 0x00, 0x00, 0x00, 0x00, 0x00, 0x01, 0x01, 0x00, 0x00, 0x00,
  0x0f, 0x00, 0x00, 0x00, 0x03, 0x00, 0x00, 0x00, 0x0e, 0x00, 0x00, 0x00,
  0x06, 0x00, 0x00, 0x00, 0x07, 0x00, 0x00, 0x00, 0x00, 0x00, 0x0a, 0x00,
  0x10, 0x00, 0x0c, 0x00, 0x08, 0x00, 0x04, 0x00, 0x0a, 0x00, 0x00, 0x00,
  0x0c, 0x00, 0x00, 0x00, 0x10, 0x00, 0x00, 0x00, 0x02, 0x00, 0x00, 0x00,
  0x01, 0x00, 0x00, 0x00, 0x0e, 0x00, 0x00, 0x00, 0x02, 0x00, 0x00, 0x00,
  0x0d, 0x00, 0x00, 0x00, 0x01, 0x00, 0x00, 0x00, 0x76, 0xff, 0xff, 0xff,
  0x24, 0x00, 0x00, 0x00, 0x00, 0x00, 0x00, 0x05, 0x30, 0x00, 0x00, 0x00,
  0x34, 0x00, 0x00, 0x00, 0x01, 0x00, 0x00, 0x00, 0x00, 0x00, 0x0e, 0x00,
  0x14, 0x00, 0x00, 0x00, 0x10, 0x00, 0x0c, 0x00, 0x08, 0x00, 0x04, 0x00,
  0x0e, 0x00, 0x00, 0x00, 0x03, 0x00, 0x00, 0x00, 0x01, 0x00, 0x00, 0x00,
  0x03, 0x00, 0x00, 0x00, 0x01, 0x00, 0x00, 0x00, 0x01, 0x00, 0x00, 0x00,
  0x0d, 0x00, 0x00, 0x00, 0x01, 0x00, 0x00, 0x00, 0x0c, 0x00, 0x00, 0x00,
  0x62, 0xff, 0xff, 0xff, 0x10, 0x00, 0x00, 0x00, 0x00, 0x00, 0x00, 0x01,
  0x18, 0x00, 0x00, 0x00, 0x1c, 0x00, 0x00, 0x00, 0x54, 0xff, 0xff, 0xff,
  0x00, 0x00, 0x00, 0x01, 0x01, 0x00, 0x00, 0x00, 0x01, 0x00, 0x00, 0x00,
  0x01, 0x00, 0x00, 0x00, 0x0c, 0x00, 0x00, 0x00, 0x03, 0x00, 0x00, 0x00,
  0x0b, 0x00, 0x00, 0x00, 0x04, 0x00, 0x00, 0x00, 0x05, 0x00, 0x00, 0x00,
  0x00, 0x00, 0x0e, 0x00, 0x1a, 0x00, 0x14, 0x00, 0x10, 0x00, 0x0c, 0x00,
  0x0b, 0x00, 0x04, 0x00, 0x0e, 0x00, 0x00, 0x00, 0x24, 0x00, 0x00, 0x00,
  0x00, 0x00, 0x00, 0x05, 0x34, 0x00, 0x00, 0x00, 0x38, 0x00, 0x00, 0x00,
  0x01, 0x00, 0x00, 0x00, 0x00, 0x00, 0x0e, 0x00, 0x18, 0x00, 0x17, 0x00,
  0x10, 0x00, 0x0c, 0x00, 0x08, 0x00, 0x04, 0x00, 0x0e, 0x00, 0x00, 0x00,
  0x03, 0x00, 0x00, 0x00, 0x03, 0x00, 0x00, 0x00, 0x03, 0x00, 0x00, 0x00,
  0x03, 0x00, 0x00, 0x00, 0x00, 0x00, 0x00, 0x01, 0x01, 0x00, 0x00, 0x00,
  0x0b, 0x00, 0x00, 0x00, 0x01, 0x00, 0x00, 0x00, 0x0a, 0x00, 0x00, 0x00,
  0x00, 0x00, 0x0e, 0x00, 0x14, 0x00, 0x00, 0x00, 0x10, 0x00, 0x0c, 0x00,
  0x0b, 0x00, 0x04, 0x00, 0x0e, 0x00, 0x00, 0x00, 0x1c, 0x00, 0x00, 0x00,
  0x00, 0x00, 0x00, 0x01, 0x24, 0x00, 0x00, 0x00, 0x28, 0x00, 0x00, 0x00,
  0x0c, 0x00, 0x10, 0x00, 0x00, 0x00, 0x0c, 0x00, 0x08, 0x00, 0x07, 0x00,
  0x0c, 0x00, 0x00, 0x00, 0x00, 0x00, 0x00, 0x01, 0x01, 0x00, 0x00, 0x00,
  0x01, 0x00, 0x00, 0x00, 0x01, 0x00, 0x00, 0x00, 0x0a, 0x00, 0x00, 0x00,
  0x03, 0x00, 0x00, 0x00, 0x00, 0x00, 0x00, 0x00, 0x02, 0x00, 0x00, 0x00,
  0x03, 0x00, 0x00, 0x00, 0x01, 0x00, 0x00, 0x00, 0x11, 0x00, 0x00, 0x00,
  0x01, 0x00, 0x00, 0x00, 0x00, 0x00, 0x00, 0x00, 0x12, 0x00, 0x00, 0x00,
  0x3c, 0x0c, 0x00, 0x00, 0xd8, 0x0b, 0x00, 0x00, 0xb8, 0x0a, 0x00, 0x00,
  0x9c, 0x09, 0x00, 0x00, 0x70, 0x08, 0x00, 0x00, 0x3c, 0x07, 0x00, 0x00,
  0xd0, 0x06, 0x00, 0x00, 0x4c, 0x06, 0x00, 0x00, 0xe0, 0x05, 0x00, 0x00,
  0x5c, 0x05, 0x00, 0x00, 0x60, 0x04, 0x00, 0x00, 0xcc, 0x03, 0x00, 0x00,
  0xd0, 0x02, 0x00, 0x00, 0x3c, 0x02, 0x00, 0x00, 0xc0, 0x01, 0x00, 0x00,
  0x0c, 0x01, 0x00, 0x00, 0x70, 0x00, 0x00, 0x00, 0x04, 0x00, 0x00, 0x00,
  0x20, 0xf4, 0xff, 0xff, 0x18, 0x00, 0x00, 0x00, 0x20, 0x00, 0x00, 0x00,
  0x40, 0x00, 0x00, 0x00, 0x12, 0x00, 0x00, 0x00, 0x00, 0x00, 0x00, 0x09,
  0x44, 0x00, 0x00, 0x00, 0x02, 0x00, 0x00, 0x00, 0xff, 0xff, 0xff, 0xff,
  0x09, 0x00, 0x00, 0x00, 0x04, 0xf4, 0xff, 0xff, 0x08, 0x00, 0x00, 0x00,
  0x14, 0x00, 0x00, 0x00, 0x01, 0x00, 0x00, 0x00, 0x80, 0xff, 0xff, 0xff,
  0xff, 0xff, 0xff, 0xff, 0x00, 0x00, 0x00, 0x00, 0x01, 0x00, 0x00, 0x00,
  0x00, 0x00, 0x80, 0x3b, 0x08, 0x00, 0x00, 0x00, 0x49, 0x64, 0x65, 0x6e,
  0x74, 0x69, 0x74, 0x79, 0x00, 0x00, 0x00, 0x00, 0x02, 0x00, 0x00, 0x00,
  0x01, 0x00, 0x00, 0x00, 0x09, 0x00, 0x00, 0x00, 0x88, 0xf4, 0xff, 0xff,
  0x18, 0x00, 0x00, 0x00, 0x20, 0x00, 0x00, 0x00, 0x40, 0x00, 0x00, 0x00,
  0x11, 0x00, 0x00, 0x00, 0x00, 0x00, 0x00, 0x09, 0x74, 0x00, 0x00, 0x00,
  0x02, 0x00, 0x00, 0x00, 0xff, 0xff, 0xff, 0xff, 0x09, 0x00, 0x00, 0x00,
  0x6c, 0xf4, 0xff, 0xff, 0x08, 0x00, 0x00, 0x00, 0x14, 0x00, 0x00, 0x00,
  0x01, 0x00, 0x00, 0x00, 0x42, 0x00, 0x00, 0x00, 0x00, 0x00, 0x00, 0x00,
  0x00, 0x00, 0x00, 0x00, 0x01, 0x00, 0x00, 0x00, 0xfa, 0xf4, 0xd0, 0x3f,
  0x38, 0x00, 0x00, 0x00, 0x73, 0x65, 0x71, 0x75, 0x65, 0x6e, 0x74, 0x69,
  0x61, 0x6c, 0x5f, 0x31, 0x2f, 0x64, 0x65, 0x6e, 0x73, 0x65, 0x5f, 0x33,
  0x2f, 0x4d, 0x61, 0x74, 0x4d, 0x75, 0x6c, 0x3b, 0x73, 0x65, 0x71, 0x75,
  0x65, 0x6e, 0x74, 0x69, 0x61, 0x6c, 0x5f, 0x31, 0x2f, 0x64, 0x65, 0x6e,
  0x73, 0x65, 0x5f, 0x33, 0x2f, 0x42, 0x69, 0x61, 0x73, 0x41, 0x64, 0x64,
  0x00, 0x00, 0x00, 0x00, 0x02, 0x00, 0x00, 0x00, 0x01, 0x00, 0x00, 0x00,
  0x09, 0x00, 0x00, 0x00, 0x20, 0xf5, 0xff, 0xff, 0x18, 0x00, 0x00, 0x00,
  0x20, 0x00, 0x00, 0x00, 0x40, 0x00, 0x00, 0x00, 0x10, 0x00, 0x00, 0x00,
  0x00, 0x00, 0x00, 0x09, 0x8c, 0x00, 0x00, 0x00, 0x02, 0x00, 0x00, 0x00,
  0xff, 0xff, 0xff, 0xff, 0x10, 0x00, 0x00, 0x00, 0x04, 0xf5, 0xff, 0xff,
  0x08, 0x00, 0x00, 0x00, 0x14, 0x00, 0x00, 0x00, 0x01, 0x00, 0x00, 0x00,
  0x80, 0xff, 0xff, 0xff, 0xff, 0xff, 0xff, 0xff, 0x00, 0x00, 0x00, 0x00,
  0x01, 0x00, 0x00, 0x00, 0xb0, 0xd6, 0xb9, 0x3e, 0x52, 0x00, 0x00, 0x00,
  0x73, 0x65, 0x71, 0x75, 0x65, 0x6e, 0x74, 0x69, 0x61, 0x6c, 0x5f, 0x31,
  0x2f, 0x64, 0x65, 0x6e, 0x73, 0x65, 0x5f, 0x32, 0x2f, 0x4d, 0x61, 0x74,
  0x4d, 0x75, 0x6c, 0x3b, 0x73, 0x65, 0x71, 0x75, 0x65, 0x6e, 0x74, 0x69,
  0x61, 0x6c, 0x5f, 0x31, 0x2f, 0x64, 0x65, 0x6e, 0x73, 0x65, 0x5f, 0x32,
  0x2f, 0x52, 0x65, 0x6c, 0x75, 0x3b, 0x73, 0x65, 0x71, 0x75, 0x65, 0x6e,
  0x74, 0x69, 0x61, 0x6c, 0x5f, 0x31, 0x2f, 0x64, 0x65, 0x6e, 0x73, 0x65,
  0x5f, 0x32, 0x2f, 0x42, 0x69, 0x61, 0x73, 0x41, 0x64, 0x64, 0x00, 0x00,
  0x02, 0x00, 0x00, 0x00, 0x01, 0x00, 0x00, 0x00, 0x10, 0x00, 0x00, 0x00,
  0xd0, 0xf5, 0xff, 0xff, 0x18, 0x00, 0x00, 0x00, 0x20, 0x00, 0x00, 0x00,
  0x3c, 0x00, 0x00, 0x00, 0x0f, 0x00, 0x00, 0x00, 0x00, 0x00, 0x00, 0x09,
  0x54, 0x00, 0x00, 0x00, 0x02, 0x00, 0x00, 0x00, 0xff, 0xff, 0xff, 0xff,
  0x20, 0x00, 0x00, 0x00, 0xb4, 0xf5, 0xff, 0xff, 0x08, 0x00, 0x00, 0x00,
  0x10, 0x00, 0x00, 0x00, 0x01, 0x00, 0x00, 0x00, 0x80, 0xff, 0xff, 0xff,
  0xff, 0xff, 0xff, 0xff, 0x01, 0x00, 0x00, 0x00, 0x25, 0xd7, 0x06, 0x3f,
  0x1e, 0x00, 0x00, 0x00, 0x73, 0x65, 0x71, 0x75, 0x65, 0x6e, 0x74, 0x69,
  0x61, 0x6c, 0x5f, 0x31, 0x2f, 0x66, 0x6c, 0x61, 0x74, 0x74, 0x65, 0x6e,
  0x5f, 0x31, 0x2f, 0x52, 0x65, 0x73, 0x68, 0x61, 0x70, 0x65, 0x00, 0x00,
  0x02, 0x00, 0x00, 0x00, 0x01, 0x00, 0x00, 0x00, 0x20, 0x00, 0x00, 0x00,
  0x48, 0xf6, 0xff, 0xff, 0x18, 0x00, 0x00, 0x00, 0x28, 0x00, 0x00, 0x00,
  0x44, 0x00, 0x00, 0x00, 0x0e, 0x00, 0x00, 0x00, 0x00, 0x00, 0x00, 0x09,
  0x64, 0x00, 0x00, 0x00, 0x04, 0x00, 0x00, 0x00, 0xff, 0xff, 0xff, 0xff,
  0x01, 0x00, 0x00, 0x00, 0x02, 0x00, 0x00, 0x00, 0x10, 0x00, 0x00, 0x00,
  0x34, 0xf6, 0xff, 0xff, 0x08, 0x00, 0x00, 0x00, 0x10, 0x00, 0x00, 0x00,
  0x01, 0x00, 0x00, 0x00, 0x80, 0xff, 0xff, 0xff, 0xff, 0xff, 0xff, 0xff,
  0x01, 0x00, 0x00, 0x00, 0x25, 0xd7, 0x06, 0x3f, 0x24, 0x00, 0x00, 0x00,
  0x73, 0x65, 0x71, 0x75, 0x65, 0x6e, 0x74, 0x69, 0x61, 0x6c, 0x5f, 0x31,
  0x2f, 0x6d, 0x61, 0x78, 0x5f, 0x70, 0x6f, 0x6f, 0x6c, 0x69, 0x6e, 0x67,
  0x32, 0x64, 0x5f, 0x33, 0x2f, 0x4d, 0x61, 0x78, 0x50, 0x6f, 0x6f, 0x6c,
  0x00, 0x00, 0x00, 0x00, 0x04, 0x00, 0x00, 0x00, 0x01, 0x00, 0x00, 0x00,
  0x01, 0x00, 0x00, 0x00, 0x02, 0x00, 0x00, 0x00, 0x10, 0x00, 0x00, 0x00,
  0xd8, 0xf6, 0xff, 0xff, 0x18, 0x00, 0x00, 0x00, 0x28, 0x00, 0x00, 0x00,
  0x48, 0x00, 0x00, 0x00, 0x0d, 0x00, 0x00, 0x00, 0x00, 0x00, 0x00, 0x09,
  0xcc, 0x00, 0x00, 0x00, 0x04, 0x00, 0x00, 0x00, 0xff, 0xff, 0xff, 0xff,
  0x03, 0x00, 0x00, 0x00, 0x02, 0x00, 0x00, 0x00, 0x10, 0x00, 0x00, 0x00,
  0xc4, 0xf6, 0xff, 0xff, 0x08, 0x00, 0x00, 0x00, 0x14, 0x00, 0x00, 0x00,
  0x01, 0x00, 0x00, 0x00, 0x80, 0xff, 0xff, 0xff, 0xff, 0xff, 0xff, 0xff,
  0x00, 0x00, 0x00, 0x00, 0x01, 0x00, 0x00, 0x00, 0x25, 0xd7, 0x06, 0x3f,
  0x8b, 0x00, 0x00, 0x00, 0x73, 0x65, 0x71, 0x75, 0x65, 0x6e, 0x74, 0x69,
  0x61, 0x6c, 0x5f, 0x31, 0x2f, 0x63, 0x6f, 0x6e, 0x76, 0x32, 0x64, 0x5f,
  0x33, 0x2f, 0x52, 0x65, 0x6c, 0x75, 0x3b, 0x73, 0x65, 0x71, 0x75, 0x65,
  0x6e, 0x74, 0x69, 0x61, 0x6c, 0x5f, 0x31, 0x2f, 0x63, 0x6f, 0x6e, 0x76,
  0x32, 0x64, 0x5f, 0x33, 0x2f, 0x42, 0x69, 0x61, 0x73, 0x41, 0x64, 0x64,
  0x3b, 0x73, 0x65, 0x71, 0x75, 0x65, 0x6e, 0x74, 0x69, 0x61, 0x6c, 0x5f,
  0x31, 0x2f, 0x63, 0x6f, 0x6e, 0x76, 0x32, 0x64, 0x5f, 0x33, 0x2f, 0x43,
  0x6f, 0x6e, 0x76, 0x32, 0x44, 0x3b, 0x73, 0x65, 0x71, 0x75, 0x65, 0x6e,
  0x74, 0x69, 0x61, 0x6c, 0x5f, 0x31, 0x2f, 0x63, 0x6f, 0x6e, 0x76, 0x32,
  0x64, 0x5f, 0x33, 0x2f, 0x42, 0x69, 0x61, 0x73, 0x41, 0x64, 0x64, 0x2f,
  0x52, 0x65, 0x61, 0x64, 0x56, 0x61, 0x72, 0x69, 0x61, 0x62, 0x6c, 0x65,
  0x4f, 0x70, 0x2f, 0x72, 0x65, 0x73, 0x6f, 0x75, 0x72, 0x63, 0x65, 0x00,
  0x04, 0x00, 0x00, 0x00, 0x01, 0x00, 0x00, 0x00, 0x03, 0x00, 0x00, 0x00,
  0x02, 0x00, 0x00, 0x00, 0x10, 0x00, 0x00, 0x00, 0xd0, 0xf7, 0xff, 0xff,
  0x18, 0x00, 0x00, 0x00, 0x28, 0x00, 0x00, 0x00, 0x44, 0x00, 0x00, 0x00,
  0x0c, 0x00, 0x00, 0x00, 0x00, 0x00, 0x00, 0x09, 0x64, 0x00, 0x00, 0x00,
  0x04, 0x00, 0x00, 0x00, 0xff, 0xff, 0xff, 0xff, 0x03, 0x00, 0x00, 0x00,
  0x02, 0x00, 0x00, 0x00, 0x0e, 0x00, 0x00, 0x00, 0xbc, 0xf7, 0xff, 0xff,
  0x08, 0x00, 0x00, 0x00, 0x10, 0x00, 0x00, 0x00, 0x01, 0x00, 0x00, 0x00,
  0x80, 0xff, 0xff, 0xff, 0xff, 0xff, 0xff, 0xff, 0x01, 0x00, 0x00, 0x00,
  0x65, 0xdd, 0x70, 0x3f, 0x24, 0x00, 0x00, 0x00, 0x73, 0x65, 0x71, 0x75,
  0x65, 0x6e, 0x74, 0x69, 0x61, 0x6c, 0x5f, 0x31, 0x2f, 0x6d, 0x61, 0x78,
  0x5f, 0x70, 0x6f, 0x6f, 0x6c, 0x69, 0x6e, 0x67, 0x32, 0x64, 0x5f, 0x32,
  0x2f, 0x4d, 0x61, 0x78, 0x50, 0x6f, 0x6f, 0x6c, 0x00, 0x00, 0x00, 0x00,
  0x04, 0x00, 0x00, 0x00, 0x01, 0x00, 0x00, 0x00, 0x03, 0x00, 0x00, 0x00,
  0x02, 0x00, 0x00, 0x00, 0x0e, 0x00, 0x00, 0x00, 0x60, 0xf8, 0xff, 0xff,
  0x18, 0x00, 0x00, 0x00, 0x28, 0x00, 0x00, 0x00, 0x48, 0x00, 0x00, 0x00,
  0x0b, 0x00, 0x00, 0x00, 0x00, 0x00, 0x00, 0x09, 0xcc, 0x00, 0x00, 0x00,
  0x04, 0x00, 0x00, 0x00, 0xff, 0xff, 0xff, 0xff, 0x0a, 0x00, 0x00, 0x00,
  0x06, 0x00, 0x00, 0x00, 0x0e, 0x00, 0x00, 0x00, 0x4c, 0xf8, 0xff, 0xff,
  0x08, 0x00, 0x00, 0x00, 0x14, 0x00, 0x00, 0x00, 0x01, 0x00, 0x00, 0x00,
  0x80, 0xff, 0xff, 0xff, 0xff, 0xff, 0xff, 0xff, 0x00, 0x00, 0x00, 0x00,
  0x01, 0x00, 0x00, 0x00, 0x65, 0xdd, 0x70, 0x3f, 0x8b, 0x00, 0x00, 0x00,
  0x73, 0x65, 0x71, 0x75, 0x65, 0x6e, 0x74, 0x69, 0x61, 0x6c, 0x5f, 0x31,
  0x2f, 0x63, 0x6f, 0x6e, 0x76, 0x32, 0x64, 0x5f, 0x32, 0x2f, 0x52, 0x65,
  0x6c, 0x75, 0x3b, 0x73, 0x65, 0x71, 0x75, 0x65, 0x6e, 0x74, 0x69, 0x61,
  0x6c, 0x5f, 0x31, 0x2f, 0x63, 0x6f, 0x6e, 0x76, 0x32, 0x64, 0x5f, 0x32,
  0x2f, 0x42, 0x69, 0x61, 0x73, 0x41, 0x64, 0x64, 0x3b, 0x73, 0x65, 0x71,
  0x75, 0x65, 0x6e, 0x74, 0x69, 0x61, 0x6c, 0x5f, 0x31, 0x2f, 0x63, 0x6f,
  0x6e, 0x76, 0x32, 0x64, 0x5f, 0x32, 0x2f, 0x43, 0x6f, 0x6e, 0x76, 0x32,
  0x44, 0x3b, 0x73, 0x65, 0x71, 0x75, 0x65, 0x6e, 0x74, 0x69, 0x61, 0x6c,
  0x5f, 0x31, 0x2f, 0x63, 0x6f, 0x6e, 0x76, 0x32, 0x64, 0x5f, 0x32, 0x2f,
  0x42, 0x69, 0x61, 0x73, 0x41, 0x64, 0x64, 0x2f, 0x52, 0x65, 0x61, 0x64,
  0x56, 0x61, 0x72, 0x69, 0x61, 0x62, 0x6c, 0x65, 0x4f, 0x70, 0x2f, 0x72,
  0x65, 0x73, 0x6f, 0x75, 0x72, 0x63, 0x65, 0x00, 0x04, 0x00, 0x00, 0x00,
  0x01, 0x00, 0x00, 0x00, 0x0a, 0x00, 0x00, 0x00, 0x06, 0x00, 0x00, 0x00,
  0x0e, 0x00, 0x00, 0x00, 0xb2, 0xf9, 0xff, 0xff, 0x14, 0x00, 0x00, 0x00,
  0x34, 0x00, 0x00, 0x00, 0x0a, 0x00, 0x00, 0x00, 0x00, 0x00, 0x00, 0x02,
  0x64, 0x00, 0x00, 0x00, 0x2c, 0xf9, 0xff, 0xff, 0x08, 0x00, 0x00, 0x00,
  0x14, 0x00, 0x00, 0x00, 0x01, 0x00, 0x00, 0x00, 0x00, 0x00, 0x00, 0x00,
  0x00, 0x00, 0x00, 0x00, 0x00, 0x00, 0x00, 0x00, 0x01, 0x00, 0x00, 0x00,
  0xab, 0x16, 0xab, 0x3b, 0x34, 0x00, 0x00, 0x00, 0x73, 0x65, 0x71, 0x75,
  0x65, 0x6e, 0x74, 0x69, 0x61, 0x6c, 0x5f, 0x31, 0x2f, 0x64, 0x65, 0x6e,
  0x73, 0x65, 0x5f, 0x33, 0x2f, 0x42, 0x69, 0x61, 0x73, 0x41, 0x64, 0x64,
  0x2f, 0x52, 0x65, 0x61, 0x64, 0x56, 0x61, 0x72, 0x69, 0x61, 0x62, 0x6c,
  0x65, 0x4f, 0x70, 0x2f, 0x72, 0x65, 0x73, 0x6f, 0x75, 0x72, 0x63, 0x65,
  0x00, 0x00, 0x00, 0x00, 0x01, 0x00, 0x00, 0x00, 0x09, 0x00, 0x00, 0x00,
  0x32, 0xfa, 0xff, 0xff, 0x14, 0x00, 0x00, 0x00, 0x34, 0x00, 0x00, 0x00,
  0x09, 0x00, 0x00, 0x00, 0x00, 0x00, 0x00, 0x09, 0x48, 0x00, 0x00, 0x00,
  0xac, 0xf9, 0xff, 0xff, 0x08, 0x00, 0x00, 0x00, 0x14, 0x00, 0x00, 0x00,
  0x01, 0x00, 0x00, 0x00, 0x00, 0x00, 0x00, 0x00, 0x00, 0x00, 0x00, 0x00,
  0x00, 0x00, 0x00, 0x00, 0x01, 0x00, 0x00, 0x00, 0x62, 0xae, 0x6b, 0x3c,
  0x1b, 0x00, 0x00, 0x00, 0x73, 0x65, 0x71, 0x75, 0x65, 0x6e, 0x74, 0x69,
  0x61, 0x6c, 0x5f, 0x31, 0x2f, 0x64, 0x65, 0x6e, 0x73, 0x65, 0x5f, 0x33,
  0x2f, 0x4d, 0x61, 0x74, 0x4d, 0x75, 0x6c, 0x00, 0x02, 0x00, 0x00, 0x00,
  0x09, 0x00, 0x00, 0x00, 0x10, 0x00, 0x00, 0x00, 0x9a, 0xfa, 0xff, 0xff,
  0x14, 0x00, 0x00, 0x00, 0x34, 0x00, 0x00, 0x00, 0x08, 0x00, 0x00, 0x00,
  0x00, 0x00, 0x00, 0x02, 0x64, 0x00, 0x00, 0x00, 0x14, 0xfa, 0xff, 0xff,
  0x08, 0x00, 0x00, 0x00, 0x14, 0x00, 0x00, 0x00, 0x01, 0x00, 0x00, 0x00,
  0x00, 0x00, 0x00, 0x00, 0x00, 0x00, 0x00, 0x00, 0x00, 0x00, 0x00, 0x00,
  0x01, 0x00, 0x00, 0x00, 0x0f, 0x98, 0xa5, 0x3b, 0x34, 0x00, 0x00, 0x00,
  0x73, 0x65, 0x71, 0x75, 0x65, 0x6e, 0x74, 0x69, 0x61, 0x6c, 0x5f, 0x31,
  0x2f, 0x64, 0x65, 0x6e, 0x73, 0x65, 0x5f, 0x32, 0x2f, 0x42, 0x69, 0x61,
  0x73, 0x41, 0x64, 0x64, 0x2f, 0x52, 0x65, 0x61, 0x64, 0x56, 0x61, 0x72,
  0x69, 0x61, 0x62, 0x6c, 0x65, 0x4f, 0x70, 0x2f, 0x72, 0x65, 0x73, 0x6f,
  0x75, 0x72, 0x63, 0x65, 0x00, 0x00, 0x00, 0x00, 0x01, 0x00, 0x00, 0x00,
  0x10, 0x00, 0x00, 0x00, 0x1a, 0xfb, 0xff, 0xff, 0x14, 0x00, 0x00, 0x00,
  0x34, 0x00, 0x00, 0x00, 0x07, 0x00, 0x00, 0x00, 0x00, 0x00, 0x00, 0x09,
  0x48, 0x00, 0x00, 0x00, 0x94, 0xfa, 0xff, 0xff, 0x08, 0x00, 0x00, 0x00,
  0x14, 0x00, 0x00, 0x00, 0x01, 0x00, 0x00, 0x00, 0x00, 0x00, 0x00, 0x00,
  0x00, 0x00, 0x00, 0x00, 0x00, 0x00, 0x00, 0x00, 0x01, 0x00, 0x00, 0x00,
  0x86, 0x31, 0x1d, 0x3c, 0x1b, 0x00, 0x00, 0x00, 0x73, 0x65, 0x71, 0x75,
  0x65, 0x6e, 0x74, 0x69, 0x61, 0x6c, 0x5f, 0x31, 0x2f, 0x64, 0x65, 0x6e,
  0x73, 0x65, 0x5f, 0x32, 0x2f, 0x4d, 0x61, 0x74, 0x4d, 0x75, 0x6c, 0x00,
  0x02, 0x00, 0x00, 0x00, 0x10, 0x00, 0x00, 0x00, 0x20, 0x00, 0x00, 0x00,
  0x82, 0xfb, 0xff, 0xff, 0x14, 0x00, 0x00, 0x00, 0xe4, 0x00, 0x00, 0x00,
  0x06, 0x00, 0x00, 0x00, 0x00, 0x00, 0x00, 0x02, 0x14, 0x01, 0x00, 0x00,
  0xfc, 0xfa, 0xff, 0xff, 0x08, 0x00, 0x00, 0x00, 0x88, 0x00, 0x00, 0x00,
  0x10, 0x00, 0x00, 0x00, 0x00, 0x00, 0x00, 0x00, 0x00, 0x00, 0x00, 0x00,
  0x00, 0x00, 0x00, 0x00, 0x00, 0x00, 0x00, 0x00, 0x00, 0x00, 0x00, 0x00,
  0x00, 0x00, 0x00, 0x00, 0x00, 0x00, 0x00, 0x00, 0x00, 0x00, 0x00, 0x00,
  0x00, 0x00, 0x00, 0x00, 0x00, 0x00, 0x00, 0x00, 0x00, 0x00, 0x00, 0x00,
  0x00, 0x00, 0x00, 0x00, 0x00, 0x00, 0x00, 0x00, 0x00, 0x00, 0x00, 0x00,
  0x00, 0x00, 0x00, 0x00, 0x00, 0x00, 0x00, 0x00, 0x00, 0x00, 0x00, 0x00,
  0x00, 0x00, 0x00, 0x00, 0x00, 0x00, 0x00, 0x00, 0x00, 0x00, 0x00, 0x00,
  0x00, 0x00, 0x00, 0x00, 0x00, 0x00, 0x00, 0x00, 0x00, 0x00, 0x00, 0x00,
  0x00, 0x00, 0x00, 0x00, 0x00, 0x00, 0x00, 0x00, 0x00, 0x00, 0x00, 0x00,
  0x00, 0x00, 0x00, 0x00, 0x00, 0x00, 0x00, 0x00, 0x00, 0x00, 0x00, 0x00,
  0x00, 0x00, 0x00, 0x00, 0x00, 0x00, 0x00, 0x00, 0x00, 0x00, 0x00, 0x00,
  0x10, 0x00, 0x00, 0x00, 0x3e, 0xff, 0xaf, 0x3b, 0xa3, 0x1f, 0x9b, 0x3b,
  0x68, 0x09, 0x92, 0x3b, 0x19, 0x14, 0xd5, 0x3b, 0x62, 0x94, 0xe2, 0x3b,
  0x33, 0xe7, 0x98, 0x3b, 0x21, 0xcb, 0xba, 0x3b, 0xa0, 0x70, 0x90, 0x3b,
  0x57, 0x65, 0x9f, 0x3b, 0xae, 0x48, 0x80, 0x3b, 0x19, 0x6f, 0x51, 0x3b,
  0x29, 0x05, 0xbe, 0x3b, 0x87, 0x28, 0xc4, 0x3b, 0xac, 0x8c, 0x3f, 0x3c,
  0x4a, 0x51, 0xdd, 0x3b, 0x63, 0xe9, 0xa2, 0x3b, 0x35, 0x00, 0x00, 0x00,
  0x73, 0x65, 0x71, 0x75, 0x65, 0x6e, 0x74, 0x69, 0x61, 0x6c, 0x5f, 0x31,
  0x2f, 0x63, 0x6f, 0x6e, 0x76, 0x32, 0x64, 0x5f, 0x33, 0x2f, 0x42, 0x69,
  0x61, 0x73, 0x41, 0x64, 0x64, 0x2f, 0x52, 0x65, 0x61, 0x64, 0x56, 0x61,
  0x72, 0x69, 0x61, 0x62, 0x6c, 0x65, 0x4f, 0x70, 0x2f, 0x72, 0x65, 0x73,
  0x6f, 0x75, 0x72, 0x63, 0x65, 0x00, 0x00, 0x00, 0x01, 0x00, 0x00, 0x00,
  0x10, 0x00, 0x00, 0x00, 0xb2, 0xfc, 0xff, 0xff, 0x14, 0x00, 0x00, 0x00,
  0xe8, 0x00, 0x00, 0x00, 0x05, 0x00, 0x00, 0x00, 0x00, 0x00, 0x00, 0x09,
  0x00, 0x01, 0x00, 0x00, 0x2c, 0xfc, 0xff, 0xff, 0x08, 0x00, 0x00, 0x00,
  0x8c, 0x00, 0x00, 0x00, 0x10, 0x00, 0x00, 0x00, 0x00, 0x00, 0x00, 0x00,
  0x00, 0x00, 0x00, 0x00, 0x00, 0x00, 0x00, 0x00, 0x00, 0x00, 0x00, 0x00,
  0x00, 0x00, 0x00, 0x00, 0x00, 0x00, 0x00, 0x00, 0x00, 0x00, 0x00, 0x00,
  0x00, 0x00, 0x00, 0x00, 0x00, 0x00, 0x00, 0x00, 0x00, 0x00, 0x00, 0x00,
  0x00, 0x00, 0x00, 0x00, 0x00, 0x00, 0x00, 0x00, 0x00, 0x00, 0x00, 0x00,
  0x00, 0x00, 0x00, 0x00, 0x00, 0x00, 0x00, 0x00, 0x00, 0x00, 0x00, 0x00,
  0x00, 0x00, 0x00, 0x00, 0x00, 0x00, 0x00, 0x00, 0x00, 0x00, 0x00, 0x00,
  0x00, 0x00, 0x00, 0x00, 0x00, 0x00, 0x00, 0x00, 0x00, 0x00, 0x00, 0x00,
  0x00, 0x00, 0x00, 0x00, 0x00, 0x00, 0x00, 0x00, 0x00, 0x00, 0x00, 0x00,
  0x00, 0x00, 0x00, 0x00, 0x00, 0x00, 0x00, 0x00, 0x00, 0x00, 0x00, 0x00,
  0x00, 0x00, 0x00, 0x00, 0x00, 0x00, 0x00, 0x00, 0x00, 0x00, 0x00, 0x00,
  0x00, 0x00, 0x00, 0x00, 0x00, 0x00, 0x00, 0x00, 0x10, 0x00, 0x00, 0x00,
  0x5f, 0x0e, 0xbb, 0x3b, 0xfd, 0xde, 0xa4, 0x3b, 0x96, 0x36, 0x9b, 0x3b,
  0xba, 0x77, 0xe2, 0x3b, 0x32, 0xd1, 0xf0, 0x3b, 0xd5, 0x82, 0xa2, 0x3b,
  0xee, 0x87, 0xc6, 0x3b, 0x1e, 0x84, 0x99, 0x3b, 0x6b, 0x69, 0xa9, 0x3b,
  0x48, 0x58, 0x88, 0x3b, 0x19, 0x98, 0x5e, 0x3b, 0xde, 0xf5, 0xc9, 0x3b,
  0xf9, 0x7b, 0xd0, 0x3b, 0xfb, 0x95, 0x4b, 0x3c, 0x74, 0x39, 0xeb, 0x3b,
  0x05, 0x26, 0xad, 0x3b, 0x1c, 0x00, 0x00, 0x00, 0x73, 0x65, 0x71, 0x75,
  0x65, 0x6e, 0x74, 0x69, 0x61, 0x6c, 0x5f, 0x31, 0x2f, 0x63, 0x6f, 0x6e,
  0x76, 0x32, 0x64, 0x5f, 0x33, 0x2f, 0x43, 0x6f, 0x6e, 0x76, 0x32, 0x44,
  0x00, 0x00, 0x00, 0x00, 0x04, 0x00, 0x00, 0x00, 0x10, 0x00, 0x00, 0x00,
  0x04, 0x00, 0x00, 0x00, 0x01, 0x00, 0x00, 0x00, 0x0e, 0x00, 0x00, 0x00,
  0xda, 0xfd, 0xff, 0xff, 0x14, 0x00, 0x00, 0x00, 0xcc, 0x00, 0x00, 0x00,
  0x04, 0x00, 0x00, 0x00, 0x00, 0x00, 0x00, 0x02, 0xfc, 0x00, 0x00, 0x00,
  0x54, 0xfd, 0xff, 0xff, 0x08, 0x00, 0x00, 0x00, 0x78, 0x00, 0x00, 0x00,
  0x0e, 0x00, 0x00, 0x00, 0x00, 0x00, 0x00, 0x00, 0x00, 0x00, 0x00, 0x00,
  0x00, 0x00, 0x00, 0x00, 0x00, 0x00, 0x00, 0x00, 0x00, 0x00, 0x00, 0x00,
  0x00, 0x00, 0x00, 0x00, 0x00, 0x00, 0x00, 0x00, 0x00, 0x00, 0x00, 0x00,
  0x00, 0x00, 0x00, 0x00, 0x00, 0x00, 0x00, 0x00, 0x00, 0x00, 0x00, 0x00,
  0x00, 0x00, 0x00, 0x00, 0x00, 0x00, 0x00, 0x00, 0x00, 0x00, 0x00, 0x00,
  0x00, 0x00, 0x00, 0x00, 0x00, 0x00, 0x00, 0x00, 0x00, 0x00, 0x00, 0x00,
  0x00, 0x00, 0x00, 0x00, 0x00, 0x00, 0x00, 0x00, 0x00, 0x00, 0x00, 0x00,
  0x00, 0x00, 0x00, 0x00, 0x00, 0x00, 0x00, 0x00, 0x00, 0x00, 0x00, 0x00,
  0x00, 0x00, 0x00, 0x00, 0x00, 0x00, 0x00, 0x00, 0x00, 0x00, 0x00, 0x00,
  0x00, 0x00, 0x00, 0x00, 0x00, 0x00, 0x00, 0x00, 0x0e, 0x00, 0x00, 0x00,
  0x64, 0x83, 0x3a, 0x3c, 0x6c, 0x83, 0x02, 0x3c, 0xea, 0x66, 0x7a, 0x3b,
  0x6e, 0xe7, 0xf5, 0x3b, 0x3f, 0x40, 0xc1, 0x3b, 0x6f, 0x57, 0xd1, 0x3b,
  0x32, 0x58, 0xc1, 0x3b, 0xc4, 0x52, 0xf4, 0x3b, 0xd9, 0xa9, 0x07, 0x3c,
  0xff, 0xa8, 0xa9, 0x3b, 0xf7, 0x0b, 0xe0, 0x3b, 0xbc, 0x1b, 0x54, 0x3c,
  0x7d, 0x71, 0x1c, 0x3c, 0xa8, 0xbf, 0xe7, 0x3b, 0x35, 0x00, 0x00, 0x00,
  0x73, 0x65, 0x71, 0x75, 0x65, 0x6e, 0x74, 0x69, 0x61, 0x6c, 0x5f, 0x31,
  0x2f, 0x63, 0x6f, 0x6e, 0x76, 0x32, 0x64, 0x5f, 0x32, 0x2f, 0x42, 0x69,
  0x61, 0x73, 0x41, 0x64, 0x64, 0x2f, 0x52, 0x65, 0x61, 0x64, 0x56, 0x61,
  0x72, 0x69, 0x61, 0x62, 0x6c, 0x65, 0x4f, 0x70, 0x2f, 0x72, 0x65, 0x73,
  0x6f, 0x75, 0x72, 0x63, 0x65, 0x00, 0x00, 0x00, 0x01, 0x00, 0x00, 0x00,
  0x0e, 0x00, 0x00, 0x00, 0xf2, 0xfe, 0xff, 0xff, 0x14, 0x00, 0x00, 0x00,
  0xcc, 0x00, 0x00, 0x00, 0x03, 0x00, 0x00, 0x00, 0x00, 0x00, 0x00, 0x09,
  0xe4, 0x00, 0x00, 0x00, 0x6c, 0xfe, 0xff, 0xff, 0x08, 0x00, 0x00, 0x00,
  0x78, 0x00, 0x00, 0x00, 0x0e, 0x00, 0x00, 0x00, 0x00, 0x00, 0x00, 0x00,
  0x00, 0x00, 0x00, 0x00, 0x00, 0x00, 0x00, 0x00, 0x00, 0x00, 0x00, 0x00,
  0x00, 0x00, 0x00, 0x00, 0x00, 0x00, 0x00, 0x00, 0x00, 0x00, 0x00, 0x00,
  0x00, 0x00, 0x00, 0x00, 0x00, 0x00, 0x00, 0x00, 0x00, 0x00, 0x00, 0x00,
  0x00, 0x00, 0x00, 0x00, 0x00, 0x00, 0x00, 0x00, 0x00, 0x00, 0x00, 0x00,
  0x00, 0x00, 0x00, 0x00, 0x00, 0x00, 0x00, 0x00, 0x00, 0x00, 0x00, 0x00,
  0x00, 0x00, 0x00, 0x00, 0x00, 0x00, 0x00, 0x00, 0x00, 0x00, 0x00, 0x00,
  0x00, 0x00, 0x00, 0x00, 0x00, 0x00, 0x00, 0x00, 0x00, 0x00, 0x00, 0x00,
  0x00, 0x00, 0x00, 0x00, 0x00, 0x00, 0x00, 0x00, 0x00, 0x00, 0x00, 0x00,
  0x00, 0x00, 0x00, 0x00, 0x00, 0x00, 0x00, 0x00, 0x00, 0x00, 0x00, 0x00,
  0x0e, 0x00, 0x00, 0x00, 0x08, 0x12, 0x89, 0x3b, 0xc5, 0xd4, 0x3f, 0x3b,
  0xde, 0x05, 0xb8, 0x3a, 0xa1, 0xb7, 0x34, 0x3b, 0xa5, 0x05, 0x0e, 0x3b,
  0xe0, 0xd8, 0x19, 0x3b, 0x3f, 0x17, 0x0e, 0x3b, 0x3d, 0x8e, 0x33, 0x3b,
  0x9e, 0x66, 0x47, 0x3b, 0xae, 0x5e, 0xf9, 0x3a, 0x78, 0xa7, 0x24, 0x3b,
  0x6a, 0xe1, 0x9b, 0x3b, 0x89, 0xf1, 0x65, 0x3b, 0x7c, 0x50, 0x2a, 0x3b,
  0x1c, 0x00, 0x00, 0x00, 0x73, 0x65, 0x71, 0x75, 0x65, 0x6e, 0x74, 0x69,
  0x61, 0x6c, 0x5f, 0x31, 0x2f, 0x63, 0x6f, 0x6e, 0x76, 0x32, 0x64, 0x5f,
  0x32, 0x2f, 0x43, 0x6f, 0x6e, 0x76, 0x32, 0x44, 0x00, 0x00, 0x00, 0x00,
  0x04, 0x00, 0x00, 0x00, 0x0e, 0x00, 0x00, 0x00, 0x04, 0x00, 0x00, 0x00,
  0x03, 0x00, 0x00, 0x00, 0x01, 0x00, 0x00, 0x00, 0x00, 0x00, 0x0e, 0x00,
  0x18, 0x00, 0x14, 0x00, 0x13, 0x00, 0x0c, 0x00, 0x08, 0x00, 0x04, 0x00,
  0x0e, 0x00, 0x00, 0x00, 0x18, 0x00, 0x00, 0x00, 0x18, 0x00, 0x00, 0x00,
  0x02, 0x00, 0x00, 0x00, 0x00, 0x00, 0x00, 0x02, 0x30, 0x00, 0x00, 0x00,
  0x04, 0x00, 0x04, 0x00, 0x04, 0x00, 0x00, 0x00, 0x1c, 0x00, 0x00, 0x00,
  0x73, 0x65, 0x71, 0x75, 0x65, 0x6e, 0x74, 0x69, 0x61, 0x6c, 0x5f, 0x31,
  0x2f, 0x66, 0x6c, 0x61, 0x74, 0x74, 0x65, 0x6e, 0x5f, 0x31, 0x2f, 0x43,
  0x6f, 0x6e, 0x73, 0x74, 0x00, 0x00, 0x00, 0x00, 0x01, 0x00, 0x00, 0x00,
  0x02, 0x00, 0x00, 0x00, 0x14, 0x00, 0x1c, 0x00, 0x18, 0x00, 0x17, 0x00,
  0x10, 0x00, 0x0c, 0x00, 0x08, 0x00, 0x00, 0x00, 0x00, 0x00, 0x04, 0x00,
  0x14, 0x00, 0x00, 0x00, 0x18, 0x00, 0x00, 0x00, 0x34, 0x00, 0x00, 0x00,
  0x54, 0x00, 0x00, 0x00, 0x01, 0x00, 0x00, 0x00, 0x00, 0x00, 0x00, 0x09,
  0x5c, 0x00, 0x00, 0x00, 0x04, 0x00, 0x00, 0x00, 0xff, 0xff, 0xff, 0xff,
  0x0a, 0x00, 0x00, 0x00, 0x06, 0x00, 0x00, 0x00, 0x01, 0x00, 0x00, 0x00,
  0x0c, 0x00, 0x0c, 0x00, 0x00, 0x00, 0x00, 0x00, 0x08, 0x00, 0x04, 0x00,
  0x0c, 0x00, 0x00, 0x00, 0x08, 0x00, 0x00, 0x00, 0x14, 0x00, 0x00, 0x00,
  0x01, 0x00, 0x00, 0x00, 0xa3, 0xff, 0xff, 0xff, 0xff, 0xff, 0xff, 0xff,
  0x00, 0x00, 0x00, 0x00, 0x01, 0x00, 0x00, 0x00, 0xc7, 0x2b, 0x2e, 0x40,
  0x0e, 0x00, 0x00, 0x00, 0x63, 0x6f, 0x6e, 0x76, 0x32, 0x64, 0x5f, 0x32,
  0x5f, 0x69, 0x6e, 0x70, 0x75, 0x74, 0x00, 0x00, 0x04, 0x00, 0x00, 0x00,
  0x01, 0x00, 0x00, 0x00, 0x0a, 0x00, 0x00, 0x00, 0x06, 0x00, 0x00, 0x00,
  0x01, 0x00, 0x00, 0x00, 0x05, 0x00, 0x00, 0x00, 0x68, 0x00, 0x00, 0x00,
  0x48, 0x00, 0x00, 0x00, 0x38, 0x00, 0x00, 0x00, 0x18, 0x00, 0x00, 0x00,
  0x04, 0x00, 0x00, 0x00, 0xb8, 0xff, 0xff, 0xff, 0x19, 0x00, 0x00, 0x00,
  0x02, 0x00, 0x00, 0x00, 0x00, 0x00, 0x00, 0x19, 0xc8, 0xff, 0xff, 0xff,
  0x09, 0x00, 0x00, 0x00, 0x04, 0x00, 0x00, 0x00, 0x00, 0x00, 0x00, 0x09,
  0x0c, 0x00, 0x0c, 0x00, 0x0b, 0x00, 0x00, 0x00, 0x00, 0x00, 0x04, 0x00,
  0x0c, 0x00, 0x00, 0x00, 0x16, 0x00, 0x00, 0x00, 0x00, 0x00, 0x00, 0x16,
  0xf0, 0xff, 0xff, 0xff, 0x11, 0x00, 0x00, 0x00, 0x02, 0x00, 0x00, 0x00,
  0x00, 0x00, 0x00, 0x11, 0x0c, 0x00, 0x10, 0x00, 0x0f, 0x00, 0x00, 0x00,
  0x08, 0x00, 0x04, 0x00, 0x0c, 0x00, 0x00, 0x00, 0x03, 0x00, 0x00, 0x00,
  0x03, 0x00, 0x00, 0x00, 0x00, 0x00, 0x00, 0x03
};
unsigned int g_model_len = 6392;
